{
  "version": "1.0",
  "truncation": null,
  "padding": null,
  "added_tokens": [
    {
      "id": 0,
      "content": "<pad>",
      "single_word": false,
      "lstrip": false,
      "rstrip": false,
      "normalized": false,
      "special": true
    },
    {
      "id": 1,
      "content": "<unk>",
      "single_word": false,
      "lstrip": false,
      "rstrip": false,
      "normalized": false,
      "special": true
    },
    {
      "id": 2,
      "content": "<bos>",
      "single_word": false,
      "lstrip": false,
      "rstrip": false,
      "normalized": false,
      "special": true
    },
    {
      "id": 3,
      "content": "<eos>",
      "single_word": false,
      "lstrip": false,
      "rstrip": false,
      "normalized": false,
      "special": true
    },
    {
      "id": 4,
      "content": "<|system|>",
      "single_word": false,
      "lstrip": false,
      "rstrip": false,
      "normalized": false,
      "special": true
    },
    {
      "id": 5,
      "content": "<|user|>",
      "single_word": false,
      "lstrip": false,
      "rstrip": false,
      "normalized": false,
      "special": true
    },
    {
      "id": 6,
      "content": "<|assistant|>",
      "single_word": false,
      "lstrip": false,
      "rstrip": false,
      "normalized": false,
      "special": true
    }
  ],
  "normalizer": null,
  "pre_tokenizer": {
    "type": "ByteLevel",
    "add_prefix_space": false,
    "trim_offsets": true,
    "use_regex": true
  },
  "post_processor": null,
  "decoder": {
    "type": "ByteLevel",
    "add_prefix_space": true,
    "trim_offsets": true,
    "use_regex": true
  },
  "model": {
    "type": "BPE",
    "dropout": null,
    "unk_token": "<unk>",
    "continuing_subword_prefix": null,
    "end_of_word_suffix": null,
    "fuse_unk": false,
    "byte_fallback": false,
    "ignore_merges": false,
    "vocab": {
      "<pad>": 0,
      "<unk>": 1,
      "<bos>": 2,
      "<eos>": 3,
      "<|system|>": 4,
      "<|user|>": 5,
      "<|assistant|>": 6,
      "!": 7,
      "\"": 8,
      "#": 9,
      "$": 10,
      "%": 11,
      "&": 12,
      "'": 13,
      "(": 14,
      ")": 15,
      "*": 16,
      "+": 17,
      ",": 18,
      "-": 19,
      ".": 20,
      "/": 21,
      "0": 22,
      "1": 23,
      "2": 24,
      "3": 25,
      "4": 26,
      "5": 27,
      "6": 28,
      "7": 29,
      "8": 30,
      "9": 31,
      ":": 32,
      ";": 33,
      "<": 34,
      "=": 35,
      ">": 36,
      "?": 37,
      "@": 38,
      "A": 39,
      "B": 40,
      "C": 41,
      "D": 42,
      "E": 43,
      "F": 44,
      "G": 45,
      "H": 46,
      "I": 47,
      "J": 48,
      "K": 49,
      "L": 50,
      "M": 51,
      "N": 52,
      "O": 53,
      "P": 54,
      "Q": 55,
      "R": 56,
      "S": 57,
      "T": 58,
      "U": 59,
      "V": 60,
      "W": 61,
      "X": 62,
      "Y": 63,
      "Z": 64,
      "[": 65,
      "\\": 66,
      "]": 67,
      "^": 68,
      "_": 69,
      "`": 70,
      "a": 71,
      "b": 72,
      "c": 73,
      "d": 74,
      "e": 75,
      "f": 76,
      "g": 77,
      "h": 78,
      "i": 79,
      "j": 80,
      "k": 81,
      "l": 82,
      "m": 83,
      "n": 84,
      "o": 85,
      "p": 86,
      "q": 87,
      "r": 88,
      "s": 89,
      "t": 90,
      "u": 91,
      "v": 92,
      "w": 93,
      "x": 94,
      "y": 95,
      "z": 96,
      "{": 97,
      "|": 98,
      "}": 99,
      "~": 100,
      "¡": 101,
      "¢": 102,
      "£": 103,
      "¤": 104,
      "¥": 105,
      "¦": 106,
      "§": 107,
      "¨": 108,
      "©": 109,
      "ª": 110,
      "«": 111,
      "¬": 112,
      "®": 113,
      "¯": 114,
      "°": 115,
      "±": 116,
      "²": 117,
      "³": 118,
      "´": 119,
      "µ": 120,
      "¶": 121,
      "·": 122,
      "¸": 123,
      "¹": 124,
      "º": 125,
      "»": 126,
      "¼": 127,
      "½": 128,
      "¾": 129,
      "¿": 130,
      "Â": 131,
      "Ã": 132,
      "Ä": 133,
      "Å": 134,
      "Æ": 135,
      "Ç": 136,
      "È": 137,
      "É": 138,
      "Ê": 139,
      "Ë": 140,
      "Ì": 141,
      "Í": 142,
      "Î": 143,
      "Ï": 144,
      "Ð": 145,
      "Ñ": 146,
      "Ò": 147,
      "Ó": 148,
      "Ô": 149,
      "Õ": 150,
      "Ö": 151,
      "×": 152,
      "Ø": 153,
      "Ù": 154,
      "Ú": 155,
      "Û": 156,
      "Ü": 157,
      "Ý": 158,
      "Þ": 159,
      "ß": 160,
      "à": 161,
      "á": 162,
      "â": 163,
      "ã": 164,
      "ä": 165,
      "å": 166,
      "æ": 167,
      "ç": 168,
      "è": 169,
      "é": 170,
      "ê": 171,
      "ë": 172,
      "ì": 173,
      "í": 174,
      "î": 175,
      "ï": 176,
      "ð": 177,
      "ó": 178,
      "ô": 179,
      "ĉ": 180,
      "Ċ": 181,
      "Č": 182,
      "Ġ": 183,
      "Ģ": 184,
      "ģ": 185,
      "Ĥ": 186,
      "ĥ": 187,
      "Ħ": 188,
      "ħ": 189,
      "Ĩ": 190,
      "ĩ": 191,
      "Ī": 192,
      "ī": 193,
      "Ĭ": 194,
      "ĭ": 195,
      "Į": 196,
      "į": 197,
      "İ": 198,
      "ı": 199,
      "Ĳ": 200,
      "ĳ": 201,
      "Ĵ": 202,
      "ĵ": 203,
      "Ķ": 204,
      "ķ": 205,
      "ĸ": 206,
      "Ĺ": 207,
      "ĺ": 208,
      "Ļ": 209,
      "ļ": 210,
      "Ľ": 211,
      "ľ": 212,
      "Ŀ": 213,
      "ŀ": 214,
      "Ł": 215,
      "ł": 216,
      "Ń": 217,
      "Ġt": 218,
      "he": 219,
      "Ġa": 220,
      "in": 221,
      "Ġthe": 222,
      "re": 223,
      "Ġs": 224,
      "Ġw": 225,
      "nd": 226,
      "on": 227,
      "er": 228,
      "at": 229,
      "Ġb": 230,
      "ed": 231,
      "it": 232,
      "Ġo": 233,
      "Ġc": 234,
      "Ġf": 235,
      "Ġto": 236,
      "is": 237,
      "Ġand": 238,
      "en": 239,
      "Ġp": 240,
      "or": 241,
      "ou": 242,
      "an": 243,
      "es": 244,
      "ing": 245,
      "ar": 246,
      "Ġh": 247,
      "Ġm": 248,
      "al": 249,
      "Ġd": 250,
      "as": 251,
      "Ġin": 252,
      "Ġof": 253,
      "om": 254,
      "Ġl": 255,
      "ĠT": 256,
      "ic": 257,
      "il": 258,
      "Ġth": 259,
      "ion": 260,
      "Ġn": 261,
      "le": 262,
      "ay": 263,
      "ĠS": 264,
      "id": 265,
      "ent": 266,
      "Ġg": 267,
      "et": 268,
      "im": 269,
      "ot": 270,
      "Ġe": 271,
      "ve": 272,
      "st": 273,
      "Ġre": 274,
      "ut": 275,
      "ro": 276,
      "Ġhe": 277,
      "ad": 278,
      "ĠI": 279,
      "ac": 280,
      "am": 281,
      "ĠThe": 282,
      "Ġwas": 283,
      "el": 284,
      "ig": 285,
      "Ġy": 286,
      "Ġbe": 287,
      "ow": 288,
      "Ġon": 289,
      "ver": 290,
      "ĠA": 291,
      "ir": 292,
      "ly": 293,
      "Ġfor": 294,
      "Ġu": 295,
      "Ġis": 296,
      "ĠC": 297,
      "ith": 298,
      "ol": 299,
      "Ġit": 300,
      "ur": 301,
      "Ġst": 302,
      "ĠM": 303,
      "Ġwith": 304,
      "ec": 305,
      "Ġyou": 306,
      "ĠH": 307,
      "Ġthat": 308,
      "se": 309,
      "ĠB": 310,
      "ation": 311,
      "Ġha": 312,
      "'s": 313,
      "ce": 314,
      "ri": 315,
      "pp": 316,
      "Ġsa": 317,
      "Ġal": 318,
      "oo": 319,
      "Ġan": 320,
      "ke": 321,
      "ter": 322,
      "ĠP": 323,
      "Ġ\"": 324,
      "ul": 325,
      "Ġas": 326,
      "ch": 327,
      "Ġwe": 328,
      "Ġwh": 329,
      "ld": 330,
      "her": 331,
      "ĠL": 332,
      "ill": 333,
      "un": 334,
      "Ġpl": 335,
      "ant": 336,
      "Ġr": 337,
      "ĠW": 338,
      "ag": 339,
      "Ġat": 340,
      "ĠD": 341,
      "if": 342,
      "ct": 343,
      "Ġ2": 344,
      "Ġare": 345,
      "ers": 346,
      "ore": 347,
      "em": 348,
      "ĠF": 349,
      "Ġnot": 350,
      "Ġ1": 351,
      "ht": 352,
      "ew": 353,
      "Ġhis": 354,
      "Ġ(": 355,
      "ain": 356,
      "ĠR": 357,
      "us": 358,
      "est": 359,
      "um": 360,
      "rom": 361,
      "all": 362,
      "ab": 363,
      "Ġsh": 364,
      "ĠHe": 365,
      "Ġcom": 366,
      "ess": 367,
      "Ġpro": 368,
      "op": 369,
      "Ġcon": 370,
      "end": 371,
      "art": 372,
      "ist": 373,
      "ould": 374,
      "ate": 375,
      "Ġor": 376,
      "Ġex": 377,
      "ĠThey": 378,
      "very": 379,
      "Ġsaid": 380,
      "and": 381,
      "th": 382,
      "ĠE": 383,
      "ĠN": 384,
      "Ġher": 385,
      "ear": 386,
      "Ġdo": 387,
      "Ġli": 388,
      "Ġv": 389,
      "ity": 390,
      "Ġthey": 391,
      "Ġplay": 392,
      "ĠG": 393,
      "res": 394,
      "ked": 395,
      "On": 396,
      "Ġday": 397,
      "The": 398,
      "qu": 399,
      "ect": 400,
      "Ġhave": 401,
      "Ġup": 402,
      "Ġfrom": 403,
      "red": 404,
      "ard": 405,
      "ort": 406,
      "Ġso": 407,
      "nt": 408,
      "os": 409,
      "ive": 410,
      "ust": 411,
      "Ġk": 412,
      "Ġby": 413,
      "ment": 414,
      "ome": 415,
      "ĠJ": 416,
      "ies": 417,
      "ound": 418,
      "ide": 419,
      "Ġse": 420,
      "ight": 421,
      "Ġall": 422,
      "Ġsu": 423,
      "Ġcan": 424,
      "Ġ20": 425,
      "ap": 426,
      "Ġhad": 427,
      "ud": 428,
      "Ġbut": 429,
      "Ġch": 430,
      "ime": 431,
      "ack": 432,
      "Ġtr": 433,
      "Ġj": 434,
      "Ġthis": 435,
      "ĠShe": 436,
      "oc": 437,
      "ell": 438,
      "out": 439,
      "Ġwor": 440,
      "Ġsp": 441,
      "itt": 442,
      "ily": 443,
      "Ġde": 444,
      "ĠTim": 445,
      "Ġbig": 446,
      "ast": 447,
      "ake": 448,
      "our": 449,
      "ind": 450,
      "Ġab": 451,
      "ial": 452,
      "Ġwill": 453,
      "oug": 454,
      "Ġwere": 455,
      "od": 456,
      "Ġtheir": 457,
      "Ġtime": 458,
      "ame": 459,
      "ak": 460,
      "Ġwant": 461,
      "ost": 462,
      "ue": 463,
      "Ġthere": 464,
      "âĢ": 465,
      "Ġhapp": 466,
      "hen": 467,
      ".\"": 468,
      "Ġout": 469,
      "ice": 470,
      "ure": 471,
      "ong": 472,
      "are": 473,
      "riend": 474,
      "Ġyour": 475,
      "ood": 476,
      "iv": 477,
      "'t": 478,
      "ook": 479,
      "ĠO": 480,
      "ge": 481,
      "Ġshe": 482,
      "ry": 483,
      "ĠIt": 484,
      "Ġfriend": 485,
      "Ġvery": 486,
      "Ġne": 487,
      "ther": 488,
      "Ġcl": 489,
      "Ġme": 490,
      "ia": 491,
      "ĠU": 492,
      "ine": 493,
      "ff": 494,
      "Ġhas": 495,
      "one": 496,
      "ally": 497,
      "ep": 498,
      "Ġle": 499,
      "ved": 500,
      "ug": 501,
      "Ġint": 502,
      "Ġman": 503,
      "Ġar": 504,
      "uc": 505,
      "Ġgo": 506,
      "ip": 507,
      "og": 508,
      "ous": 509,
      "act": 510,
      "ich": 511,
      "ark": 512,
      "ree": 513,
      "00": 514,
      "ber": 515,
      "ions": 516,
      "Ġad": 517,
      "Ġcomp": 518,
      "ittle": 519,
      "One": 520,
      "Ġmore": 521,
      "Ġus": 522,
      "Ġsm": 523,
      "Ġhel": 524,
      "ĠIn": 525,
      "ra": 526,
      "ĠK": 527,
      "per": 528,
      "age": 529,
      "Ġen": 530,
      "Ġlittle": 531,
      "ated": 532,
      "Ġwho": 533,
      "oy": 534,
      "Ġthem": 535,
      "Ġkn": 536,
      "ace": 537,
      "..": 538,
      "Ġhappy": 539,
      "able": 540,
      "Ġmom": 541,
      "Ġhelp": 542,
      "Ġother": 543,
      "Ġsaw": 544,
      "ans": 545,
      "ĠSt": 546,
      "Ġone": 547,
      "iz": 548,
      "Ġro": 549,
      "ary": 550,
      "Ġabout": 551,
      "Ġim": 552,
      "Ġnew": 553,
      "pt": 554,
      "pl": 555,
      "ĠY": 556,
      "ond": 557,
      "Ġsc": 558,
      "ach": 559,
      "Ġag": 560,
      "ĠTh": 561,
      "ie": 562,
      "hed": 563,
      "Ġtoo": 564,
      "cc": 565,
      "Ġ201": 566,
      "Ġpr": 567,
      "Ġwould": 568,
      "orm": 569,
      "ub": 570,
      "ays": 571,
      "ite": 572,
      "ings": 573,
      "own": 574,
      "Ġmy": 575,
      "Ġcont": 576,
      "ough": 577,
      "amed": 578,
      "ance": 579,
      "Ġbec": 580,
      "Ġgr": 581,
      "so": 582,
      "ird": 583,
      "Ġlike": 584,
      "Ġlo": 585,
      "Ġun": 586,
      "Ġdid": 587,
      "get": 588,
      "ks": 589,
      "ire": 590,
      "reat": 591,
      "ass": 592,
      "Ġcould": 593,
      "ile": 594,
      "Ġinc": 595,
      "ical": 596,
      "av": 597,
      "ob": 598,
      "ere": 599,
      "ase": 600,
      "ish": 601,
      "Ġwhich": 602,
      "Ġnamed": 603,
      "Ġres": 604,
      "ign": 605,
      "ations": 606,
      "Ġapp": 607,
      "ail": 608,
      "Ġfriends": 609,
      "Ġwanted": 610,
      "Ġsome": 611,
      "ll": 612,
      "Ġwhat": 613,
      "ĠCh": 614,
      "ĠV": 615,
      "ult": 616,
      "Ġour": 617,
      "Ġoff": 618,
      "ib": 619,
      "ence": 620,
      "ade": 621,
      "!\"": 622,
      "Ġhim": 623,
      "Ġev": 624,
      "ick": 625,
      "Ġany": 626,
      "Ġwhen": 627,
      "ĠTom": 628,
      "Ġyear": 629,
      "Ġper": 630,
      "ĠLily": 631,
      "Ġfun": 632,
      "Ġpe": 633,
      "ents": 634,
      "ĠâĢ": 635,
      "vel": 636,
      "ount": 637,
      "Ġwent": 638,
      "Ġqu": 639,
      "Ġpre": 640,
      "ord": 641,
      "Ġalso": 642,
      "Ġpart": 643,
      "Ġits": 644,
      "ress": 645,
      "Ġback": 646,
      "Ġget": 647,
      "Ġdis": 648,
      "uct": 649,
      "Ġthan": 650,
      "Ġbird": 651,
      "use": 652,
      "Ġ3": 653,
      "ater": 654,
      "wn": 655,
      "Ġno": 656,
      "ful": 657,
      "ory": 658,
      "Ġover": 659,
      "fter": 660,
      "Ġbeen": 661,
      "ors": 662,
      "ax": 663,
      "Once": 664,
      "hing": 665,
      "Ġupon": 666,
      "ang": 667,
      "form": 668,
      "low": 669,
      "ild": 670,
      "Ġinto": 671,
      "port": 672,
      "Ġbr": 673,
      "Ġsee": 674,
      "Ġmake": 675,
      "nder": 676,
      "mer": 677,
      "Ġfe": 678,
      "Ġwork": 679,
      "ition": 680,
      "ople": 681,
      "Ġtoget": 682,
      "Ġtogether": 683,
      "ens": 684,
      "Ġam": 685,
      "old": 686,
      "here": 687,
      "Ġrec": 688,
      "ose": 689,
      "Ġstart": 690,
      "Ġfound": 691,
      ",\"": 692,
      "Ġevery": 693,
      "int": 694,
      "Ġjust": 695,
      "irst": 696,
      "Ġ19": 697,
      "Ġhow": 698,
      "Ġser": 699,
      "Ġif": 700,
      "ian": 701,
      "Ġcat": 702,
      "Ġtw": 703,
      "Ġcar": 704,
      "vers": 705,
      "Ġ-": 706,
      "Ġte": 707,
      "Ġgood": 708,
      "Ġpeople": 709,
      "Ġtoy": 710,
      "Ġbl": 711,
      "ink": 712,
      "igh": 713,
      "Ġknow": 714,
      "ause": 715,
      "Ġla": 716,
      "ict": 717,
      "side": 718,
      "ious": 719,
      "Ġneed": 720,
      "lect": 721,
      "omet": 722,
      "irl": 723,
      "anc": 724,
      "ely": 725,
      "ise": 726,
      "Ġdec": 727,
      "uch": 728,
      "Ġunder": 729,
      "ĠWe": 730,
      "ouse": 731,
      "ning": 732,
      "Th": 733,
      "Ġco": 734,
      "ĠBut": 735,
      "Ġaw": 736,
      "Ġbet": 737,
      "als": 738,
      "Ġlook": 739,
      "ited": 740,
      "oth": 741,
      "Ġdog": 742,
      "ons": 743,
      "Ġmade": 744,
      "Ġagain": 745,
      "Ġmany": 746,
      "Ġacc": 747,
      "?\"": 748,
      "my": 749,
      "Ġact": 750,
      "ft": 751,
      "ought": 752,
      "ĠSp": 753,
      "Ġfind": 754,
      "Ġthen": 755,
      "ving": 756,
      "Ġgirl": 757,
      "Ġbo": 758,
      "Ġfirst": 759,
      "ty": 760,
      "Ġplayed": 761,
      "Ġball": 762,
      "gr": 763,
      "ĠYou": 764,
      "Ġstr": 765,
      "Ġcol": 766,
      "ared": 767,
      "les": 768,
      "ates": 769,
      "lic": 770,
      "Ġdown": 771,
      "iss": 772,
      "lud": 773,
      "hn": 774,
      "Ġcomm": 775,
      "Ġsomet": 776,
      "iff": 777,
      "ove": 778,
      "we": 779,
      "20": 780,
      "Ġhome": 781,
      "Ġafter": 782,
      "urn": 783,
      "ĠâĢĵ": 784,
      "pect": 785,
      "Ġdes": 786,
      "Ġ4": 787,
      ").": 788,
      "rough": 789,
      "Ġshow": 790,
      "tern": 791,
      "Ġind": 792,
      "ĠAnd": 793,
      "Ġbecause": 794,
      "Ġtwo": 795,
      "Ġloo": 796,
      "Ġboy": 797,
      "ave": 798,
      "amp": 799,
      "xt": 800,
      "Ġsmall": 801,
      "ool": 802,
      "Ġ5": 803,
      "Ġonly": 804,
      "Ġke": 805,
      "ational": 806,
      "ĠUn": 807,
      "Ġsad": 808,
      "other": 809,
      "elt": 810,
      "ĠThis": 811,
      "ng": 812,
      "Ġaround": 813,
      "ities": 814,
      "row": 815,
      "ank": 816,
      "enc": 817,
      "Ġtree": 818,
      "iew": 819,
      "Ġthrough": 820,
      "Ġmost": 821,
      "Ġlooked": 822,
      "ss": 823,
      "Ġbu": 824,
      "Ġloved": 825,
      "Ġinclud": 826,
      "ual": 827,
      "Ġsur": 828,
      "Ġlong": 829,
      "Ġmay": 830,
      "pr": 831,
      "ĠOne": 832,
      "Ġprov": 833,
      "ating": 834,
      "day": 835,
      "Ġtri": 836,
      "Ġfl": 837,
      "ov": 838,
      "Ġput": 839,
      "Ġem": 840,
      "alk": 841,
      "hy": 842,
      "ject": 843,
      "Ġsomething": 844,
      "Ġmuch": 845,
      "fore": 846,
      "Ġcame": 847,
      "Ġeven": 848,
      "Ġbest": 849,
      "olog": 850,
      "Ġwhere": 851,
      "Ġdiff": 852,
      "Ġop": 853,
      "Ġpo": 854,
      "Ġadd": 855,
      "elf": 856,
      "rit": 857,
      "Ġyears": 858,
      "Ġrem": 859,
      "Ġstarted": 860,
      "Ġlear": 861,
      "Ġuse": 862,
      "Ġnow": 863,
      "Ġinv": 864,
      "Ġrel": 865,
      "Ġway": 866,
      "ont": 867,
      "Ġpark": 868,
      "ife": 869,
      "aking": 870,
      "Ġstud": 871,
      "ied": 872,
      "Ġ'": 873,
      "ĠRe": 874,
      "Ġwell": 875,
      "Ġcare": 876,
      "ath": 877,
      "Ġatt": 878,
      "Ġspec": 879,
      "ific": 880,
      "Ġthings": 881,
      "Ġimp": 882,
      "),": 883,
      "ull": 884,
      "air": 885,
      "ĠSue": 886,
      "Ġsupp": 887,
      "ne": 888,
      "Ġaway": 889,
      "Ġreg": 890,
      "ident": 891,
      "Ġshould": 892,
      "Ġasked": 893,
      "ĠMax": 894,
      "let": 895,
      "ĠCom": 896,
      "ened": 897,
      "Ġboth": 898,
      "ump": 899,
      "Ġlot": 900,
      "Ġthese": 901,
      "ased": 902,
      "Ġhigh": 903,
      "ics": 904,
      "ange": 905,
      "ert": 906,
      "gan": 907,
      "Ġthought": 908,
      "Ġend": 909,
      "Ġac": 910,
      "Ġtake": 911,
      "ures": 912,
      "Ġfelt": 913,
      "com": 914,
      "erm": 915,
      "oup": 916,
      "ĠAn": 917,
      "Ġdon": 918,
      "hes": 919,
      "Ġsy": 920,
      "ĠBen": 921,
      "Ġcons": 922,
      "Ġfam": 923,
      "In": 924,
      "Ġprod": 925,
      "Ġgreat": 926,
      "ĠSam": 927,
      "hat": 928,
      "Ġsec": 929,
      "Ġfin": 930,
      "ock": 931,
      "iled": 932,
      "ix": 933,
      "any": 934,
      "Ġpol": 935,
      "ices": 936,
      "ways": 937,
      "Ġbeing": 938,
      "Ġright": 939,
      "uck": 940,
      "arm": 941,
      "Ġeach": 942,
      "up": 943,
      "ative": 944,
      "ments": 945,
      "hip": 946,
      "Ġown": 947,
      "uring": 948,
      "Ġliked": 949,
      "Ġred": 950,
      "Ġexc": 951,
      "ee": 952,
      "Ġsays": 953,
      "Ġbus": 954,
      "oss": 955,
      "Ġass": 956,
      "alth": 957,
      "ility": 958,
      "rop": 959,
      "ĠNew": 960,
      "Ġcall": 961,
      "ible": 962,
      "ember": 963,
      "ble": 964,
      "velop": 965,
      "ular": 966,
      "erson": 967,
      "Ġgot": 968,
      "ren": 969,
      "ned": 970,
      "ork": 971,
      "und": 972,
      "Ġread": 973,
      "iness": 974,
      "Ġhouse": 975,
      "ting": 976,
      "Ġrun": 977,
      "ny": 978,
      "Ġhand": 979,
      "chool": 980,
      "Ġfeel": 981,
      "ered": 982,
      "pped": 983,
      "str": 984,
      "Ġtook": 985,
      "ĠAr": 986,
      "Ġsuch": 987,
      "Ġ200": 988,
      "az": 989,
      "Ġ6": 990,
      "Ġ&": 991,
      "ement": 992,
      "ves": 993,
      "Ġent": 994,
      "ided": 995,
      "ience": 996,
      "ck": 997,
      "ward": 998,
      "ener": 999,
      "Ġworld": 1000,
      "Ġsk": 1001,
      "ivers": 1002,
      "its": 1003,
      "Ġmon": 1004,
      "Ġalways": 1005,
      "Ġfr": 1006,
      "ĠSo": 1007,
      "Ġexper": 1008,
      "Ġ$": 1009,
      "Ġbefore": 1010,
      "Ġwater": 1011,
      "Ġsub": 1012,
      "Ġdiffere": 1013,
      "Ġset": 1014,
      "Ġplaying": 1015,
      "Ġpres": 1016,
      "oud": 1017,
      "land": 1018,
      "ner": 1019,
      "ient": 1020,
      "ven": 1021,
      "Ġcle": 1022,
      "io": 1023,
      "rib": 1024,
      "Ġgu": 1025,
      "Ġthink": 1026,
      "stem": 1027,
      "oun": 1028,
      "Ġbook": 1029,
      "ex": 1030,
      "ollow": 1031,
      "'re": 1032,
      "Ġcr": 1033,
      "br": 1034,
      "Ġstill": 1035,
      "ower": 1036,
      "Ġwhile": 1037,
      "ublic": 1038,
      "led": 1039,
      "Ġeff": 1040,
      "Ġche": 1041,
      "Ġcount": 1042,
      "aw": 1043,
      "irect": 1044,
      "Ġlist": 1045,
      "Ġdoes": 1046,
      "Ġused": 1047,
      "Ġart": 1048,
      "Ġmet": 1049,
      "Ġhere": 1050,
      "Ġcur": 1051,
      "Ġbel": 1052,
      "Ġph": 1053,
      "ĠAl": 1054,
      "Ġsmiled": 1055,
      "ues": 1056,
      "atch": 1057,
      "Ġsay": 1058,
      "ah": 1059,
      "19": 1060,
      "Ġloc": 1061,
      "'m": 1062,
      "Ġ10": 1063,
      "Ġ7": 1064,
      "ric": 1065,
      "Ġserv": 1066,
      "Ġdisc": 1067,
      "Ġran": 1068,
      "Ġtrans": 1069,
      "ars": 1070,
      "formation": 1071,
      "arch": 1072,
      "Ġlet": 1073,
      "ised": 1074,
      "Ġbox": 1075,
      "ters": 1076,
      "ather": 1077,
      "ĠPro": 1078,
      "ĠAs": 1079,
      "iet": 1080,
      "Ġgl": 1081,
      "Ġthose": 1082,
      "man": 1083,
      "Ġdr": 1084,
      "ale": 1085,
      "Ġold": 1086,
      "Ġide": 1087,
      "akes": 1088,
      "ins": 1089,
      "Ġob": 1090,
      "Ġsw": 1091,
      "Ġdevelop": 1092,
      "Ġcre": 1093,
      "Ġmod": 1094,
      "ason": 1095,
      "Ġroom": 1096,
      "ged": 1097,
      "We": 1098,
      "ince": 1099,
      "meric": 1100,
      "It": 1101,
      "Ġadv": 1102,
      "ph": 1103,
      "Ġreal": 1104,
      "ional": 1105,
      "Ġbetter": 1106,
      "Ġsun": 1107,
      "Ġwr": 1108,
      "ĠTr": 1109,
      "Ġlead": 1110,
      "Ġfollow": 1111,
      "ier": 1112,
      "iel": 1113,
      "ĠĊ": 1114,
      "ished": 1115,
      "Ġrep": 1116,
      "ĠSh": 1117,
      "gram": 1118,
      "Ġmed": 1119,
      "Ġlaug": 1120,
      "cess": 1121,
      "Ġ8": 1122,
      "Ġplace": 1123,
      "Ġmin": 1124,
      "na": 1125,
      "Ġperson": 1126,
      "ef": 1127,
      "view": 1128,
      "ĠSpot": 1129,
      "Ġgoing": 1130,
      "Ġnum": 1131,
      "Ġlove": 1132,
      "ween": 1133,
      "Ġsign": 1134,
      "...": 1135,
      "Ġcome": 1136,
      "Ġrequ": 1137,
      "Ġdifferent": 1138,
      "ever": 1139,
      "Ġvis": 1140,
      "Ġtry": 1141,
      "Ġchild": 1142,
      "lease": 1143,
      "echn": 1144,
      "Ġinter": 1145,
      "ines": 1146,
      "ired": 1147,
      "Ġexp": 1148,
      "Ġpret": 1149,
      "Ġnever": 1150,
      "Ġfamily": 1151,
      "Ġlife": 1152,
      "ts": 1153,
      "ash": 1154,
      "Ġcour": 1155,
      "Ġlast": 1156,
      "Ġproduct": 1157,
      "vern": 1158,
      "Ġsystem": 1159,
      "ually": 1160,
      "orn": 1161,
      "ames": 1162,
      "Ġdef": 1163,
      "Ġimport": 1164,
      "arket": 1165,
      "imes": 1166,
      "read": 1167,
      "Ġsl": 1168,
      "Ġlived": 1169,
      "10": 1170,
      "ata": 1171,
      "Ġ9": 1172,
      "ĠJo": 1173,
      "Ġbetween": 1174,
      "Ġdet": 1175,
      "ized": 1176,
      "ĠCl": 1177,
      "cept": 1178,
      "ution": 1179,
      "Ġsupport": 1180,
      "ology": 1181,
      "Ġref": 1182,
      "Ġret": 1183,
      "Ġcommun": 1184,
      "uth": 1185,
      "der": 1186,
      "Ġscared": 1187,
      "Ġthree": 1188,
      "Ġ0": 1189,
      "Ġplan": 1190,
      "ism": 1191,
      "Ġtoys": 1192,
      "Ġhard": 1193,
      "ĠLe": 1194,
      "Ġed": 1195,
      "Ġgame": 1196,
      "ital": 1197,
      "Ġbecame": 1198,
      "ĠAmeric": 1199,
      "Ġwee": 1200,
      "Ġbusiness": 1201,
      "Ġav": 1202,
      "ages": 1203,
      "Ġnear": 1204,
      "reen": 1205,
      "Ġtold": 1206,
      "ness": 1207,
      "Ġchar": 1208,
      "Ġtried": 1209,
      "Ġnext": 1210,
      "This": 1211,
      "iversity": 1212,
      "ross": 1213,
      "000": 1214,
      "Ġspecial": 1215,
      "Ġoutside": 1216,
      "Ġreally": 1217,
      "Ġkind": 1218,
      "Ġins": 1219,
      "ants": 1220,
      "Ġform": 1221,
      "Ġexpl": 1222,
      "Ġsim": 1223,
      "Ġext": 1224,
      "line": 1225,
      "Ġconf": 1226,
      "Ġpoint": 1227,
      "ote": 1228,
      "Ġinformation": 1229,
      "yp": 1230,
      ".,": 1231,
      "Ġsame": 1232,
      "rap": 1233,
      "Ġfood": 1234,
      "Ġteam": 1235,
      "uss": 1236,
      "Ġinst": 1237,
      "ĠSc": 1238,
      "ĠFor": 1239,
      "be": 1240,
      "ott": 1241,
      "Ġknew": 1242,
      "Ġdel": 1243,
      "ret": 1244,
      "self": 1245,
      "ute": 1246,
      "\\\\": 1247,
      "Ġturn": 1248,
      "Ġear": 1249,
      "Ġdesign": 1250,
      "Ġtop": 1251,
      "gy": 1252,
      "Ġkeep": 1253,
      "Ġdidn": 1254,
      "Ġsaf": 1255,
      "by": 1256,
      "thing": 1257,
      "ists": 1258,
      "erest": 1259,
      "ield": 1260,
      "Ġpur": 1261,
      "erv": 1262,
      "Ġcontin": 1263,
      "aint": 1264,
      "ĠIf": 1265,
      "Ġschool": 1266,
      "ger": 1267,
      "Ġpat": 1268,
      "Ġopen": 1269,
      "Ġbro": 1270,
      "As": 1271,
      "Ġmus": 1272,
      "Ġfore": 1273,
      "Ġbuild": 1274,
      "ces": 1275,
      "ets": 1276,
      "ives": 1277,
      "Ġdecided": 1278,
      "ĠMia": 1279,
      "Tim": 1280,
      "ĠBl": 1281,
      "ucy": 1282,
      "ton": 1283,
      "Ġgener": 1284,
      "Ġunt": 1285,
      "Ġinf": 1286,
      "ĠAd": 1287,
      "But": 1288,
      "'ve": 1289,
      "Ġwa": 1290,
      "Ġlar": 1291,
      "ĠInd": 1292,
      "ĠGr": 1293,
      "Ġhead": 1294,
      "Ġdist": 1295,
      "Ġlearned": 1296,
      "ection": 1297,
      "Ġprogram": 1298,
      "ys": 1299,
      "Ġduring": 1300,
      "oot": 1301,
      "Ġdirect": 1302,
      "bers": 1303,
      "Ġimportant": 1304,
      "Ġreport": 1305,
      "Ġstory": 1306,
      "Ġcent": 1307,
      "aut": 1308,
      "Ġgive": 1309,
      "Ġfil": 1310,
      "con": 1311,
      "Ġcap": 1312,
      "Ġhealth": 1313,
      "Ġmust": 1314,
      "less": 1315,
      "ize": 1316,
      "âĢ¦": 1317,
      "ĠIs": 1318,
      "ĠWh": 1319,
      "You": 1320,
      "Ġgroup": 1321,
      "Ġanother": 1322,
      "Ġpretty": 1323,
      "Ġanim": 1324,
      "ĠHis": 1325,
      "ww": 1326,
      "ane": 1327,
      "ural": 1328,
      "oll": 1329,
      "ĠZ": 1330,
      "illion": 1331,
      "rent": 1332,
      "els": 1333,
      "Ġcor": 1334,
      "Ġval": 1335,
      "ature": 1336,
      "ĠThere": 1337,
      "ined": 1338,
      "Ġinside": 1339,
      "They": 1340,
      "Ġpost": 1341,
      "Ġfact": 1342,
      "Ġ18": 1343,
      "Ġorgan": 1344,
      "Ġshare": 1345,
      "ĠDe": 1346,
      "ike": 1347,
      "ĠAll": 1348,
      "Ġsurpr": 1349,
      "Ġever": 1350,
      "ĠFr": 1351,
      "Ġdep": 1352,
      "....": 1353,
      "Ġmem": 1354,
      "Ġincluding": 1355,
      "ision": 1356,
      "Ġdri": 1357,
      "Ġpartic": 1358,
      "stand": 1359,
      "outh": 1360,
      "Ġuntil": 1361,
      "Ġprocess": 1362,
      "Ġsol": 1363,
      "Ġconc": 1364,
      "Ġpri": 1365,
      "den": 1366,
      "Ġinterest": 1367,
      "ĠCan": 1368,
      "aj": 1369,
      "ids": 1370,
      "Ġmarket": 1371,
      "Ġsoc": 1372,
      "bs": 1373,
      "Ġfew": 1374,
      "ĠWhen": 1375,
      "ral": 1376,
      "ern": 1377,
      "Ġleg": 1378,
      "ody": 1379,
      "Ġresp": 1380,
      "Ġpublic": 1381,
      "Ġtechn": 1382,
      "Lily": 1383,
      "Ġbeh": 1384,
      "ĠâĢĶ": 1385,
      "ract": 1386,
      "att": 1387,
      "Ġpass": 1388,
      "ms": 1389,
      "Ġjump": 1390,
      "ering": 1391,
      "ĠBob": 1392,
      "Ġiss": 1393,
      "Ġsing": 1394,
      "Ġgrow": 1395,
      "Ġidea": 1396,
      "Ġnice": 1397,
      "ention": 1398,
      "Ġgave": 1399,
      "ik": 1400,
      "Ġ.": 1401,
      "Ġresult": 1402,
      "Ġprof": 1403,
      "Ġstand": 1404,
      "ling": 1405,
      "iny": 1406,
      "uff": 1407,
      "inal": 1408,
      "ense": 1409,
      "aining": 1410,
      "vernment": 1411,
      "ĠBe": 1412,
      "Ġlaw": 1413,
      "uary": 1414,
      "Ġcalled": 1415,
      "Ġwalk": 1416,
      "ĠPl": 1417,
      "ĠAt": 1418,
      "ina": 1419,
      "ced": 1420,
      "Ġdata": 1421,
      "ps": 1422,
      "Ġ[": 1423,
      "Ġfast": 1424,
      "Ġmonth": 1425,
      "ĠLucy": 1426,
      "Ġmight": 1427,
      "Ġeas": 1428,
      "Ġnumber": 1429,
      "ides": 1430,
      "ĠQ": 1431,
      "Ġwom": 1432,
      "Ġwind": 1433,
      "Ġvar": 1434,
      "ĠComm": 1435,
      "Ġfull": 1436,
      "alked": 1437,
      "ĠHow": 1438,
      "ically": 1439,
      "Ġrest": 1440,
      "âĢĶ": 1441,
      "oney": 1442,
      "Ġwithout": 1443,
      "ream": 1444,
      "'ll": 1445,
      "Ġexcited": 1446,
      "Ġprom": 1447,
      "Ġflow": 1448,
      "Ġless": 1449,
      "Ġpower": 1450,
      "Ġperform": 1451,
      "Ġstrong": 1452,
      "Ġcompany": 1453,
      "ĠBr": 1454,
      "Ġprot": 1455,
      "Ġproject": 1456,
      "Ġmag": 1457,
      "ially": 1458,
      "aug": 1459,
      "Ġinvest": 1460,
      "ploy": 1461,
      "Ġincre": 1462,
      "Ġtre": 1463,
      "Ġlaughed": 1464,
      "pected": 1465,
      "Ġagainst": 1466,
      "ĠEx": 1467,
      "Ġcond": 1468,
      "Ġmaking": 1469,
      "ains": 1470,
      "ox": 1471,
      "//": 1472,
      "What": 1473,
      "ĠUniversity": 1474,
      "ara": 1475,
      "Ġwin": 1476,
      "Ġclos": 1477,
      "Ġdad": 1478,
      "Yes": 1479,
      "gest": 1480,
      "Ġ12": 1481,
      "Ġfree": 1482,
      "Ġposs": 1483,
      "Ġsecond": 1484,
      "Ġeat": 1485,
      "Ġeffect": 1486,
      "ĠMom": 1487,
      "ailable": 1488,
      "Ġopp": 1489,
      "Ġjo": 1490,
      "Ġmo": 1491,
      "co": 1492,
      "Ġfar": 1493,
      "ĠThat": 1494,
      "Ġallow": 1495,
      "iver": 1496,
      "ĠMay": 1497,
      "Ġelect": 1498,
      "Ġquest": 1499,
      "Ġusing": 1500,
      "ched": 1501,
      "rew": 1502,
      "Ġhaving": 1503,
      "Ġhug": 1504,
      "Ġpop": 1505,
      "Ġhum": 1506,
      "21": 1507,
      "Ġrece": 1508,
      "Ġsince": 1509,
      "the": 1510,
      "ries": 1511,
      "ĠFl": 1512,
      "rist": 1513,
      "sc": 1514,
      "ission": 1515,
      "ained": 1516,
      "aring": 1517,
      "te": 1518,
      "ĠCon": 1519,
      "rol": 1520,
      "aff": 1521,
      "ases": 1522,
      "ĠCol": 1523,
      "Ġclass": 1524,
      "ustom": 1525,
      "Ġrese": 1526,
      "Ġhist": 1527,
      "://": 1528,
      "Ġfle": 1529,
      "ĠUS": 1530,
      "raw": 1531,
      "ality": 1532,
      "ĠPh": 1533,
      "Ġhop": 1534,
      "ĠHer": 1535,
      "ards": 1536,
      "ency": 1537,
      "ider": 1538,
      "Ġel": 1539,
      "Ġbelie": 1540,
      "ĠRes": 1541,
      "Ġsit": 1542,
      "ster": 1543,
      "He": 1544,
      "Ġfish": 1545,
      "ately": 1546,
      "Ġtalk": 1547,
      "Ġoper": 1548,
      "Ġbad": 1549,
      "ories": 1550,
      "Ġclean": 1551,
      "Ġlight": 1552,
      "Tom": 1553,
      "Ġbeaut": 1554,
      "ĠOn": 1555,
      "joy": 1556,
      "Ġcomplet": 1557,
      "nce": 1558,
      "Ġmove": 1559,
      "ried": 1560,
      "ER": 1561,
      "ury": 1562,
      "Ġstate": 1563,
      "Ġappro": 1564,
      "Ġsn": 1565,
      "Ġspe": 1566,
      "Ġmean": 1567,
      "Ġlooking": 1568,
      "ĠPr": 1569,
      "ley": 1570,
      "Ġground": 1571,
      "Ġmanag": 1572,
      "iqu": 1573,
      "Ġann": 1574,
      "orth": 1575,
      "Ġthing": 1576,
      "ccess": 1577,
      "Ġothers": 1578,
      "Ġpay": 1579,
      "Ġchildren": 1580,
      "orry": 1581,
      "ior": 1582,
      "ator": 1583,
      "Ġfac": 1584,
      "Ġcareful": 1585,
      "Ġavailable": 1586,
      "Ġest": 1587,
      "Ġheard": 1588,
      "Ġproble": 1589,
      "11": 1590,
      "Ġlevel": 1591,
      "ently": 1592,
      "Ġhappened": 1593,
      "ats": 1594,
      "ĠMar": 1595,
      "50": 1596,
      "Ġrock": 1597,
      "Ġsure": 1598,
      "urt": 1599,
      "Ġdem": 1600,
      "Ġtest": 1601,
      "arent": 1602,
      "Ġdays": 1603,
      "Ġseem": 1604,
      "Ġmusic": 1605,
      "Ġpos": 1606,
      "Ġstay": 1607,
      "St": 1608,
      "Ġmar": 1609,
      "Ġland": 1610,
      "Ġclim": 1611,
      "ead": 1612,
      "more": 1613,
      "Ġbre": 1614,
      "Ġprev": 1615,
      "Ġstat": 1616,
      "Ġcurrent": 1617,
      "Ġtell": 1618,
      "Ġexperience": 1619,
      "ĠCent": 1620,
      "Ġnight": 1621,
      "icy": 1622,
      "lo": 1623,
      "med": 1624,
      "Ġable": 1625,
      "ĠJohn": 1626,
      "ney": 1627,
      "Ġcost": 1628,
      "iful": 1629,
      "Ġjob": 1630,
      "uthor": 1631,
      "ium": 1632,
      "Ġleft": 1633,
      "Ġtoday": 1634,
      "ĠĠ": 1635,
      "Ġet": 1636,
      "Ġwhy": 1637,
      "ĠOr": 1638,
      "earch": 1639,
      "Ġenjoy": 1640,
      "iron": 1641,
      "Ġrecord": 1642,
      "oci": 1643,
      "conom": 1644,
      "inc": 1645,
      "Ġbas": 1646,
      "Ġfour": 1647,
      "ortun": 1648,
      "por": 1649,
      "aster": 1650,
      "Ġtyp": 1651,
      "to": 1652,
      "Ġname": 1653,
      "app": 1654,
      "aper": 1655,
      "Ġeng": 1656,
      "ung": 1657,
      "Ġair": 1658,
      "Ġmor": 1659,
      "ech": 1660,
      "Ġmeet": 1661,
      "Ġgiv": 1662,
      "af": 1663,
      "atter": 1664,
      "oice": 1665,
      "Ġunderstand": 1666,
      "ertain": 1667,
      "Ġpresent": 1668,
      "Ġsoft": 1669,
      "uction": 1670,
      "ients": 1671,
      "Ġchange": 1672,
      "ternational": 1673,
      "Ġpast": 1674,
      "ple": 1675,
      "istr": 1676,
      "ĠTo": 1677,
      "ĠFrom": 1678,
      "ization": 1679,
      "When": 1680,
      "iting": 1681,
      "Ġcase": 1682,
      "Ġsafe": 1683,
      "Ġanimals": 1684,
      "Ġopt": 1685,
      "12": 1686,
      "Ġworking": 1687,
      "Ġweek": 1688,
      "Ġwithin": 1689,
      "eng": 1690,
      "Ġfav": 1691,
      "Ġtreat": 1692,
      "une": 1693,
      "icle": 1694,
      "ured": 1695,
      "ĠEd": 1696,
      "Ġword": 1697,
      "icked": 1698,
      "Ġequ": 1699,
      "Ġben": 1700,
      "oor": 1701,
      "ole": 1702,
      "ĠMan": 1703,
      "Ġpract": 1704,
      "Ġ|": 1705,
      "arr": 1706,
      "30": 1707,
      "ĠThen": 1708,
      "Ġcustom": 1709,
      "Ġsound": 1710,
      "Ġservice": 1711,
      "min": 1712,
      "Ġeveryone": 1713,
      "ten": 1714,
      "Ġsorry": 1715,
      "Ġ199": 1716,
      "Ġaff": 1717,
      "Ġcountry": 1718,
      "Ġwatch": 1719,
      "acy": 1720,
      "Ġpict": 1721,
      "Ġview": 1722,
      "ĠWhat": 1723,
      "Ġchang": 1724,
      "oon": 1725,
      "Ġsqu": 1726,
      "Ġwalked": 1727,
      "Ġ15": 1728,
      "Ġ11": 1729,
      "ĠEng": 1730,
      "lish": 1731,
      "ister": 1732,
      "aim": 1733,
      "Ġpot": 1734,
      "Ġhold": 1735,
      "Ġbeautiful": 1736,
      "ability": 1737,
      "Ġve": 1738,
      "Ġfly": 1739,
      "ograp": 1740,
      "me": 1741,
      "ified": 1742,
      "iety": 1743,
      "Ġorder": 1744,
      "gin": 1745,
      "Ġprovide": 1746,
      "Ġtown": 1747,
      "Ġstore": 1748,
      "rel": 1749,
      "ĠÂ": 1750,
      "iam": 1751,
      "Ġsuccess": 1752,
      "Ġwhe": 1753,
      "Ġey": 1754,
      "ober": 1755,
      "ivid": 1756,
      "Ġgovernment": 1757,
      "Ġstudents": 1758,
      "itions": 1759,
      "cent": 1760,
      "Ġbear": 1761,
      "ift": 1762,
      "ron": 1763,
      "\".": 1764,
      "ok": 1765,
      "22": 1766,
      "arden": 1767,
      "Ġoffic": 1768,
      "used": 1769,
      "tt": 1770,
      "iec": 1771,
      "ination": 1772,
      "Ġaccess": 1773,
      "Ġcourse": 1774,
      "work": 1775,
      "ĠEvery": 1776,
      "Ġdone": 1777,
      "son": 1778,
      "ĠSe": 1779,
      "Ġcreat": 1780,
      "Ġlots": 1781,
      "Ġarea": 1782,
      "ising": 1783,
      "ably": 1784,
      "Ġsky": 1785,
      "18": 1786,
      "Ġbit": 1787,
      "ĠDo": 1788,
      "ush": 1789,
      "ĠJan": 1790,
      "ajor": 1791,
      "Ġactiv": 1792,
      "âĢĵ": 1793,
      "uly": 1794,
      "Ġcommunity": 1795,
      "An": 1796,
      "ĠChrist": 1797,
      "Ġz": 1798,
      "Ġlocal": 1799,
      "Ġterm": 1800,
      "Ġdoor": 1801,
      "Ġservices": 1802,
      "Ġindust": 1803,
      "abb": 1804,
      "ued": 1805,
      "ĠNo": 1806,
      "Ġmoney": 1807,
      "ĠWith": 1808,
      "ape": 1809,
      "Ġproper": 1810,
      "ours": 1811,
      "way": 1812,
      "Ġant": 1813,
      "Ġwrit": 1814,
      "pos": 1815,
      "rod": 1816,
      "Ġmillion": 1817,
      "Ġaddition": 1818,
      "osp": 1819,
      "Ġalong": 1820,
      "ĠAmerican": 1821,
      "IN": 1822,
      "Ġface": 1823,
      "Ġmil": 1824,
      "ode": 1825,
      "Ġemploy": 1826,
      "Ġresearch": 1827,
      "Ġdoing": 1828,
      "ĠDec": 1829,
      "ential": 1830,
      "Ġacross": 1831,
      "urs": 1832,
      "ording": 1833,
      "stit": 1834,
      "ma": 1835,
      "of": 1836,
      "Ġkids": 1837,
      "reed": 1838,
      "ery": 1839,
      "Ġcollect": 1840,
      "orld": 1841,
      "itive": 1842,
      "Ġlik": 1843,
      "ĠRep": 1844,
      "Ġyoung": 1845,
      "Ġ2018": 1846,
      "Ġsoon": 1847,
      "If": 1848,
      "ĠUnited": 1849,
      "Ġmakes": 1850,
      "esp": 1851,
      "Ġevent": 1852,
      "ots": 1853,
      "Ġbed": 1854,
      "Ġsong": 1855,
      "Ġbug": 1856,
      "ept": 1857,
      "Ġlearn": 1858,
      "Ġsat": 1859,
      "Ġbuy": 1860,
      "Ġmess": 1861,
      "opped": 1862,
      "lement": 1863,
      "rog": 1864,
      "uture": 1865,
      "Ġ2019": 1866,
      "Ġimpro": 1867,
      "uce": 1868,
      "ON": 1869,
      "Ġphot": 1870,
      "ĠCar": 1871,
      "ĠMed": 1872,
      "Ġopened": 1873,
      "ended": 1874,
      "Ġlost": 1875,
      "ample": 1876,
      "ĠFe": 1877,
      "irc": 1878,
      "Thank": 1879,
      "15": 1880,
      "Ġsocial": 1881,
      "ĠAmy": 1882,
      "Ġseen": 1883,
      "Ġfund": 1884,
      "Ġvisit": 1885,
      "Ġsal": 1886,
      "viron": 1887,
      "Ġbecome": 1888,
      "No": 1889,
      "Ġproud": 1890,
      "ify": 1891,
      "Ġenough": 1892,
      "ĠMr": 1893,
      "Ġ30": 1894,
      "dy": 1895,
      "Ġside": 1896,
      "Ġblue": 1897,
      "Ġapplic": 1898,
      "Ġhot": 1899,
      "err": 1900,
      "Ġparty": 1901,
      "ĠCo": 1902,
      "iding": 1903,
      "ĠAm": 1904,
      "sh": 1905,
      "uit": 1906,
      "omm": 1907,
      "Ġstudy": 1908,
      "urop": 1909,
      "Ġfur": 1910,
      "ians": 1911,
      "cl": 1912,
      "room": 1913,
      "isk": 1914,
      "ony": 1915,
      "Ġbar": 1916,
      "Ġanymore": 1917,
      "Ġnet": 1918,
      "Ġwon": 1919,
      "Ġhig": 1920,
      "oint": 1921,
      "Ġi": 1922,
      "fect": 1923,
      "Ġnews": 1924,
      "lished": 1925,
      "itc": 1926,
      "Ġcharac": 1927,
      "atic": 1928,
      "Ġpolit": 1929,
      "alf": 1930,
      "Ġ16": 1931,
      "Ġlive": 1932,
      "aces": 1933,
      "ences": 1934,
      "ucation": 1935,
      "Ġorig": 1936,
      "Ġmembers": 1937,
      "ending": 1938,
      "ES": 1939,
      "Ġtimes": 1940,
      "illed": 1941,
      "Ġlarge": 1942,
      "Ġnon": 1943,
      "Ġcamp": 1944,
      "Ġfoc": 1945,
      "ills": 1946,
      "ived": 1947,
      "Ġoften": 1948,
      "AT": 1949,
      "16": 1950,
      "Ġdev": 1951,
      "Ġgarden": 1952,
      "Ġstre": 1953,
      "ball": 1954,
      "AR": 1955,
      "Ġcity": 1956,
      "ele": 1957,
      "Ġprofess": 1958,
      "Ġmajor": 1959,
      "Ġquick": 1960,
      "orts": 1961,
      "ready": 1962,
      "urity": 1963,
      "Ġbased": 1964,
      "rown": 1965,
      "ulation": 1966,
      "Ġseason": 1967,
      "artment": 1968,
      "wards": 1969,
      "Ġlisten": 1970,
      "Ġwomen": 1971,
      "Ġbehind": 1972,
      "Let": 1973,
      "AN": 1974,
      "Ġvide": 1975,
      "hys": 1976,
      "ones": 1977,
      "Ġdevelopment": 1978,
      "Ġkey": 1979,
      "Ġhuman": 1980,
      "Ġline": 1981,
      "resent": 1982,
      "Ġeconom": 1983,
      "Ġocc": 1984,
      "Ġhelped": 1985,
      "ene": 1986,
      "Ġ14": 1987,
      "ateg": 1988,
      "Ġindivid": 1989,
      "Ġwar": 1990,
      "Ch": 1991,
      "Ġask": 1992,
      "Ġanal": 1993,
      "Ġworked": 1994,
      "Ġfire": 1995,
      "Ġflew": 1996,
      "Ġonline": 1997,
      "ĠFin": 1998,
      "sel": 1999,
      "Ġsever": 2000,
      "Ġang": 2001,
      "Ġpiec": 2002,
      "ĠSy": 2003,
      "oard": 2004,
      "urope": 2005,
      "ances": 2006,
      "ĠDr": 2007,
      "Ġtra": 2008,
      "Ġpar": 2009,
      "Ġtrad": 2010,
      "ĠNow": 2011,
      "Ġfield": 2012,
      "Ġlater": 2013,
      "ining": 2014,
      "Ġ17": 2015,
      "Ġfavor": 2016,
      "\\\\\\\\": 2017,
      "Ġinclude": 2018,
      "ĠComp": 2019,
      "vironment": 2020,
      "Ġfilm": 2021,
      "Ġfell": 2022,
      "Ġfall": 2023,
      "Ġreturn": 2024,
      "Mom": 2025,
      "Ġneeded": 2026,
      "Ġconn": 2027,
      "Ġthough": 2028,
      "Ġrepl": 2029,
      "17": 2030,
      "Ġalready": 2031,
      "Ġaut": 2032,
      "ipp": 2033,
      "Ġ2017": 2034,
      "Ġsurprised": 2035,
      "Ġshort": 2036,
      "Ġgames": 2037,
      "Ġpicked": 2038,
      "lex": 2039,
      "Ġstop": 2040,
      "ama": 2041,
      "utes": 2042,
      "ĠEm": 2043,
      "denly": 2044,
      "Ġclear": 2045,
      "14": 2046,
      "Ġbring": 2047,
      "Ġcontrol": 2048,
      "ique": 2049,
      "aps": 2050,
      "Wh": 2051,
      "ĠAss": 2052,
      "ĠYork": 2053,
      "Ġfuture": 2054,
      "ison": 2055,
      "ann": 2056,
      "Ġwebs": 2057,
      "Ġ/": 2058,
      "Ġbegan": 2059,
      "ows": 2060,
      "Ġident": 2061,
      "Ġfeat": 2062,
      "ument": 2063,
      "Ġsug": 2064,
      "ĠLet": 2065,
      "Ġcut": 2066,
      "aterial": 2067,
      "Ġearly": 2068,
      "ĠAct": 2069,
      "Ġmeans": 2070,
      "Ġhands": 2071,
      "ĠPol": 2072,
      "Ġshowed": 2073,
      "Ġwond": 2074,
      "Ġ13": 2075,
      "Ġcake": 2076,
      "Ġgetting": 2077,
      "Ġseveral": 2078,
      "sy": 2079,
      "That": 2080,
      "__": 2081,
      "Ġunex": 2082,
      "ights": 2083,
      "Ġauthor": 2084,
      "Ġclose": 2085,
      "Ġmult": 2086,
      "ai": 2087,
      "Ġhistory": 2088,
      "ored": 2089,
      "ĠMy": 2090,
      "ails": 2091,
      "ĠState": 2092,
      "eral": 2093,
      "Ġgreen": 2094,
      "Ġheld": 2095,
      "ither": 2096,
      "ourn": 2097,
      "Ġclimb": 2098,
      "ĠAfter": 2099,
      "Ġcomes": 2100,
      "idence": 2101,
      "for": 2102,
      "ĠApp": 2103,
      "Ġinvol": 2104,
      "Ġlim": 2105,
      "oring": 2106,
      "Ġloud": 2107,
      "Ġcook": 2108,
      "Ġrele": 2109,
      "Ġ2016": 2110,
      "Ġpossible": 2111,
      "13": 2112,
      "Ġcult": 2113,
      "OR": 2114,
      "unch": 2115,
      "Ġunexpected": 2116,
      "eter": 2117,
      "enn": 2118,
      "Ġaccount": 2119,
      "most": 2120,
      "ption": 2121,
      "Ġnec": 2122,
      "iod": 2123,
      "Ġcoming": 2124,
      "Ġreview": 2125,
      "Ġwarm": 2126,
      "'d": 2127,
      "irt": 2128,
      "Ġneeds": 2129,
      "obal": 2130,
      "Ġopportun": 2131,
      "eal": 2132,
      "Ġcertain": 2133,
      "Ġmen": 2134,
      "ĠEurope": 2135,
      "ĠAnna": 2136,
      "Ġleast": 2137,
      "erence": 2138,
      "not": 2139,
      "ĠMin": 2140,
      "ĠNational": 2141,
      "At": 2142,
      "dle": 2143,
      "Ġforest": 2144,
      "aken": 2145,
      "Ġ2020": 2146,
      "Ġsite": 2147,
      "ands": 2148,
      "Ġsle": 2149,
      "Ġparticular": 2150,
      "Ġplease": 2151,
      "Ġmiss": 2152,
      "Ġshiny": 2153,
      "ĠGo": 2154,
      "Ġcry": 2155,
      "aves": 2156,
      "Ġmov": 2157,
      "Ġknown": 2158,
      "Ġdoll": 2159,
      "ĠWorld": 2160,
      "kay": 2161,
      "ĠPres": 2162,
      "org": 2163,
      "ĠSu": 2164,
      "ĠCity": 2165,
      "Ġfollowing": 2166,
      "ĠEn": 2167,
      "Ġparent": 2168,
      "book": 2169,
      "Ġtrying": 2170,
      "Ġcompet": 2171,
      "Ġtable": 2172,
      "iol": 2173,
      "How": 2174,
      "ĠStates": 2175,
      "Ġbreak": 2176,
      "utions": 2177,
      "ĠNe": 2178,
      "zy": 2179,
      "ĠSchool": 2180,
      "Ġbenef": 2181,
      "ĠCount": 2182,
      "So": 2183,
      "ource": 2184,
      "Ġlow": 2185,
      "Ġclaim": 2186,
      "ĠApr": 2187,
      "Ġheart": 2188,
      "Ġpriv": 2189,
      "Ġpaper": 2190,
      "uced": 2191,
      "lege": 2192,
      "ises": 2193,
      "Ġanything": 2194,
      "Ġmind": 2195,
      "Ġhurt": 2196,
      "Ġeverything": 2197,
      "ĠGu": 2198,
      "Ġworks": 2199,
      "ners": 2200,
      "ogn": 2201,
      "Ġtax": 2202,
      "Ġmain": 2203,
      "ĠOct": 2204,
      "hod": 2205,
      "urch": 2206,
      "Ġvol": 2207,
      "Ġdraw": 2208,
      "Ġcouldn": 2209,
      "ached": 2210,
      "Ġperfect": 2211,
      "Ġcomb": 2212,
      "mb": 2213,
      "Ġamong": 2214,
      "Ġtem": 2215,
      "Ġbody": 2216,
      "Ġfive": 2217,
      "Ġmeas": 2218,
      "ĠX": 2219,
      "There": 2220,
      "ĠGod": 2221,
      "abor": 2222,
      "Ġseries": 2223,
      "ule": 2224,
      "Ġbuilding": 2225,
      "Ġdeal": 2226,
      "ilt": 2227,
      "Ġdiscuss": 2228,
      "over": 2229,
      "ources": 2230,
      "wer": 2231,
      "Ġexample": 2232,
      "anies": 2233,
      "ware": 2234,
      "Ġgiven": 2235,
      "par": 2236,
      "Ġoffer": 2237,
      "Ġsomeone": 2238,
      "Ġpersonal": 2239,
      "Ġfix": 2240,
      "Can": 2241,
      "Ġcreate": 2242,
      "raft": 2243,
      "Ġchall": 2244,
      "Ġonce": 2245,
      "Ġ2015": 2246,
      "ĠAust": 2247,
      "Ġpull": 2248,
      "come": 2249,
      "ĠSec": 2250,
      "Ġhtt": 2251,
      "ĠCal": 2252,
      "Ġblack": 2253,
      "Ġbelieve": 2254,
      "Ġstep": 2255,
      "ĠAf": 2256,
      "Ġmaterial": 2257,
      "Ġdeep": 2258,
      "ĠJack": 2259,
      "Ġindustry": 2260,
      "ĠOff": 2261,
      "Ġsum": 2262,
      "Ġrain": 2263,
      "200": 2264,
      "au": 2265,
      "verage": 2266,
      "ru": 2267,
      "AS": 2268,
      "ummy": 2269,
      "Ġrace": 2270,
      "isc": 2271,
      "icult": 2272,
      "ĠMarch": 2273,
      "itten": 2274,
      "Ġrunning": 2275,
      "Ġpub": 2276,
      "Ġproducts": 2277,
      "ilities": 2278,
      "Ġthanked": 2279,
      "Ġproblem": 2280,
      "--": 2281,
      "Ġpress": 2282,
      "ĠSouth": 2283,
      "Ġjumped": 2284,
      "Ġbooks": 2285,
      "ĠAug": 2286,
      "Ġra": 2287,
      "hel": 2288,
      "ental": 2289,
      "ĠWill": 2290,
      "Ġspace": 2291,
      "Ġdesc": 2292,
      "ĠDep": 2293,
      "Ġswe": 2294,
      "ĠAb": 2295,
      "Ġpercent": 2296,
      "Ġmoment": 2297,
      "Ġvers": 2298,
      "ges": 2299,
      "yle": 2300,
      "IS": 2301,
      "Ġmonths": 2302,
      "Ġener": 2303,
      "ĠIm": 2304,
      "Ġspecific": 2305,
      "ĠMc": 2306,
      "Ġdoesn": 2307,
      "Ġmot": 2308,
      "Ġeasy": 2309,
      "Ġca": 2310,
      "go": 2311,
      "Ġeyes": 2312,
      "Ġfight": 2313,
      "Ġkept": 2314,
      "Ġquality": 2315,
      "Ġwebsite": 2316,
      "ĠJanuary": 2317,
      "aught": 2318,
      "hers": 2319,
      "Ġliving": 2320,
      "ction": 2321,
      "Ã©": 2322,
      "Ġreason": 2323,
      "ilar": 2324,
      "Ġappear": 2325,
      "ief": 2326,
      "Ġcell": 2327,
      "After": 2328,
      "gle": 2329,
      "ected": 2330,
      "Ġhugged": 2331,
      "Ġcolor": 2332,
      "Ġyet": 2333,
      "And": 2334,
      "For": 2335,
      "Ġmedia": 2336,
      "ancial": 2337,
      "itchen": 2338,
      "acks": 2339,
      "Ġtaking": 2340,
      "aur": 2341,
      "ĠThese": 2342,
      "EN": 2343,
      "Ġperiod": 2344,
      "Ġ25": 2345,
      "ze": 2346,
      "ounc": 2347,
      "Ġri": 2348,
      "Ġactually": 2349,
      "23": 2350,
      "iously": 2351,
      "Ġmid": 2352,
      "ĠHowever": 2353,
      "ĠCont": 2354,
      "Ġstopped": 2355,
      "Ġwhole": 2356,
      "Ġquestion": 2357,
      "vent": 2358,
      "anced": 2359,
      "ecut": 2360,
      "Ġrelations": 2361,
      "Ġtot": 2362,
      "Ġselect": 2363,
      "ĠApril": 2364,
      "Ġenc": 2365,
      "pe": 2366,
      "Ġfavorite": 2367,
      "Ġcrit": 2368,
      "ĠMe": 2369,
      "Ġwhite": 2370,
      "ournal": 2371,
      "oom": 2372,
      "ID": 2373,
      "itty": 2374,
      "Ġboat": 2375,
      "rave": 2376,
      "Ġele": 2377,
      "ensive": 2378,
      "Ġready": 2379,
      "Ġvideo": 2380,
      "ĠJune": 2381,
      "Ġsignific": 2382,
      "ĠGe": 2383,
      "Ġste": 2384,
      "Ġpick": 2385,
      "Ġrespons": 2386,
      "load": 2387,
      "ded": 2388,
      "Ġdark": 2389,
      "Ġstick": 2390,
      "ĠPart": 2391,
      "Ġcirc": 2392,
      "ĠSept": 2393,
      "Ġ24": 2394,
      "Ġwhether": 2395,
      "ino": 2396,
      "ging": 2397,
      "Ġsuper": 2398,
      "Ġdue": 2399,
      "itch": 2400,
      "Ġrequire": 2401,
      "illy": 2402,
      "asing": 2403,
      "Ġmagic": 2404,
      "ille": 2405,
      "Ġfurther": 2406,
      "Ġvalue": 2407,
      "Ġcal": 2408,
      "Ġself": 2409,
      "Ġ198": 2410,
      "Ġreach": 2411,
      "cle": 2412,
      "ring": 2413,
      "ators": 2414,
      "where": 2415,
      "ĠNorth": 2416,
      "selves": 2417,
      "Ġnod": 2418,
      "osed": 2419,
      "ival": 2420,
      "Ġhope": 2421,
      "ler": 2422,
      "Ġans": 2423,
      "Ġcompanies": 2424,
      "Ġelse": 2425,
      "mber": 2426,
      "Ġport": 2427,
      "Ġshared": 2428,
      "Ġenvironment": 2429,
      "Ġ2014": 2430,
      "aid": 2431,
      "yn": 2432,
      "Ġfoot": 2433,
      "uation": 2434,
      "Ġhours": 2435,
      "ibility": 2436,
      "www": 2437,
      "fer": 2438,
      "anger": 2439,
      "Ġwood": 2440,
      "Ġwall": 2441,
      "ĠServ": 2442,
      "Ġturned": 2443,
      "Ġroad": 2444,
      "Ġdig": 2445,
      "25": 2446,
      "Ġfloor": 2447,
      "iday": 2448,
      "oke": 2449,
      "irm": 2450,
      "ask": 2451,
      "ana": 2452,
      "Ġpain": 2453,
      "itted": 2454,
      "Ġamaz": 2455,
      "Ġtechnology": 2456,
      "angu": 2457,
      "Ġaddress": 2458,
      "Ġfair": 2459,
      "avy": 2460,
      "unny": 2461,
      "uddenly": 2462,
      "Ġissues": 2463,
      "Ġcand": 2464,
      "ees": 2465,
      "ĠPe": 2466,
      "ĠJuly": 2467,
      "ĠNews": 2468,
      "Ġfocus": 2469,
      "Ġroll": 2470,
      "Ġbegin": 2471,
      "ecially": 2472,
      "AL": 2473,
      "though": 2474,
      "Ġwords": 2475,
      "Ġenergy": 2476,
      "Ġtouch": 2477,
      "lu": 2478,
      "ovember": 2479,
      "Ġhigher": 2480,
      "fact": 2481,
      "Ġ100": 2482,
      "itting": 2483,
      "Ġfront": 2484,
      "aby": 2485,
      "ĠPresident": 2486,
      "ume": 2487,
      "roll": 2488,
      "IC": 2489,
      "ady": 2490,
      "ĠNot": 2491,
      "Ġslow": 2492,
      "Ġhalf": 2493,
      "Ġago": 2494,
      "Ġsingle": 2495,
      "ĠBar": 2496,
      "Ġsleep": 2497,
      "Ġfrog": 2498,
      "Al": 2499,
      "Ġcatch": 2500,
      "umb": 2501,
      "arth": 2502,
      "Ġrepresent": 2503,
      "elebr": 2504,
      "Ġtaken": 2505,
      "key": 2506,
      "Ġaud": 2507,
      "Ġdress": 2508,
      "Ġtool": 2509,
      "Ġrole": 2510,
      "Ġens": 2511,
      "Ġdeb": 2512,
      "ada": 2513,
      "ham": 2514,
      "Ġrad": 2515,
      "year": 2516,
      "Ġkitchen": 2517,
      "Ġhappily": 2518,
      "Ġabove": 2519,
      "Ġdoc": 2520,
      "Don": 2521,
      "Ġdeterm": 2522,
      "Ġalmost": 2523,
      "ively": 2524,
      "uge": 2525,
      "Ġlooks": 2526,
      "Ġtravel": 2527,
      "Ġsuggest": 2528,
      "Ġwat": 2529,
      "\",": 2530,
      "atural": 2531,
      "val": 2532,
      "omes": 2533,
      "ĠTw": 2534,
      "Ġresults": 2535,
      "ĠWar": 2536,
      "ĠJust": 2537,
      "IT": 2538,
      "Ġhon": 2539,
      "Ġcold": 2540,
      "Ġimpact": 2541,
      "Ġcontact": 2542,
      "vert": 2543,
      "idge": 2544,
      "Ġvoice": 2545,
      "ald": 2546,
      "Ġdeath": 2547,
      "ĠEl": 2548,
      "Ġtruck": 2549,
      "ĠTe": 2550,
      "aced": 2551,
      "Ġparticip": 2552,
      "Ġannoun": 2553,
      "Ġcharacter": 2554,
      "Ġphys": 2555,
      "eth": 2556,
      "fort": 2557,
      "Ġage": 2558,
      "ĠArt": 2559,
      "Ġprob": 2560,
      "Ġpage": 2561,
      "ĠGl": 2562,
      "By": 2563,
      "Ġsignificant": 2564,
      "olution": 2565,
      "ĠHealth": 2566,
      "Ġamount": 2567,
      "Ġhimself": 2568,
      "Ġbag": 2569,
      "reg": 2570,
      "Ġesp": 2571,
      "Ġhear": 2572,
      "ocr": 2573,
      "ĠAg": 2574,
      "rem": 2575,
      "Ġcommon": 2576,
      "ĠStud": 2577,
      "itor": 2578,
      "Ġexam": 2579,
      "Ġrespect": 2580,
      "ĠDecember": 2581,
      "........": 2582,
      "Ġinit": 2583,
      "Ġcool": 2584,
      "Ġpicture": 2585,
      "Ġhit": 2586,
      "ĠAmerica": 2587,
      "gress": 2588,
      "ĠCor": 2589,
      "Ġquickly": 2590,
      "chie": 2591,
      "Ġsent": 2592,
      "Ġmethod": 2593,
      "ĠPark": 2594,
      "Ġdi": 2595,
      "Ġflowers": 2596,
      "Ġ2013": 2597,
      "Ġcoll": 2598,
      "Ġangry": 2599,
      "Ġthird": 2600,
      "ken": 2601,
      "ĠSeptember": 2602,
      "ĠOctober": 2603,
      "ches": 2604,
      "anks": 2605,
      "Ġ#": 2606,
      "inks": 2607,
      "ĠCO": 2608,
      "apt": 2609,
      "ledge": 2610,
      "Ġcontent": 2611,
      "Ġ2021": 2612,
      "ese": 2613,
      "Ġ50": 2614,
      "Ġcheck": 2615,
      "Ġnoise": 2616,
      "Ġimprove": 2617,
      "Ġsho": 2618,
      "ray": 2619,
      "hib": 2620,
      "Ġhappen": 2621,
      "Ġeither": 2622,
      "iction": 2623,
      "Ġoffice": 2624,
      "ĠMus": 2625,
      "!!": 2626,
      "oose": 2627,
      "Ġstaff": 2628,
      "ĠDav": 2629,
      "ĠSm": 2630,
      "ministr": 2631,
      "cy": 2632,
      "Ġsix": 2633,
      "epend": 2634,
      "pro": 2635,
      "aul": 2636,
      "Ġround": 2637,
      "play": 2638,
      "ĠNovember": 2639,
      "aged": 2640,
      "Ġdifficult": 2641,
      "ĠSoc": 2642,
      "Ġexist": 2643,
      "Ġice": 2644,
      "Ġwait": 2645,
      "Ġshows": 2646,
      "Ġtast": 2647,
      "uffy": 2648,
      "ĠCounty": 2649,
      "Ġfeeling": 2650,
      "Ġsand": 2651,
      "AC": 2652,
      "ĠRec": 2653,
      "Ġconsider": 2654,
      "Ġnational": 2655,
      "Ġbelow": 2656,
      "ED": 2657,
      "Ġestab": 2658,
      "ĠAugust": 2659,
      "Ġmix": 2660,
      "elling": 2661,
      "Ġadvent": 2662,
      "Ġmodel": 2663,
      "ĠWest": 2664,
      "nes": 2665,
      "Ġrange": 2666,
      "ocks": 2667,
      "Ġperformance": 2668,
      "pping": 2669,
      "ope": 2670,
      "Ġmother": 2671,
      "Ġtakes": 2672,
      "Ġareas": 2673,
      "She": 2674,
      "Ġrecogn": 2675,
      "ĠCour": 2676,
      "Ġmouse": 2677,
      "Ġviol": 2678,
      "lin": 2679,
      "ĠAfric": 2680,
      "Ġbott": 2681,
      "Ġwonder": 2682,
      "Ġaccording": 2683,
      "Ġlate": 2684,
      "Ġassoci": 2685,
      "Ġvarious": 2686,
      "Ġmanagement": 2687,
      "Ġhole": 2688,
      "ĠHouse": 2689,
      "Then": 2690,
      "ification": 2691,
      "ude": 2692,
      "Ġleave": 2693,
      "ĠReg": 2694,
      "Ġespecially": 2695,
      "Ġentire": 2696,
      "60": 2697,
      "Ġoriginal": 2698,
      "ĠQu": 2699,
      "Ġprice": 2700,
      "bruary": 2701,
      "Look": 2702,
      "nov": 2703,
      "Ġforward": 2704,
      "ety": 2705,
      "Ġpers": 2706,
      "ication": 2707,
      "atory": 2708,
      "ĠBy": 2709,
      "ades": 2710,
      "Ġparents": 2711,
      "Ġquestions": 2712,
      "ological": 2713,
      "struct": 2714,
      "Ġwrong": 2715,
      "ĠCenter": 2716,
      "Ġtrue": 2717,
      "40": 2718,
      "Why": 2719,
      "ules": 2720,
      "Ġmatter": 2721,
      "ysis": 2722,
      "Ġhat": 2723,
      "iles": 2724,
      "Ġsometimes": 2725,
      "Ġfunny": 2726,
      "Ġmaint": 2727,
      "ĠDon": 2728,
      "Ġeducation": 2729,
      "Ġsubject": 2730,
      "Ġrisk": 2731,
      "Ġlit": 2732,
      "Ġcannot": 2733,
      "Ġhost": 2734,
      "Ġpopular": 2735,
      "Ġ2012": 2736,
      "Ġgen": 2737,
      "ires": 2738,
      "Ġaction": 2739,
      "Ġpolitical": 2740,
      "ĠAustral": 2741,
      "Ġlikely": 2742,
      "Ġcontrib": 2743,
      "Ġsmile": 2744,
      "Ġminutes": 2745,
      "Ġyell": 2746,
      "Ġrelationship": 2747,
      "Ġadded": 2748,
      "head": 2749,
      "time": 2750,
      "Ġbrave": 2751,
      "ĠRuss": 2752,
      "ev": 2753,
      "Ġate": 2754,
      "Ġexpect": 2755,
      "htt": 2756,
      "adem": 2757,
      "Ġformer": 2758,
      "Ġcontinue": 2759,
      "Ġaccept": 2760,
      "Ġteac": 2761,
      "era": 2762,
      "Ġrecomm": 2763,
      "istic": 2764,
      "icro": 2765,
      "ĠSally": 2766,
      "Ġess": 2767,
      "Ġbirds": 2768,
      "Ġsearch": 2769,
      "Ġstruct": 2770,
      "Ġcars": 2771,
      "ĠBrit": 2772,
      "arl": 2773,
      "Ġnothing": 2774,
      "ĠOur": 2775,
      "Ġissue": 2776,
      "Ġofficial": 2777,
      "Ġarri": 2778,
      "Ġevents": 2779,
      "Ġcred": 2780,
      "irth": 2781,
      "iant": 2782,
      "Ġbrought": 2783,
      "Ġcomput": 2784,
      "Ġreceived": 2785,
      "ĠPer": 2786,
      "Ġleaders": 2787,
      "lus": 2788,
      "Ġposition": 2789,
      "ites": 2790,
      "uel": 2791,
      "ĠUK": 2792,
      "Ġnecess": 2793,
      "Ġyummy": 2794,
      "ouncil": 2795,
      "Ġgone": 2796,
      "icks": 2797,
      "Ġmember": 2798,
      "Ġsimilar": 2799,
      "Ġpaint": 2800,
      "ĠChe": 2801,
      "Ġprotect": 2802,
      "Ġintern": 2803,
      "Ġfinal": 2804,
      "Ġquite": 2805,
      "Ġfail": 2806,
      "Ġhowever": 2807,
      "Ġcourt": 2808,
      "ĠTV": 2809,
      "Ġachie": 2810,
      "Ġrights": 2811,
      "cast": 2812,
      "Ġprovided": 2813,
      "ips": 2814,
      "iced": 2815,
      "Ġfarm": 2816,
      "Ġcard": 2817,
      "Ġhair": 2818,
      "aging": 2819,
      "Ġpatients": 2820,
      "Hi": 2821,
      "Ġpolicy": 2822,
      "bor": 2823,
      "Ġrecent": 2824,
      "Ġinternational": 2825,
      "Ġcelebr": 2826,
      "Ġrather": 2827,
      "Ġways": 2828,
      "ĠHar": 2829,
      "ashing": 2830,
      "Ġmat": 2831,
      "Ġdest": 2832,
      "Ġsecurity": 2833,
      "Ġgeneral": 2834,
      "ondon": 2835,
      "olly": 2836,
      "Ġagreed": 2837,
      "Ġfeatures": 2838,
      "arget": 2839,
      "Ġengine": 2840,
      "Ġplant": 2841,
      "ederal": 2842,
      "Ġrequired": 2843,
      "ceed": 2844,
      "ĠKitty": 2845,
      "24": 2846,
      "ello": 2847,
      "Ġslide": 2848,
      "augh": 2849,
      "Ġtrain": 2850,
      "anch": 2851,
      "ouble": 2852,
      "Ġep": 2853,
      "US": 2854,
      "Ġpurch": 2855,
      "Ġincrease": 2856,
      "ration": 2857,
      "Ġtraining": 2858,
      "Ġdescrib": 2859,
      "Ġfinancial": 2860,
      "ospital": 2861,
      "Ġbright": 2862,
      "ply": 2863,
      "ky": 2864,
      "Ġexplore": 2865,
      "ĠSara": 2866,
      "Ġexperi": 2867,
      "empt": 2868,
      "ser": 2869,
      "Ġfamil": 2870,
      "esc": 2871,
      "Ġhelping": 2872,
      "Jo": 2873,
      "Ġ197": 2874,
      "now": 2875,
      "sp": 2876,
      "ĠLaw": 2877,
      "urg": 2878,
      "hold": 2879,
      "ĠInc": 2880,
      "Ġarticle": 2881,
      "Ġdream": 2882,
      "Ġrabb": 2883,
      "Ġcountries": 2884,
      "Ġpoints": 2885,
      "opy": 2886,
      "Ġpack": 2887,
      "Ġtit": 2888,
      "Ben": 2889,
      "Ġgrand": 2890,
      "itional": 2891,
      "ĠInternational": 2892,
      "egr": 2893,
      "Ġcover": 2894,
      "Ġobject": 2895,
      "astic": 2896,
      "airs": 2897,
      "Ġcast": 2898,
      "reet": 2899,
      "Ġexpress": 2900,
      "Ġlonger": 2901,
      "Ġprovides": 2902,
      "ram": 2903,
      "aign": 2904,
      "hic": 2905,
      "Ġtrees": 2906,
      "Ġap": 2907,
      "Ġmach": 2908,
      "wh": 2909,
      "Ġimm": 2910,
      "Ġabs": 2911,
      "Ġsuccessful": 2912,
      "Ġtotal": 2913,
      "Ġprep": 2914,
      "Ġunique": 2915,
      "Ġbrother": 2916,
      "Ġshall": 2917,
      "Ġwriting": 2918,
      "Ġsweet": 2919,
      "Ġfig": 2920,
      "ĠFebruary": 2921,
      "atur": 2922,
      "aving": 2923,
      "hern": 2924,
      "ctor": 2925,
      "Ġcomplete": 2926,
      "Ġcontract": 2927,
      "Ġwel": 2928,
      "Ġ21": 2929,
      "HE": 2930,
      "iation": 2931,
      "Ġinvestig": 2932,
      "RE": 2933,
      "Ġpus": 2934,
      "iate": 2935,
      "Ġleaves": 2936,
      "oub": 2937,
      "Ġwalking": 2938,
      "Ġtired": 2939,
      "Ġstar": 2940,
      "ĠYour": 2941,
      "Ġchanges": 2942,
      "Ġregard": 2943,
      "Ġlives": 2944,
      "ague": 2945,
      "Ġlog": 2946,
      "Ġalone": 2947,
      "based": 2948,
      "Ġoffers": 2949,
      "Ġlangu": 2950,
      "Ġdom": 2951,
      "Ġglobal": 2952,
      "Ġmorning": 2953,
      "Ġstri": 2954,
      "Ġlay": 2955,
      "Ġpolice": 2956,
      "Ġband": 2957,
      "back": 2958,
      "Ġteach": 2959,
      "mit": 2960,
      "Ġpotential": 2961,
      "Ġworry": 2962,
      "Ġbow": 2963,
      "Ġpath": 2964,
      "Ġspeak": 2965,
      "Ġhor": 2966,
      "ems": 2967,
      "Ġdam": 2968,
      "Ġassist": 2969,
      "Ġcases": 2970,
      "Ġsystems": 2971,
      "off": 2972,
      "Ġincludes": 2973,
      "zz": 2974,
      "iving": 2975,
      "Ġfre": 2976,
      "ek": 2977,
      "Ġsuff": 2978,
      "irrel": 2979,
      "Ġstories": 2980,
      "Ġremember": 2981,
      "iple": 2982,
      "ĠDepartment": 2983,
      "Sp": 2984,
      "struction": 2985,
      "Ġproperty": 2986,
      "pper": 2987,
      "ĠDirect": 2988,
      "ming": 2989,
      "Ġill": 2990,
      "Ġboard": 2991,
      "ground": 2992,
      "Ġfollowed": 2993,
      "ables": 2994,
      "Ġarg": 2995,
      "atest": 2996,
      "Ġdecision": 2997,
      "ext": 2998,
      "Ġreached": 2999,
      "Ġ23": 3000,
      "Ġtext": 3001,
      "ĠSw": 3002,
      "Ġforg": 3003,
      "Ġmoral": 3004,
      "itary": 3005,
      "Ġcreated": 3006,
      "Ġ2011": 3007,
      "Ġneg": 3008,
      "Ġproduction": 3009,
      "Ġanyone": 3010,
      "Ġindividual": 3011,
      "Ġsurprise": 3012,
      "face": 3013,
      "Ġtype": 3014,
      "Ġfit": 3015,
      "ĠHigh": 3016,
      "Ġnorm": 3017,
      "Ġintrod": 3018,
      "Ġtall": 3019,
      "lt": 3020,
      "rest": 3021,
      "ales": 3022,
      "unt": 3023,
      "Ġtrack": 3024,
      "ĠGerm": 3025,
      "che": 3026,
      "agement": 3027,
      "Ġbuilt": 3028,
      "Ġdro": 3029,
      "light": 3030,
      "Ġ2010": 3031,
      "Do": 3032,
      "Ġthemselves": 3033,
      "uk": 3034,
      "Ġbi": 3035,
      "ĠMich": 3036,
      "Ġproblems": 3037,
      "Ġnodded": 3038,
      "Ġwoman": 3039,
      "Ġisn": 3040,
      "ests": 3041,
      "ops": 3042,
      "Ġmass": 3043,
      "ĠSch": 3044,
      "Ġsquirrel": 3045,
      "ufact": 3046,
      "Ġwants": 3047,
      "Ġupd": 3048,
      "Ġgrowth": 3049,
      "Ġconsum": 3050,
      "imate": 3051,
      "ittee": 3052,
      "Ġnetwork": 3053,
      "Ġpond": 3054,
      "eed": 3055,
      "ĠOf": 3056,
      "obile": 3057,
      "Ġrate": 3058,
      "ĠChina": 3059,
      "Ġcareer": 3060,
      "Ġtreatment": 3061,
      "Ġprivate": 3062,
      "Ġprint": 3063,
      "Ġcolors": 3064,
      "ĠIndia": 3065,
      "ĠMore": 3066,
      "Ġbaby": 3067,
      "Ġtowards": 3068,
      "atform": 3069,
      "Ġjud": 3070,
      "ĠLondon": 3071,
      "ĠPat": 3072,
      "Ġ,": 3073,
      "Ġcloser": 3074,
      "Ġrabbit": 3075,
      "Ġprobably": 3076,
      "ran": 3077,
      "aily": 3078,
      "Ġcy": 3079,
      "Sh": 3080,
      "Ġinstead": 3081,
      "Ġapproach": 3082,
      "To": 3083,
      "urance": 3084,
      "ĠSome": 3085,
      "de": 3086,
      "ĠCourt": 3087,
      "izing": 3088,
      "Ġitself": 3089,
      "Ġprim": 3090,
      "Ġmodern": 3091,
      "hood": 3092,
      "Ġseems": 3093,
      "Ġpiece": 3094,
      "Ġpractice": 3095,
      "Ġdate": 3096,
      "Ġcoup": 3097,
      "ĠAssoci": 3098,
      "right": 3099,
      "ĠInt": 3100,
      "Ġlearning": 3101,
      "Ġ40": 3102,
      "ĠTrump": 3103,
      "Ġ--": 3104,
      "Ġamazing": 3105,
      "Ġinj": 3106,
      "Ġble": 3107,
      "adu": 3108,
      "ĠKing": 3109,
      "Ġwasn": 3110,
      "Ġphone": 3111,
      "Ġcompl": 3112,
      "Ġopportunity": 3113,
      "cer": 3114,
      "Ġdrive": 3115,
      "Ġreported": 3116,
      "Ġwatched": 3117,
      "Ġnatural": 3118,
      "Ġsold": 3119,
      "Ġ22": 3120,
      "ivil": 3121,
      "set": 3122,
      "Ġcurrently": 3123,
      "Ġdance": 3124,
      "ey": 3125,
      "Ġfriendly": 3126,
      "bum": 3127,
      "ael": 3128,
      "ĠSer": 3129,
      "Ġlaugh": 3130,
      "Ġseek": 3131,
      "Ġpan": 3132,
      "Ġflower": 3133,
      "Ġwish": 3134,
      "Ġthank": 3135,
      "ĠWhile": 3136,
      "stant": 3137,
      "Ġdeg": 3138,
      "agon": 3139,
      "Ġthroughout": 3140,
      "Ġprofessional": 3141,
      "ĠĠĠĠ": 3142,
      "Ġrecently": 3143,
      "Ġlegal": 3144,
      "Ġtail": 3145,
      "Ġdin": 3146,
      "Ġtarget": 3147,
      "ĠBu": 3148,
      "Ġterms": 3149,
      "AM": 3150,
      "Ġcustomers": 3151,
      "Ġpropos": 3152,
      "Ġsense": 3153,
      "iforn": 3154,
      "ĠNet": 3155,
      "ĠAng": 3156,
      "Ġokay": 3157,
      "Ġcross": 3158,
      "Ġwide": 3159,
      "Ġinteresting": 3160,
      "Ġemb": 3161,
      "Ġknowledge": 3162,
      "Ġvac": 3163,
      "arter": 3164,
      "usiness": 3165,
      "Ġemer": 3166,
      "Ġpresident": 3167,
      "net": 3168,
      "atives": 3169,
      "Ġsize": 3170,
      "Ġsunny": 3171,
      "han": 3172,
      "Ġdise": 3173,
      "Ġgrass": 3174,
      "ĠDay": 3175,
      "Ġmovie": 3176,
      "Ġplayers": 3177,
      "olf": 3178,
      "ĠCommun": 3179,
      "onse": 3180,
      "Ġmeeting": 3181,
      "Ġprior": 3182,
      "oogle": 3183,
      "ends": 3184,
      "Ġsect": 3185,
      "Ġsimple": 3186,
      "ĠFluffy": 3187,
      "Ġtele": 3188,
      "Ġcontinued": 3189,
      "board": 3190,
      "Ġmoved": 3191,
      "erc": 3192,
      "Ġsmart": 3193,
      "Ġled": 3194,
      "ford": 3195,
      "Ġincluded": 3196,
      "Ġbroken": 3197,
      "ript": 3198,
      "ĠDis": 3199,
      "My": 3200,
      "Ġdiv": 3201,
      "Ġcomfort": 3202,
      "Ġgroups": 3203,
      "Ġsimply": 3204,
      "ĠCr": 3205,
      "Ġoil": 3206,
      "Ġbal": 3207,
      "Ġ28": 3208,
      "apan": 3209,
      "Ġord": 3210,
      "Ġgoes": 3211,
      "While": 3212,
      "Ġbunny": 3213,
      "Ġyard": 3214,
      "Ġloss": 3215,
      "oid": 3216,
      "ifornia": 3217,
      "Ġweeks": 3218,
      "Ġregular": 3219,
      "Ġrelease": 3220,
      "Ġhuge": 3221,
      "Ġinstall": 3222,
      "irit": 3223,
      "Hello": 3224,
      "Ġbutter": 3225,
      "Ġcampaign": 3226,
      "amb": 3227,
      "Ġmedical": 3228,
      "Ġworth": 3229,
      "Ġheavy": 3230,
      "Ġdefin": 3231,
      "ĠSan": 3232,
      "Ġtour": 3233,
      "ĠMon": 3234,
      "ender": 3235,
      "Ġful": 3236,
      "Ġinflu": 3237,
      "orge": 3238,
      "Ġwindow": 3239,
      "Ġcurious": 3240,
      "Ġsea": 3241,
      "ĠBlack": 3242,
      "Ġcloud": 3243,
      "Ġdesigned": 3244,
      "Ġfa": 3245,
      "useum": 3246,
      "New": 3247,
      "Ġsnow": 3248,
      "Ġinvolved": 3249,
      "ucky": 3250,
      "Ġvia": 3251,
      "Ġ27": 3252,
      "rect": 3253,
      "ĠGroup": 3254,
      "stitute": 3255,
      "alt": 3256,
      "Ġjoin": 3257,
      "Ġyes": 3258,
      "orks": 3259,
      "Ġsex": 3260,
      "action": 3261,
      "sych": 3262,
      "omen": 3263,
      "ĠAnn": 3264,
      "Ġcarry": 3265,
      "Ġswim": 3266,
      "Ph": 3267,
      "rec": 3268,
      "Ġvict": 3269,
      "Ġsett": 3270,
      "ecutive": 3271,
      "Ġpictures": 3272,
      "Ġfinally": 3273,
      "inary": 3274,
      "Ġtrust": 3275,
      "Ġrev": 3276,
      "ĠEnglish": 3277,
      "uals": 3278,
      "Ġvot": 3279,
      "itter": 3280,
      "eg": 3281,
      "Ġlab": 3282,
      "27": 3283,
      "ĠRo": 3284,
      ".)": 3285,
      "ĠSen": 3286,
      "Ġhung": 3287,
      "aly": 3288,
      "Ġactivities": 3289,
      "ĠAc": 3290,
      "Ġreve": 3291,
      "oph": 3292,
      "Ġpublished": 3293,
      "Ġclot": 3294,
      "ha": 3295,
      "Ġblog": 3296,
      "ĠAcc": 3297,
      "Ġhy": 3298,
      "Ġsens": 3299,
      "Ġreading": 3300,
      "Ġversion": 3301,
      "Ġwrite": 3302,
      "ĠPar": 3303,
      "ding": 3304,
      "Ġapplication": 3305,
      "Ġstudent": 3306,
      "Ġwritten": 3307,
      "Ġur": 3308,
      "Ġensure": 3309,
      "ux": 3310,
      "EC": 3311,
      "Ġdead": 3312,
      "With": 3313,
      "Ġsecret": 3314,
      "Ġpred": 3315,
      "Ġ26": 3316,
      "Ġyellow": 3317,
      "80": 3318,
      "Ġrelated": 3319,
      "ĠCollege": 3320,
      "Ġdrug": 3321,
      "Ġbirth": 3322,
      "Ġinsp": 3323,
      "Ġhill": 3324,
      "Ġvill": 3325,
      "ĠVal": 3326,
      "Ġchair": 3327,
      "acked": 3328,
      "Ġleading": 3329,
      "26": 3330,
      "ĠDem": 3331,
      "ube": 3332,
      "ĠRed": 3333,
      "Ġmatch": 3334,
      "Ġple": 3335,
      "\\\\\\\\\\\\\\\\": 3336,
      "Ġtal": 3337,
      "ying": 3338,
      "ila": 3339,
      "wood": 3340,
      "):": 3341,
      "From": 3342,
      "Ġfather": 3343,
      "ĠGener": 3344,
      "itation": 3345,
      "Ġsepar": 3346,
      "Ġindic": 3347,
      "ancy": 3348,
      "Be": 3349,
      "Ġweb": 3350,
      "Ġnote": 3351,
      "Ġspl": 3352,
      "vest": 3353,
      "Ġconduct": 3354,
      "Ġprojects": 3355,
      "Ġreceive": 3356,
      "Ġwet": 3357,
      "99": 3358,
      "ashington": 3359,
      "Ġindepend": 3360,
      "Ġlatest": 3361,
      "ĠCons": 3362,
      "Ġplatform": 3363,
      "Ġ2022": 3364,
      "put": 3365,
      "Ġgift": 3366,
      "Ġarch": 3367,
      "Ġautom": 3368,
      "Ġevidence": 3369,
      "Ġeconomic": 3370,
      "Ġ:": 3371,
      "rael": 3372,
      "All": 3373,
      "Ġgoal": 3374,
      "Ġconditions": 3375,
      "ari": 3376,
      "Ġtalking": 3377,
      "uments": 3378,
      "ession": 3379,
      "icient": 3380,
      "Ġneigh": 3381,
      "lam": 3382,
      "Ġgives": 3383,
      "Ġreleased": 3384,
      "Ġmommy": 3385,
      "Ġcream": 3386,
      "Ġemail": 3387,
      "Ġintegr": 3388,
      "Wow": 3389,
      "Ġscreen": 3390,
      "Ġpet": 3391,
      "ivity": 3392,
      "Ġlady": 3393,
      "Ġspot": 3394,
      "enced": 3395,
      "Ġsus": 3396,
      "Ġmanufact": 3397,
      "Ġdanger": 3398,
      "merc": 3399,
      "Ġbase": 3400,
      "aker": 3401,
      "ements": 3402,
      "ĠDes": 3403,
      "Ġyourself": 3404,
      "ĠCalifornia": 3405,
      "resh": 3406,
      "Ġbrand": 3407,
      "Ġadditional": 3408,
      "isions": 3409,
      "Ġattempt": 3410,
      "ĠAir": 3411,
      "erry": 3412,
      "irty": 3413,
      "ST": 3414,
      "ension": 3415,
      "Ġut": 3416,
      "pose": 3417,
      "Ġhistor": 3418,
      "Ġlevels": 3419,
      "Ġhol": 3420,
      "Ar": 3421,
      "Ġconnect": 3422,
      "ĠSte": 3423,
      "Ġdry": 3424,
      "asons": 3425,
      "idents": 3426,
      "attle": 3427,
      "28": 3428,
      "Ġstage": 3429,
      "ears": 3430,
      "dom": 3431,
      "ĠBook": 3432,
      "Ġlanguage": 3433,
      "AP": 3434,
      "asc": 3435,
      "Ġhous": 3436,
      "Ġsection": 3437,
      "aries": 3438,
      "lier": 3439,
      "45": 3440,
      "Ġmark": 3441,
      "Cl": 3442,
      "Ġexpected": 3443,
      "Ġprograms": 3444,
      "Ġcause": 3445,
      "Ġencour": 3446,
      "ĠDad": 3447,
      "Ġextra": 3448,
      "Ġchoose": 3449,
      "ĠDavid": 3450,
      "ris": 3451,
      "Ġdetails": 3452,
      "Ġnation": 3453,
      "ĠPhil": 3454,
      "ubb": 3455,
      "Ġanalysis": 3456,
      "ĠResearch": 3457,
      "ais": 3458,
      "ĠStreet": 3459,
      "Ġshout": 3460,
      "Ġimag": 3461,
      "Ġcoun": 3462,
      "Ġ2009": 3463,
      "gg": 3464,
      "ĠII": 3465,
      "Ġenjoyed": 3466,
      "Ġalbum": 3467,
      "BC": 3468,
      "illing": 3469,
      "Ġaverage": 3470,
      "bit": 3471,
      "Ġplaces": 3472,
      "imum": 3473,
      "Ġability": 3474,
      "Ġsummer": 3475,
      "Ġplans": 3476,
      "ĠBud": 3477,
      "Ġsees": 3478,
      "aughter": 3479,
      "Ġglad": 3480,
      "Ġinterview": 3481,
      "ica": 3482,
      "Ġfeed": 3483,
      "arc": 3484,
      "mission": 3485,
      "29": 3486,
      "ĠEuropean": 3487,
      "ĠJapan": 3488,
      "Ġsaying": 3489,
      "Ġpen": 3490,
      "Ġnature": 3491,
      "ĠLa": 3492,
      "sidered": 3493,
      "ĠCouncil": 3494,
      "OT": 3495,
      "ĠAre": 3496,
      "uses": 3497,
      "Ġcup": 3498,
      "Ġsil": 3499,
      "ares": 3500,
      "Ġmention": 3501,
      "Ġdrink": 3502,
      "Ġstyle": 3503,
      "iber": 3504,
      "Ġcouple": 3505,
      "ĠFirst": 3506,
      "Ġideas": 3507,
      "Ġpatient": 3508,
      "Ġimmed": 3509,
      "ĠEast": 3510,
      "Ġson": 3511,
      "Ġchalleng": 3512,
      "Ġfinished": 3513,
      "Ġdocument": 3514,
      "Sam": 3515,
      "Ġwild": 3516,
      "ĠMark": 3517,
      "Ġcapt": 3518,
      "Ġter": 3519,
      "Ġpartners": 3520,
      "Ġgiving": 3521,
      "iring": 3522,
      "Ġusers": 3523,
      "Ġbank": 3524,
      "Ġpu": 3525,
      "new": 3526,
      "ĠTrans": 3527,
      "Ġbroad": 3528,
      "Ġanswer": 3529,
      "Ġthreat": 3530,
      "Ġsave": 3531,
      "Ad": 3532,
      "ims": 3533,
      "ples": 3534,
      "Max": 3535,
      "Ġannounced": 3536,
      "Ġsharing": 3537,
      "Ġstates": 3538,
      "ville": 3539,
      "ography": 3540,
      "orrow": 3541,
      "Ġten": 3542,
      "vey": 3543,
      "Ġsales": 3544,
      "eared": 3545,
      "haps": 3546,
      "Ġbur": 3547,
      "Ġones": 3548,
      "Ġimage": 3549,
      "Ġsafety": 3550,
      "Ġwrote": 3551,
      "35": 3552,
      "Ġresponse": 3553,
      "Ġinstit": 3554,
      "oday": 3555,
      "ĠSund": 3556,
      "ĠBro": 3557,
      "ida": 3558,
      "Ġrequest": 3559,
      "Ġhttps": 3560,
      "Ġsoftware": 3561,
      "ulations": 3562,
      "mercial": 3563,
      "ĠHist": 3564,
      "Ġadministr": 3565,
      "Ġgets": 3566,
      "Ġlower": 3567,
      "Ġexact": 3568,
      "ĠPri": 3569,
      "error": 3570,
      "aches": 3571,
      "estern": 3572,
      "Ġregion": 3573,
      "Ġspent": 3574,
      "Ġimplement": 3575,
      "omp": 3576,
      "rast": 3577,
      "ancing": 3578,
      "imately": 3579,
      "Ġlocated": 3580,
      "inally": 3581,
      "Ġconsidered": 3582,
      "Ġbigger": 3583,
      "Ġchance": 3584,
      "Ġetc": 3585,
      "ĠJane": 3586,
      "Ġswing": 3587,
      "ĠDan": 3588,
      "Ġdistrib": 3589,
      "Ġsell": 3590,
      "emb": 3591,
      "sequ": 3592,
      "ĠCanada": 3593,
      "ĠPaul": 3594,
      "Ġletter": 3595,
      "Ġstandard": 3596,
      "Ġattention": 3597,
      "Ġsource": 3598,
      "Ġcam": 3599,
      "Ġcomplex": 3600,
      "Ġnecessary": 3601,
      "ĠTechn": 3602,
      "Ġblocks": 3603,
      "Ġgas": 3604,
      "ĠMet": 3605,
      "Ġexcept": 3606,
      "Ġpeace": 3607,
      "Ġusually": 3608,
      "Ġskills": 3609,
      "ĠWilliam": 3610,
      "ĠWashington": 3611,
      "Ġcomment": 3612,
      "oul": 3613,
      "Ġcosts": 3614,
      "Ġimpress": 3615,
      "Ġpieces": 3616,
      "Ġwear": 3617,
      "mon": 3618,
      "Ġagre": 3619,
      "Ġaward": 3620,
      "ager": 3621,
      "Ġculture": 3622,
      "Ġtrip": 3623,
      "iling": 3624,
      "iance": 3625,
      "Ġgold": 3626,
      "Ġturns": 3627,
      "unk": 3628,
      "Ġresources": 3629,
      "Ġmount": 3630,
      "ING": 3631,
      "Ġowner": 3632,
      "Ġspeed": 3633,
      "Ġclub": 3634,
      "Ġ29": 3635,
      "istry": 3636,
      "echan": 3637,
      "ĠRepublic": 3638,
      "ĠMary": 3639,
      "Ġ2008": 3640,
      "Ġmouth": 3641,
      "oto": 3642,
      "yond": 3643,
      "Ġattract": 3644,
      "Ġlic": 3645,
      "Ġcomputer": 3646,
      "Ġstreng": 3647,
      "Ġrob": 3648,
      "ipment": 3649,
      "ĠUp": 3650,
      "Ġdigital": 3651,
      "Ġparts": 3652,
      "rench": 3653,
      "Ġdisplay": 3654,
      "ato": 3655,
      "ban": 3656,
      "Ġreflect": 3657,
      "acing": 3658,
      "Ġwonderful": 3659,
      "Ġappl": 3660,
      "Ġprevent": 3661,
      "Ġpositive": 3662,
      "Ġdeveloped": 3663,
      "Ġoptions": 3664,
      "Ġhungry": 3665,
      "ĠPal": 3666,
      "Our": 3667,
      "nown": 3668,
      "Ġborn": 3669,
      "ĠMor": 3670,
      "ĠBusiness": 3671,
      "round": 3672,
      "vision": 3673,
      "Ġride": 3674,
      "EO": 3675,
      "Ġbath": 3676,
      "Oh": 3677,
      "vis": 3678,
      "itiz": 3679,
      "Ġx": 3680,
      "IL": 3681,
      "ĠBritish": 3682,
      "rs": 3683,
      "iger": 3684,
      "Un": 3685,
      "eff": 3686,
      "Ġtrade": 3687,
      "ĠIsrael": 3688,
      "icine": 3689,
      "ĠProf": 3690,
      "Is": 3691,
      "Ġmis": 3692,
      "mas": 3693,
      "Ġclosed": 3694,
      "elly": 3695,
      "Ġpushed": 3696,
      "ET": 3697,
      "uted": 3698,
      "enge": 3699,
      "ibr": 3700,
      "ications": 3701,
      "Ġchoice": 3702,
      "Ġrelig": 3703,
      "Ġorganization": 3704,
      "inated": 3705,
      "Ġprogress": 3706,
      "ĠInst": 3707,
      "ĠFace": 3708,
      "**": 3709,
      "Ġinnov": 3710,
      "ĠIndian": 3711,
      "Ġstuck": 3712,
      "ropri": 3713,
      "Ġgrowing": 3714,
      "Ġcried": 3715,
      "oming": 3716,
      "Ġapply": 3717,
      "Ġblock": 3718,
      "Ġcollection": 3719,
      "Ġcapital": 3720,
      "ĠMag": 3721,
      "Ġscient": 3722,
      "ett": 3723,
      "agged": 3724,
      "het": 3725,
      "Ġruns": 3726,
      "Ġbillion": 3727,
      "ĠOut": 3728,
      "Ġshop": 3729,
      "à¤": 3730,
      "Ġmoving": 3731,
      "Ġtiny": 3732,
      "ĠRem": 3733,
      "arah": 3734,
      "ĠHere": 3735,
      "Ġconcept": 3736,
      "lation": 3737,
      "Ġeffective": 3738,
      "Ex": 3739,
      "asure": 3740,
      "Ġnovel": 3741,
      "iable": 3742,
      "Ġschools": 3743,
      "Ġrecommend": 3744,
      "Ġblood": 3745,
      "iers": 3746,
      "ĠOb": 3747,
      "Ġpulled": 3748,
      "ĠFriday": 3749,
      "Ġorganiz": 3750,
      "Ġmilitary": 3751,
      "ĠStr": 3752,
      "33": 3753,
      "Ġplayer": 3754,
      "Ġtight": 3755,
      "Ġdirector": 3756,
      "apped": 3757,
      "pen": 3758,
      "Ġenter": 3759,
      "just": 3760,
      "Ġpros": 3761,
      "Ġbud": 3762,
      "EL": 3763,
      "Ġproviding": 3764,
      "ipped": 3765,
      "Ġconcern": 3766,
      "Ġquiet": 3767,
      "Ġsort": 3768,
      "Ġsituation": 3769,
      "Ġscience": 3770,
      "bon": 3771,
      "mitted": 3772,
      "ĠJames": 3773,
      "ĠGrand": 3774,
      "ports": 3775,
      "Ġthrow": 3776,
      "Ġow": 3777,
      "ĠProgram": 3778,
      "iment": 3779,
      "Ġassess": 3780,
      "ugg": 3781,
      "pre": 3782,
      "Ġhide": 3783,
      "oyal": 3784,
      "ico": 3785,
      "nces": 3786,
      "UR": 3787,
      "Ġmultiple": 3788,
      "Ġdisapp": 3789,
      "Ġthinking": 3790,
      "Ġdemand": 3791,
      "____": 3792,
      "yl": 3793,
      "Ġdemon": 3794,
      "Ġlion": 3795,
      "Ġmachine": 3796,
      "ĠPost": 3797,
      "Ġdelic": 3798,
      "Ġlistened": 3799,
      "ellig": 3800,
      "field": 3801,
      "Ġsched": 3802,
      "Ġfamilies": 3803,
      "Ġwelcome": 3804,
      "Ġ196": 3805,
      "bye": 3806,
      "Ġpopulation": 3807,
      "aturday": 3808,
      "Ġshoot": 3809,
      "Ġbehav": 3810,
      "Ġchanged": 3811,
      "Tr": 3812,
      "Ġwife": 3813,
      "Ġprevious": 3814,
      "ĠFound": 3815,
      "Ġ60": 3816,
      "Ġuser": 3817,
      "Ġacqu": 3818,
      "Ġmeasure": 3819,
      "ĠPre": 3820,
      "Ġcenter": 3821,
      "Ġpowerful": 3822,
      "ros": 3823,
      "Ġfeet": 3824,
      "ĠSunday": 3825,
      "enty": 3826,
      "ĠAustralia": 3827,
      "Ġstudies": 3828,
      "hest": 3829,
      "ords": 3830,
      "hem": 3831,
      "rial": 3832,
      "ĠReview": 3833,
      "Ġmaybe": 3834,
      "ourney": 3835,
      "Ġcredit": 3836,
      "ĠCong": 3837,
      "ĠWed": 3838,
      "order": 3839,
      "like": 3840,
      "ĠSim": 3841,
      "arily": 3842,
      "70": 3843,
      "Ġfinish": 3844,
      "Ġwhose": 3845,
      "OS": 3846,
      "John": 3847,
      "ĠAnt": 3848,
      "vant": 3849,
      "Ġrespond": 3850,
      "AD": 3851,
      "Ġsongs": 3852,
      "Ġfirm": 3853,
      "ado": 3854,
      "Ġdownload": 3855,
      "Ġhid": 3856,
      "May": 3857,
      "Ġeffects": 3858,
      "ĠGreen": 3859,
      "mp": 3860,
      "Anna": 3861,
      "Ġdisease": 3862,
      "Just": 3863,
      "ION": 3864,
      "Ġfruit": 3865,
      "Ġeasily": 3866,
      "Ġnut": 3867,
      "Ġadventure": 3868,
      "oly": 3869,
      "uman": 3870,
      "Ġfilled": 3871,
      "Ġhttp": 3872,
      "ĠSuddenly": 3873,
      "ags": 3874,
      "Ġfine": 3875,
      "Ġhighly": 3876,
      "ĠInstitute": 3877,
      "Ġconv": 3878,
      "ustr": 3879,
      "band": 3880,
      "ription": 3881,
      "ĠBoard": 3882,
      "ĠScience": 3883,
      "Ġlimited": 3884,
      "omb": 3885,
      "Ġspread": 3886,
      "Ġconsist": 3887,
      "erve": 3888,
      "Ġincreased": 3889,
      "force": 3890,
      "Now": 3891,
      "Ġbroke": 3892,
      "itect": 3893,
      "Ġking": 3894,
      "Ġachieve": 3895,
      "Ġlink": 3896,
      "Ġrout": 3897,
      "hicle": 3898,
      "ĠEveryone": 3899,
      "estival": 3900,
      "ading": 3901,
      "Ġlikes": 3902,
      "Ġvariety": 3903,
      "Ġallows": 3904,
      "Ġtur": 3905,
      "tr": 3906,
      "ĠWhite": 3907,
      "Ġqual": 3908,
      "Sue": 3909,
      "house": 3910,
      "wise": 3911,
      "Ġdeliver": 3912,
      "Ġpoor": 3913,
      "Ġdetail": 3914,
      "Ġtick": 3915,
      "ĠMid": 3916,
      "ij": 3917,
      "Ġstreet": 3918,
      "ĠPublic": 3919,
      "ecause": 3920,
      "Ġhospital": 3921,
      "Ġclimbed": 3922,
      "Ġbenefits": 3923,
      "apes": 3924,
      "Ġclothes": 3925,
      "ĠCompany": 3926,
      "Ġded": 3927,
      "Ġliter": 3928,
      "ĠInter": 3929,
      "Ġproduc": 3930,
      "Ġeight": 3931,
      "Ġindividuals": 3932,
      "lear": 3933,
      "Ġunderstanding": 3934,
      "Ġrestaur": 3935,
      "fully": 3936,
      "Ġobt": 3937,
      "ĠGreat": 3938,
      "ronic": 3939,
      "ĠDevelop": 3940,
      "oman": 3941,
      "ĠAssociation": 3942,
      "rie": 3943,
      "Ġnoticed": 3944,
      "onday": 3945,
      "ĠTHE": 3946,
      "Ġstatement": 3947,
      "za": 3948,
      "Ġ...": 3949,
      "Ġserious": 3950,
      "ĠJoe": 3951,
      "Ġprinc": 3952,
      "ĠChurch": 3953,
      "venue": 3954,
      "Ġnormal": 3955,
      "ustain": 3956,
      "Ġallowed": 3957,
      "Ġsurv": 3958,
      "Ġban": 3959,
      "Ġconvers": 3960,
      "ament": 3961,
      "Ġdevice": 3962,
      "Ġemployees": 3963,
      "ĠEven": 3964,
      "vious": 3965,
      "Ġtools": 3966,
      "Ġskin": 3967,
      "Ġprec": 3968,
      "Ġdoctor": 3969,
      "Ġmyself": 3970,
      "ĠChar": 3971,
      "ĠGeneral": 3972,
      "Ġdirectly": 3973,
      "down": 3974,
      "do": 3975,
      "Ġpromot": 3976,
      "Ġexcell": 3977,
      "Ġnumbers": 3978,
      "ĠGoogle": 3979,
      "VID": 3980,
      "Ġclin": 3981,
      "Ġmiddle": 3982,
      "Ġreveal": 3983,
      "opt": 3984,
      "Ġscore": 3985,
      "Ġfaster": 3986,
      "Ġbeach": 3987,
      "ĠMod": 3988,
      "Ġpaid": 3989,
      "ston": 3990,
      "Ġincreasing": 3991,
      "Ġlocation": 3992,
      "gal": 3993,
      "Ġfunction": 3994,
      "Ġphysical": 3995,
      "cks": 3996,
      "Ġdinner": 3997,
      "ĠTra": 3998,
      "Ġattack": 3999,
      "Ġparticularly": 4000,
      "Ġaware": 4001,
      "Ġactivity": 4002,
      "ici": 4003,
      "90": 4004,
      "ĠTex": 4005,
      "Ġclients": 4006,
      "lands": 4007,
      "Ġfile": 4008,
      "ooth": 4009,
      "Ġoccur": 4010,
      "Ġgun": 4011,
      "Ġstarting": 4012,
      "olic": 4013,
      "fly": 4014,
      "ĠAN": 4015,
      "ror": 4016,
      "Ġnearly": 4017,
      "Ġmessage": 4018,
      "istics": 4019,
      "Ġhealthy": 4020,
      "Ġcustomer": 4021,
      "Ġprem": 4022,
      "Ġsen": 4023,
      "Ġstuff": 4024,
      "ĠWhy": 4025,
      "ago": 4026,
      "ĠFacebook": 4027,
      "Ġearlier": 4028,
      "Ġcandid": 4029,
      "Ġeduc": 4030,
      "Ġrules": 4031,
      "Ġfeature": 4032,
      "ategy": 4033,
      "Ġanaly": 4034,
      "Ġforce": 4035,
      "que": 4036,
      "Ġtitle": 4037,
      "Ġduck": 4038,
      "Ġfem": 4039,
      "ĠDirector": 4040,
      "Ġremain": 4041,
      "Ġden": 4042,
      "rian": 4043,
      "ocol": 4044,
      "Ġweight": 4045,
      "Ġstrateg": 4046,
      "ibly": 4047,
      "Ġ=": 4048,
      "Ġtraditional": 4049,
      "ĠPort": 4050,
      "Ġlaws": 4051,
      "Ġsister": 4052,
      "Ġcentury": 4053,
      "ults": 4054,
      "itar": 4055,
      "ĠHall": 4056,
      "ĠUs": 4057,
      "Ġspirit": 4058,
      "Ġdemonstr": 4059,
      "Ġmist": 4060,
      "Ġserved": 4061,
      "icip": 4062,
      "kend": 4063,
      "Ġbeyond": 4064,
      "ĠJew": 4065,
      "uing": 4066,
      "Ġtom": 4067,
      "ĠEv": 4068,
      "Ġlargest": 4069,
      "Ġstayed": 4070,
      "Ġinvestment": 4071,
      "RO": 4072,
      "Ġdaughter": 4073,
      "ograph": 4074,
      "ads": 4075,
      "Re": 4076,
      "Ġassociated": 4077,
      "Ġhelps": 4078,
      "ĠÂ£": 4079,
      "Ġpink": 4080,
      "Ġbusinesses": 4081,
      "Ġsociety": 4082,
      "ĠService": 4083,
      "ĠOffice": 4084,
      "Ġreports": 4085,
      "36": 4086,
      "bl": 4087,
      "iverse": 4088,
      "Ġfederal": 4089,
      "rim": 4090,
      "Ġmeaning": 4091,
      "ĠAfrica": 4092,
      "ulated": 4093,
      "Ġsolution": 4094,
      "ĠIN": 4095,
      "ppy": 4096,
      "Ġworkers": 4097,
      "Ġfamous": 4098,
      "Ġcompletely": 4099,
      "ĠSystem": 4100,
      "Ġlesson": 4101,
      "ĠServices": 4102,
      "ĠPlease": 4103,
      "Ġinform": 4104,
      "Ġequipment": 4105,
      "ĠRich": 4106,
      "Ġlif": 4107,
      "Ġfrequ": 4108,
      "CC": 4109,
      "Ġdaily": 4110,
      "Ġ31": 4111,
      "ĠBobo": 4112,
      "Ġexpert": 4113,
      "Ġ+": 4114,
      "Ġbeginning": 4115,
      "ĠSaturday": 4116,
      "Ġmaterials": 4117,
      "ĠConf": 4118,
      "Ġdifference": 4119,
      "Ġver": 4120,
      "icated": 4121,
      "Ġanimal": 4122,
      "uesday": 4123,
      "ĠRober": 4124,
      "Ġopportunities": 4125,
      "ĠMichael": 4126,
      "Ġdegree": 4127,
      "ĠâĢ¦": 4128,
      "Ġfully": 4129,
      "ĠVol": 4130,
      "Ġtypes": 4131,
      "Ġchurch": 4132,
      "Ġriver": 4133,
      "Ġult": 4134,
      "box": 4135,
      "Ġeverywhere": 4136,
      "Ġthous": 4137,
      "Ġapple": 4138,
      "Ġglass": 4139,
      "Ġcorrect": 4140,
      "44": 4141,
      "ĠRet": 4142,
      "Ġstructure": 4143,
      "Ġâ": 4144,
      "Her": 4145,
      "Ġplanning": 4146,
      "Ġitems": 4147,
      "Ġjournal": 4148,
      "ipe": 4149,
      "Ġfresh": 4150,
      "burg": 4151,
      "Ġwise": 4152,
      "Pro": 4153,
      "Ġfans": 4154,
      "Ġ2007": 4155,
      "ĠThom": 4156,
      "izes": 4157,
      "Ġshown": 4158,
      "https": 4159,
      "irus": 4160,
      "Ġcorpor": 4161,
      "ĠArch": 4162,
      "ĠSuper": 4163,
      "ĠCommission": 4164,
      "agn": 4165,
      "Ġdangerous": 4166,
      "ĠJournal": 4167,
      "Ġdecl": 4168,
      "Ġserve": 4169,
      "Ġsounds": 4170,
      "Ġpurpose": 4171,
      "Ġteams": 4172,
      "undred": 4173,
      "Ġdirty": 4174,
      "met": 4175,
      "see": 4176,
      "change": 4177,
      "Ġoption": 4178,
      "Ġteacher": 4179,
      "Ġbill": 4180,
      "ĠÐ": 4181,
      "ĠMart": 4182,
      "Ġsend": 4183,
      "Ġmechan": 4184,
      "37": 4185,
      "Ġeating": 4186,
      "Ġcells": 4187,
      "Ġcreative": 4188,
      "Ġscary": 4189,
      "Ġdrop": 4190,
      "Ġcollabor": 4191,
      "Ġreplied": 4192,
      "Ġcivil": 4193,
      "hips": 4194,
      "Ġsuit": 4195,
      "wide": 4196,
      "ket": 4197,
      "een": 4198,
      "ĠPeople": 4199,
      "ĠDel": 4200,
      "ĠBlue": 4201,
      "Ġeffort": 4202,
      "kin": 4203,
      "ĠDemocr": 4204,
      "Ġinsurance": 4205,
      "PS": 4206,
      "ĠSur": 4207,
      "Ġmail": 4208,
      "Ġarm": 4209,
      "Ġfunct": 4210,
      "inger": 4211,
      "Ġcommercial": 4212,
      "Ġmarketing": 4213,
      "Ġund": 4214,
      "Ġ>": 4215,
      "Ġgoodbye": 4216,
      "Ġjourney": 4217,
      "Ġdriver": 4218,
      "overed": 4219,
      "Ġhom": 4220,
      "Suddenly": 4221,
      "Ġdied": 4222,
      "aine": 4223,
      "Ġcondition": 4224,
      "ĠIS": 4225,
      "Ġefforts": 4226,
      "Ġaltern": 4227,
      "embered": 4228,
      "Ġpassed": 4229,
      "Ġwished": 4230,
      "Ġcaught": 4231,
      "encies": 4232,
      "ĠEngland": 4233,
      "55": 4234,
      "Ġrare": 4235,
      "Ġeye": 4236,
      "Ġpattern": 4237,
      "inese": 4238,
      "Ġsitting": 4239,
      "Ġalle": 4240,
      "38": 4241,
      "Ġlack": 4242,
      "ĠPress": 4243,
      "ĠGovernment": 4244,
      "Ġtalked": 4245,
      "nesday": 4246,
      "Ġfear": 4247,
      "Ġcookies": 4248,
      "Ġmill": 4249,
      "ĠEducation": 4250,
      "Ġharm": 4251,
      "ĠRob": 4252,
      "ander": 4253,
      "ĠMusic": 4254,
      "ĠPlay": 4255,
      "ĠAngel": 4256,
      "ocked": 4257,
      "Ġign": 4258,
      "Ġvehicle": 4259,
      "Ġbasis": 4260,
      "Ġincred": 4261,
      "Ġsupply": 4262,
      "Ġbike": 4263,
      "Ġremembered": 4264,
      "Ġbelong": 4265,
      "eds": 4266,
      "ĠMost": 4267,
      "ĠMonday": 4268,
      "ĠPlan": 4269,
      "rey": 4270,
      "ĠTimmy": 4271,
      "ĠBest": 4272,
      "Ġcompared": 4273,
      "ĠBank": 4274,
      "Please": 4275,
      "Ġindependent": 4276,
      "rief": 4277,
      "ĠFrench": 4278,
      "ĠMany": 4279,
      "ĠGold": 4280,
      "Ġconstruction": 4281,
      "iders": 4282,
      "ĠTexas": 4283,
      "Ġanti": 4284,
      "ella": 4285,
      "Ġcancer": 4286,
      "Ġconsult": 4287,
      "Ġoffered": 4288,
      "Ġfeels": 4289,
      "sey": 4290,
      "Ġshel": 4291,
      "Ġ@": 4292,
      "ĠTheir": 4293,
      "ĠMem": 4294,
      "Ġherself": 4295,
      "ĠJim": 4296,
      "Ġcode": 4297,
      "ength": 4298,
      "Ġfat": 4299,
      "IG": 4300,
      "Ġpow": 4301,
      "ĠMac": 4302,
      "Ġseven": 4303,
      "Ġinterested": 4304,
      "Ġtemper": 4305,
      "Ġemot": 4306,
      "01": 4307,
      "Ġcreating": 4308,
      "ĠSee": 4309,
      "Ġcollege": 4310,
      "icles": 4311,
      "Ġbutton": 4312,
      "Ġuses": 4313,
      "Ġimages": 4314,
      "ursday": 4315,
      "ĠHome": 4316,
      "itely": 4317,
      "body": 4318,
      "Ġcommunities": 4319,
      "34": 4320,
      "NA": 4321,
      "Ġpush": 4322,
      "Ġrich": 4323,
      "Ġopin": 4324,
      "ĠMaybe": 4325,
      "ĠAdd": 4326,
      "iences": 4327,
      "Ġspend": 4328,
      "Ġappropri": 4329,
      "Ġju": 4330,
      "ĠWork": 4331,
      "cient": 4332,
      "Ġesc": 4333,
      "ĠFlor": 4334,
      "Ġtransport": 4335,
      "akers": 4336,
      "Ġappoint": 4337,
      "Ġestablished": 4338,
      "Ġcopy": 4339,
      "Ġgrant": 4340,
      "Ġonto": 4341,
      "fl": 4342,
      "ios": 4343,
      "Ġtruth": 4344,
      "ĠMarket": 4345,
      "Ġbowl": 4346,
      "Ġstream": 4347,
      "ĠChristian": 4348,
      "100": 4349,
      "iately": 4350,
      "berg": 4351,
      "Ġahead": 4352,
      "ĠCommittee": 4353,
      "Ġnest": 4354,
      "pm": 4355,
      "Ġquarter": 4356,
      "ym": 4357,
      "Mia": 4358,
      "ĠIntern": 4359,
      "Ġexhib": 4360,
      "Ġseemed": 4361,
      "Ġcharacters": 4362,
      "His": 4363,
      "Ġcolorful": 4364,
      "abbed": 4365,
      "Ġwoods": 4366,
      "Ġbiggest": 4367,
      "ĠGood": 4368,
      "Ġegg": 4369,
      "Ġactive": 4370,
      "ams": 4371,
      "Ġstock": 4372,
      "Ġrequirements": 4373,
      "ashion": 4374,
      "Ġvillage": 4375,
      "Ġcert": 4376,
      "Ġclimate": 4377,
      "porary": 4378,
      "ĠLife": 4379,
      "Ġphoto": 4380,
      "ĠMiss": 4381,
      "Ġpool": 4382,
      "ĠBill": 4383,
      "vered": 4384,
      "Ġshot": 4385,
      "Ġgovern": 4386,
      "Ġaspect": 4387,
      "ault": 4388,
      "umn": 4389,
      "Ġgrew": 4390,
      "amily": 4391,
      "Ġleader": 4392,
      "ĠOver": 4393,
      "Ġsolutions": 4394,
      "ously": 4395,
      "ucks": 4396,
      "lim": 4397,
      "IV": 4398,
      "Ġsale": 4399,
      "39": 4400,
      "Ġholding": 4401,
      "Ġannual": 4402,
      "men": 4403,
      "ether": 4404,
      "Ġalthough": 4405,
      "rict": 4406,
      "ocal": 4407,
      "ĠPM": 4408,
      "Ġaffect": 4409,
      "Ġjoined": 4410,
      "ĠAM": 4411,
      "Ġwatching": 4412,
      "ĠGeorge": 4413,
      "istan": 4414,
      "Ġstone": 4415,
      "Ġexerc": 4416,
      "ĠWind": 4417,
      "Ġdesp": 4418,
      "ĠRel": 4419,
      "Ġcertainly": 4420,
      "Ġmobile": 4421,
      "Ġrealized": 4422,
      "ologies": 4423,
      "ero": 4424,
      "Ġforeign": 4425,
      "ĠKe": 4426,
      "Ġcateg": 4427,
      "anging": 4428,
      "Ġmovement": 4429,
      "reme": 4430,
      "ĠSol": 4431,
      "roy": 4432,
      "Ġexpand": 4433,
      "Ġdoub": 4434,
      "Ġapplications": 4435,
      "known": 4436,
      "raight": 4437,
      "Ġbenefit": 4438,
      "arp": 4439,
      "Ġbreat": 4440,
      "DA": 4441,
      "ĠUSA": 4442,
      "OL": 4443,
      "istrict": 4444,
      "ĠTuesday": 4445,
      "azine": 4446,
      "aisy": 4447,
      "Ġclick": 4448,
      "isa": 4449,
      "Ġeconomy": 4450,
      "ki": 4451,
      "Ġship": 4452,
      "Ġepis": 4453,
      "Ġappeared": 4454,
      "lor": 4455,
      "ĠManagement": 4456,
      "acity": 4457,
      "emic": 4458,
      "ĠBrown": 4459,
      "Ġbudget": 4460,
      "Ġcitiz": 4461,
      "Ġsurround": 4462,
      "Ġarrived": 4463,
      ".'": 4464,
      "ĠFore": 4465,
      "ĠPet": 4466,
      "Ġuseful": 4467,
      "ona": 4468,
      "ĠSpec": 4469,
      "Ġbeg": 4470,
      "Ġresponsible": 4471,
      "Ġfan": 4472,
      "Ġsites": 4473,
      "part": 4474,
      "reedom": 4475,
      "Ġgoals": 4476,
      "ĠChristmas": 4477,
      "Ġstation": 4478,
      "Ġwouldn": 4479,
      "EM": 4480,
      "ses": 4481,
      "Ġagree": 4482,
      "75": 4483,
      "Ġcarefully": 4484,
      "Ġoverall": 4485,
      "ĠBig": 4486,
      "osition": 4487,
      "ae": 4488,
      "ampions": 4489,
      "Ġtower": 4490,
      "Ġobser": 4491,
      "ĠCap": 4492,
      "ĠMo": 4493,
      "ĠOther": 4494,
      "Ġrates": 4495,
      "Ġpressure": 4496,
      "Ġpurchase": 4497,
      "Ġchallenge": 4498,
      "ĠMal": 4499,
      "ĠBel": 4500,
      "Ġmine": 4501,
      "itz": 4502,
      "Ġplants": 4503,
      "ĠCongress": 4504,
      "Ġincome": 4505,
      "Ġfootball": 4506,
      "Ġnotice": 4507,
      "Ġgar": 4508,
      "Ġexactly": 4509,
      "Ġrat": 4510,
      "Con": 4511,
      "care": 4512,
      "orage": 4513,
      "iven": 4514,
      "ounds": 4515,
      "Ġflying": 4516,
      "Ġfinding": 4517,
      "'.": 4518,
      "ĠMil": 4519,
      "Ġtim": 4520,
      "ties": 4521,
      "Ġbutterfly": 4522,
      "ruct": 4523,
      "Ġowners": 4524,
      "Ġhour": 4525,
      "Ġgreater": 4526,
      "lict": 4527,
      "Ġgradu": 4528,
      "Ġfigure": 4529,
      "hens": 4530,
      "Ġhundred": 4531,
      "gency": 4532,
      "ĠWell": 4533,
      "ĠUnder": 4534,
      "iller": 4535,
      "Ġbasket": 4536,
      "cont": 4537,
      "igation": 4538,
      "Ġstars": 4539,
      "Ġsom": 4540,
      "Ġbranch": 4541,
      "Ġdescribed": 4542,
      "ĠAlex": 4543,
      "Ġwaited": 4544,
      "Ġforget": 4545,
      "ĠCat": 4546,
      "Ġsud": 4547,
      "Ġpages": 4548,
      "ĠSarah": 4549,
      "ĠJes": 4550,
      "Ġtherap": 4551,
      "ĠRoad": 4552,
      "Ġextrem": 4553,
      "itude": 4554,
      "Okay": 4555,
      "uty": 4556,
      "Ġelectric": 4557,
      "Ġcovered": 4558,
      "Ġimmediately": 4559,
      "Ġshouted": 4560,
      "Ġhomes": 4561,
      "Ab": 4562,
      "Ġprimary": 4563,
      "overy": 4564,
      "term": 4565,
      "Ġsurface": 4566,
      "igr": 4567,
      "48": 4568,
      "oe": 4569,
      "ĠElect": 4570,
      "ĠSub": 4571,
      "Ġcritical": 4572,
      "ĠChild": 4573,
      "Ġlines": 4574,
      "apter": 4575,
      "Ġadvant": 4576,
      "Ġestablish": 4577,
      "ĠDef": 4578,
      "ervation": 4579,
      "ĠWednesday": 4580,
      "Ġweekend": 4581,
      "aph": 4582,
      "ĠCam": 4583,
      "ĠOF": 4584,
      "Ġpsych": 4585,
      "Ġsmell": 4586,
      "Ġmap": 4587,
      "Ġmeant": 4588,
      "Ġeval": 4589,
      "place": 4590,
      "ĠDevelopment": 4591,
      "icial": 4592,
      "TS": 4593,
      "Ġgrabbed": 4594,
      "ĠChinese": 4595,
      "Ġwaiting": 4596,
      "Ġmission": 4597,
      "rupt": 4598,
      "Ġsports": 4599,
      "Ġcharge": 4600,
      "ĠSmith": 4601,
      "ooper": 4602,
      "Ġstress": 4603,
      "Ġmer": 4604,
      "Ġtransfer": 4605,
      "pective": 4606,
      "Ġmax": 4607,
      "Ġmotor": 4608,
      "Ġbrown": 4609,
      "Post": 4610,
      "Ġorganizations": 4611,
      "Ġadvice": 4612,
      "Ġproced": 4613,
      "apers": 4614,
      "ĠFranc": 4615,
      "mar": 4616,
      "IM": 4617,
      "atively": 4618,
      "Ġchem": 4619,
      "Ġthrew": 4620,
      "31": 4621,
      "Ġdistrict": 4622,
      "ĠSing": 4623,
      "iar": 4624,
      "Ġ2006": 4625,
      "isation": 4626,
      "Ġhighest": 4627,
      "Ġbalance": 4628,
      "Ġtraff": 4629,
      "arant": 4630,
      "Ġacadem": 4631,
      "Ġenh": 4632,
      "Ġvote": 4633,
      "ĠThank": 4634,
      "Ġowl": 4635,
      "Ġrestr": 4636,
      "Ġbusy": 4637,
      "la": 4638,
      "Sara": 4639,
      "Ġtor": 4640,
      "IP": 4641,
      "Ġpolic": 4642,
      "rif": 4643,
      "Ġopening": 4644,
      "05": 4645,
      "Ġchallenges": 4646,
      "ĠWin": 4647,
      "Ġprop": 4648,
      "Ġmiles": 4649,
      "Ġexcellent": 4650,
      "Ġlegis": 4651,
      "ota": 4652,
      "Ġhur": 4653,
      "Ġnames": 4654,
      "ogether": 4655,
      "ils": 4656,
      "arn": 4657,
      "CO": 4658,
      "ĠLou": 4659,
      "Ġhonest": 4660,
      "oma": 4661,
      "ĠThursday": 4662,
      "atever": 4663,
      "47": 4664,
      "Ġparties": 4665,
      "Ġstorm": 4666,
      "Ġexisting": 4667,
      "osing": 4668,
      "ĠYear": 4669,
      "abin": 4670,
      "Ġagreement": 4671,
      "coming": 4672,
      "Ġremind": 4673,
      "49": 4674,
      "Ġelection": 4675,
      "Ġprices": 4676,
      ");": 4677,
      "Ġreduce": 4678,
      "Ġseat": 4679,
      "Ġproduced": 4680,
      "iated": 4681,
      "Ġclaims": 4682,
      "46": 4683,
      "Ġreasons": 4684,
      "Ġremains": 4685,
      "Ġcompon": 4686,
      "Ġconcer": 4687,
      "ĠSocial": 4688,
      "ĠStar": 4689,
      "ĠBay": 4690,
      "vere": 4691,
      "Ġidentify": 4692,
      "ĠCOVID": 4693,
      "Ġstraight": 4694,
      "ivery": 4695,
      "ĠFil": 4696,
      "CA": 4697,
      "Ġcompleted": 4698,
      "Ġcentral": 4699,
      "ĠDesign": 4700,
      "Ġjoy": 4701,
      "ĠHistory": 4702,
      "una": 4703,
      "Ġleaf": 4704,
      "ĠDistrict": 4705,
      "ĠÃ": 4706,
      "ien": 4707,
      "ĠRock": 4708,
      "ano": 4709,
      "ĠFlorida": 4710,
      "Ġstrategy": 4711,
      "Ġdriving": 4712,
      "Ġradio": 4713,
      "ening": 4714,
      "Ġbottom": 4715,
      "well": 4716,
      "ker": 4717,
      "standing": 4718,
      "Ġkid": 4719,
      "ĠBer": 4720,
      "Ġunf": 4721,
      "Ġcoach": 4722,
      "Ġpray": 4723,
      "Ġoperations": 4724,
      "Here": 4725,
      "Ġblew": 4726,
      "Ġmicro": 4727,
      "ĠGet": 4728,
      "oved": 4729,
      "ression": 4730,
      "Ġaim": 4731,
      "Ġartist": 4732,
      "ĠST": 4733,
      "Ġavoid": 4734,
      "Ġbrain": 4735,
      "Ġresist": 4736,
      "Ġcommit": 4737,
      "Sc": 4738,
      "Ġhar": 4739,
      "win": 4740,
      "Ġcomments": 4741,
      "Ġjobs": 4742,
      "ĠSal": 4743,
      "Ġpresented": 4744,
      "oices": 4745,
      "IA": 4746,
      "ĠSociety": 4747,
      "osh": 4748,
      "Ġsector": 4749,
      "ean": 4750,
      "Ġsetting": 4751,
      "Ġhelpful": 4752,
      "Ġapprec": 4753,
      "Ġhotel": 4754,
      "Ġperhaps": 4755,
      "bert": 4756,
      "Bob": 4757,
      "Ðµ": 4758,
      "',": 4759,
      "Ġearth": 4760,
      "ĠClass": 4761,
      "Ġheat": 4762,
      "Ġmodels": 4763,
      "ĠCare": 4764,
      "ĠAtt": 4765,
      "ffee": 4766,
      "anda": 4767,
      "Ġworried": 4768,
      "outhern": 4769,
      "................": 4770,
      "Ġclapped": 4771,
      "Ġfighting": 4772,
      "ĠTur": 4773,
      "Ġstatus": 4774,
      "usion": 4775,
      "ĠFoundation": 4776,
      "Ġcart": 4777,
      "ĠMad": 4778,
      "Ġsteps": 4779,
      "yer": 4780,
      "Ġdropped": 4781,
      "osis": 4782,
      "Ð¾": 4783,
      "ĠCamp": 4784,
      "Ġvalues": 4785,
      "Ġpurs": 4786,
      "Ġprotection": 4787,
      "Ġbul": 4788,
      "Ġbought": 4789,
      "Ġmyster": 4790,
      "ĠSupp": 4791,
      "Ġvirt": 4792,
      "Ġattend": 4793,
      "ĠRiver": 4794,
      "CH": 4795,
      "Ġwaved": 4796,
      "ĠPeter": 4797,
      "cean": 4798,
      "Ġstrength": 4799,
      "Ġunit": 4800,
      "mark": 4801,
      "Ġlibr": 4802,
      "aven": 4803,
      "Ġestim": 4804,
      "Ġproduce": 4805,
      "âĢ¢": 4806,
      "Ġguess": 4807,
      "works": 4808,
      "usband": 4809,
      "Ġweather": 4810,
      "Ġprofession": 4811,
      "ĠMinister": 4812,
      "Ġdamage": 4813,
      "irgin": 4814,
      "Ġvan": 4815,
      "ĠProd": 4816,
      "LE": 4817,
      "eat": 4818,
      "using": 4819,
      "32": 4820,
      "istered": 4821,
      "Ġcou": 4822,
      "Ġpig": 4823,
      "ulate": 4824,
      "Ġreality": 4825,
      "miss": 4826,
      "Ġknows": 4827,
      "ĠHel": 4828,
      "Ġabsol": 4829,
      "Ġlunch": 4830,
      "Ġregarding": 4831,
      "Ġtruly": 4832,
      "actions": 4833,
      "ĠClub": 4834,
      "ĠProject": 4835,
      "aming": 4836,
      "ĠTwitter": 4837,
      "imal": 4838,
      "Ġarr": 4839,
      "ugh": 4840,
      "reek": 4841,
      "Ġbatter": 4842,
      "bo": 4843,
      "ĠMex": 4844,
      "??": 4845,
      "Bl": 4846,
      "ĠBre": 4847,
      "Ġaudience": 4848,
      "Ġlaunch": 4849,
      "].": 4850,
      "UN": 4851,
      "Ġdefinitely": 4852,
      "Ġhero": 4853,
      "Ġwid": 4854,
      "mm": 4855,
      "Ġcarried": 4856,
      "Ġintellig": 4857,
      "Ġscene": 4858,
      "Ġphotos": 4859,
      "Ġscale": 4860,
      "ya": 4861,
      "Ġstrange": 4862,
      "aser": 4863,
      "Ġpartner": 4864,
      "hol": 4865,
      "Ġbasic": 4866,
      "Ġtrend": 4867,
      "aud": 4868,
      "ipping": 4869,
      "ented": 4870,
      "Ġseeing": 4871,
      "Ġlift": 4872,
      "ishes": 4873,
      "Ġsustain": 4874,
      "Ġcash": 4875,
      "ĠUN": 4876,
      "Ġpm": 4877,
      "Ġrent": 4878,
      "Ġleadership": 4879,
      "Ġoffering": 4880,
      "anta": 4881,
      "ĠQue": 4882,
      "Ġvacc": 4883,
      "Ġrise": 4884,
      "BA": 4885,
      "ĠAward": 4886,
      "ĠAv": 4887,
      "Ġshoes": 4888,
      "Ġthanks": 4889,
      "ĠFred": 4890,
      "Ġadvert": 4891,
      "Ġcastle": 4892,
      "Ġdepend": 4893,
      "ĠFree": 4894,
      "Ġ80": 4895,
      "orial": 4896,
      "Ġdecor": 4897,
      "Ġsch": 4898,
      "Ġdevices": 4899,
      "semb": 4900,
      "Ġpromised": 4901,
      "ĠTimes": 4902,
      "Ġtrial": 4903,
      "Ġfactors": 4904,
      "Ġolder": 4905,
      "Ġguide": 4906,
      "Ġsmaller": 4907,
      "Ġrefer": 4908,
      "Ġweak": 4909,
      "Ġfunding": 4910,
      "ĠBet": 4911,
      "annel": 4912,
      "riage": 4913,
      "Ġlose": 4914,
      "Ġofficials": 4915,
      "Ġcalls": 4916,
      "Ġblank": 4917,
      "Ġcas": 4918,
      "Ġspring": 4919,
      "ste": 4920,
      "PA": 4921,
      "http": 4922,
      "Ġcamera": 4923,
      "65": 4924,
      "itness": 4925,
      "Ġge": 4926,
      "ĠAlso": 4927,
      "ula": 4928,
      "ĠProfess": 4929,
      "Ġtaste": 4930,
      "ria": 4931,
      "Ġbackground": 4932,
      "osure": 4933,
      "Ġtherefore": 4934,
      "ĠUnion": 4935,
      "entle": 4936,
      "Ġcontain": 4937,
      "Ġessential": 4938,
      "ĠFrance": 4939,
      "ĠMuseum": 4940,
      "ĠEconom": 4941,
      "Ġcontinues": 4942,
      "Ġshowing": 4943,
      "ĠAfrican": 4944,
      "Ġprincip": 4945,
      "Ġmur": 4946,
      "Ġcomfortable": 4947,
      "Ġsem": 4948,
      "ĠHol": 4949,
      "Ġcris": 4950,
      "Ġflex": 4951,
      "bu": 4952,
      "Ġfaith": 4953,
      "Ġer": 4954,
      "ait": 4955,
      "Ġlaun": 4956,
      "ynam": 4957,
      "Ġsmooth": 4958,
      "oms": 4959,
      "uits": 4960,
      "icago": 4961,
      "Ġmajority": 4962,
      "cel": 4963,
      "Ġ35": 4964,
      "inate": 4965,
      "Ġrocks": 4966,
      "ĠEll": 4967,
      "Ġguid": 4968,
      "Ġasks": 4969,
      "ĠIsland": 4970,
      "Ġbottle": 4971,
      "Ġraised": 4972,
      "Ġlarger": 4973,
      "ĠHill": 4974,
      "Ġscen": 4975,
      "RA": 4976,
      "ka": 4977,
      "Ġ90": 4978,
      "ius": 4979,
      "Ġadopt": 4980,
      "estic": 4981,
      "Ġcounter": 4982,
      "resp": 4983,
      "isco": 4984,
      "Ġdelicious": 4985,
      "Ġfold": 4986,
      "95": 4987,
      "Ġmonster": 4988,
      "ĠLeague": 4989,
      "ĠMommy": 4990,
      "ĠCommunity": 4991,
      "ĠBi": 4992,
      "Ġappropriate": 4993,
      "Ġforgot": 4994,
      "Ġdouble": 4995,
      "Not": 4996,
      "ĠInside": 4997,
      "orney": 4998,
      "Ġspecies": 4999,
      "ĠMont": 5000,
      "Ġposted": 5001,
      "ĠTop": 5002,
      "erved": 5003,
      "orthern": 5004,
      "Ġmud": 5005,
      "These": 5006,
      "Ġarchitect": 5007,
      "Ġrecords": 5008,
      "nel": 5009,
      "iture": 5010,
      "Ġeventually": 5011,
      "Ġsatis": 5012,
      "Ġdespite": 5013,
      "ĠSun": 5014,
      "Ġthinks": 5015,
      "Ġteaching": 5016,
      "ĠTime": 5017,
      "Ġcapacity": 5018,
      "aded": 5019,
      "Ġartists": 5020,
      "Ġneighbor": 5021,
      "Ġdeveloping": 5022,
      "Ġlin": 5023,
      "azz": 5024,
      "Ġnumer": 5025,
      "Ġviews": 5026,
      "ĠKen": 5027,
      "ĠScott": 5028,
      "Ġtoward": 5029,
      "entially": 5030,
      "ĠIns": 5031,
      "igned": 5032,
      "Ġmaster": 5033,
      "Ġfixed": 5034,
      "ĠJer": 5035,
      "ĠRussia": 5036,
      "icted": 5037,
      "ĠToday": 5038,
      "fr": 5039,
      "ĠGermany": 5040,
      "agram": 5041,
      "Ġpreviously": 5042,
      "Ġaccur": 5043,
      "Ġimpl": 5044,
      "ĠJud": 5045,
      "MS": 5046,
      "Ġoccas": 5047,
      "Ġexperiences": 5048,
      "ĠEngine": 5049,
      "Ġhopped": 5050,
      "ĠBuddy": 5051,
      "Ġshape": 5052,
      "Ġspin": 5053,
      "Ġ2000": 5054,
      "Ġkilled": 5055,
      "Ġring": 5056,
      "Ġconference": 5057,
      "Ġcorner": 5058,
      "ĠWomen": 5059,
      "Ġconnection": 5060,
      "raz": 5061,
      "ĠHam": 5062,
      "Ġended": 5063,
      "Ġstandards": 5064,
      "Ġ2005": 5065,
      "Ġhorse": 5066,
      ".[": 5067,
      "ĠRobert": 5068,
      "Ġfant": 5069,
      "Ġmetal": 5070,
      "Ġentry": 5071,
      "Ġmethods": 5072,
      "ĠWeb": 5073,
      "ĠCentral": 5074,
      "Ġbirthday": 5075,
      "iminal": 5076,
      "itors": 5077,
      "ĠOpen": 5078,
      "Ġaren": 5079,
      "ĠAcadem": 5080,
      "ĠâĢ¢": 5081,
      "Ġlock": 5082,
      "Ġafford": 5083,
      "ĠHot": 5084,
      "going": 5085,
      "Ġgenerally": 5086,
      "onom": 5087,
      "Ġ70": 5088,
      "vention": 5089,
      "azon": 5090,
      "ĠSum": 5091,
      "Ġreturned": 5092,
      "rd": 5093,
      "Ġorange": 5094,
      "UT": 5095,
      "Ġrule": 5096,
      "ĠParty": 5097,
      "unte": 5098,
      "Ġhusband": 5099,
      "Ġfunds": 5100,
      "Ġsenior": 5101,
      "Ġmilk": 5102,
      "Ġplaced": 5103,
      "ĠEarth": 5104,
      "Ġresidents": 5105,
      "Ġcaused": 5106,
      "Ġexciting": 5107,
      "ĠInternet": 5108,
      "ĠSl": 5109,
      "Ġexpensive": 5110,
      "phone": 5111,
      "ĠMatt": 5112,
      "asy": 5113,
      "Ġcalc": 5114,
      "Lucy": 5115,
      "Ġcompetition": 5116,
      "Ġseparate": 5117,
      "Ġmanaged": 5118,
      "Ġneck": 5119,
      "500": 5120,
      "Ġlength": 5121,
      "Spot": 5122,
      "Ġadministration": 5123,
      "Ġrap": 5124,
      "Ġvs": 5125,
      "Ġtrail": 5126,
      "Ġmir": 5127,
      "ĠHuman": 5128,
      "ĠCur": 5129,
      "Ġleaving": 5130,
      "inct": 5131,
      "antic": 5132,
      "Ġenvironmental": 5133,
      "Ġexperienced": 5134,
      "iest": 5135,
      "ĠTre": 5136,
      "ĠSecret": 5137,
      "Ġpromise": 5138,
      "Ġtells": 5139,
      "Ġconstant": 5140,
      "Ġactions": 5141,
      "Ġfurn": 5142,
      "Ġpill": 5143,
      "dd": 5144,
      "Ġcultural": 5145,
      "Ġmissed": 5146,
      "Ġmemory": 5147,
      "ĠDiv": 5148,
      "Of": 5149,
      "Ġweap": 5150,
      "under": 5151,
      "Ġisland": 5152,
      "Ġinstruct": 5153,
      "Ġadjust": 5154,
      "Ġplane": 5155,
      "uclear": 5156,
      "Ġir": 5157,
      "Ġprote": 5158,
      "Ġasking": 5159,
      "Ð°": 5160,
      "atre": 5161,
      "Ġsinging": 5162,
      "Ġbecomes": 5163,
      "Ġeasier": 5164,
      "ĠSince": 5165,
      "Ġmad": 5166,
      "Ġsomew": 5167,
      "Ġarrest": 5168,
      "Ġforms": 5169,
      "Ġswam": 5170,
      "ĠCD": 5171,
      "Ġpolicies": 5172,
      "BS": 5173,
      "Ġtraffic": 5174,
      "Ġsuppl": 5175,
      "Ġhappens": 5176,
      "ĠCarol": 5177,
      "Ġwealth": 5178,
      "gu": 5179,
      "Ġforever": 5180,
      "Ġelements": 5181,
      "ĠOh": 5182,
      "Ġlake": 5183,
      "abilities": 5184,
      "Ġbread": 5185,
      "ĠAut": 5186,
      "Ġapprox": 5187,
      "ĠLove": 5188,
      "Ġpresence": 5189,
      "ĠJesus": 5190,
      "roc": 5191,
      "verse": 5192,
      "II": 5193,
      "Acc": 5194,
      "Ġsick": 5195,
      "Ġslowly": 5196,
      "ĠFrank": 5197,
      "isher": 5198,
      "Ġactual": 5199,
      "Ġsources": 5200,
      "Ġdelivery": 5201,
      "Ġmentioned": 5202,
      "Ġconflict": 5203,
      "Ġcrow": 5204,
      "Ġamb": 5205,
      "Ġrequires": 5206,
      "ola": 5207,
      "Ġprefer": 5208,
      "Ġbench": 5209,
      "ĠMedia": 5210,
      "arsh": 5211,
      "ĠMicro": 5212,
      "ĠDaisy": 5213,
      "Le": 5214,
      "ipl": 5215,
      "OK": 5216,
      "ĠThomas": 5217,
      "orter": 5218,
      "enses": 5219,
      "ĠKore": 5220,
      "bre": 5221,
      "ĠIran": 5222,
      "Ġballoon": 5223,
      "78": 5224,
      "Ġunl": 5225,
      "yr": 5226,
      "Pl": 5227,
      "Ġpock": 5228,
      "ĠRad": 5229,
      "Ġcontext": 5230,
      "Ġrelevant": 5231,
      "uled": 5232,
      "Ġstret": 5233,
      "Ġspect": 5234,
      "Ġmum": 5235,
      "Ġclient": 5236,
      "Ġder": 5237,
      "oop": 5238,
      "Ġstorage": 5239,
      "Ġbecoming": 5240,
      "Ġextremely": 5241,
      "ĠSecurity": 5242,
      "ĠFund": 5243,
      "eless": 5244,
      "More": 5245,
      "Ġinternet": 5246,
      "gen": 5247,
      "ĠWater": 5248,
      "Ġgentle": 5249,
      "Ġfuel": 5250,
      "ĠStat": 5251,
      "Ġdetermined": 5252,
      "Ġperformed": 5253,
      "Ġwave": 5254,
      "Ġsolid": 5255,
      "Ġevening": 5256,
      "Ġtesting": 5257,
      "Ġboo": 5258,
      "ĠSoon": 5259,
      "Ġfill": 5260,
      "Ġlimit": 5261,
      "Ġcontroll": 5262,
      "Ġshell": 5263,
      "Ġmental": 5264,
      "ĠGerman": 5265,
      "Ġthus": 5266,
      "ĠLos": 5267,
      "ĠTor": 5268,
      "Ġaf": 5269,
      "Dr": 5270,
      "Ġcommunication": 5271,
      "Ġrolled": 5272,
      "Ġpal": 5273,
      "Ġnorth": 5274,
      "Ġwed": 5275,
      "adow": 5276,
      "Ġsym": 5277,
      "08": 5278,
      "Ġthousands": 5279,
      "hi": 5280,
      "rastruct": 5281,
      "illa": 5282,
      "ĠJen": 5283,
      "IR": 5284,
      "Ġbuck": 5285,
      "Ġproposed": 5286,
      "Ġdirection": 5287,
      "ĠJul": 5288,
      "ĠInformation": 5289,
      "ĠRussian": 5290,
      "Ġslight": 5291,
      "Ġretail": 5292,
      "ĠProt": 5293,
      "Ġrelax": 5294,
      "Ġarms": 5295,
      "ĠCEO": 5296,
      "04": 5297,
      "Ġmeasures": 5298,
      "Ġinfluence": 5299,
      "Ġiniti": 5300,
      "edia": 5301,
      "Ġdetermine": 5302,
      "fit": 5303,
      "ĠTechnology": 5304,
      "Ġclearly": 5305,
      "Ġsquare": 5306,
      "Ġpassion": 5307,
      "Ġsigned": 5308,
      "ortunately": 5309,
      "ĠPower": 5310,
      "van": 5311,
      "night": 5312,
      "life": 5313,
      "ĠOl": 5314,
      "09": 5315,
      "alls": 5316,
      "Ġpractices": 5317,
      "Ġforces": 5318,
      "Ġsilly": 5319,
      "ĠAmericans": 5320,
      "Good": 5321,
      "adian": 5322,
      "Ġsusp": 5323,
      "Ġshut": 5324,
      "aling": 5325,
      "Ġsouth": 5326,
      "Ġsoup": 5327,
      "ĠBur": 5328,
      "iques": 5329,
      "Ġexplained": 5330,
      "06": 5331,
      "ĠWestern": 5332,
      "Ġviolence": 5333,
      "07": 5334,
      "Every": 5335,
      "Ġoperation": 5336,
      "Ġfocused": 5337,
      "icon": 5338,
      "Ġbite": 5339,
      "uries": 5340,
      "nergy": 5341,
      "odes": 5342,
      "Ġcere": 5343,
      "Ġemp": 5344,
      "iat": 5345,
      "ĠNov": 5346,
      "Ġdecide": 5347,
      "ii": 5348,
      "Ġcheese": 5349,
      "Ġexclus": 5350,
      "Ġaccident": 5351,
      "eline": 5352,
      "Ġmanager": 5353,
      "ĠGlobal": 5354,
      "Ġgeneration": 5355,
      "ĠVirgin": 5356,
      "Ġdanced": 5357,
      "Ġfacilities": 5358,
      "pet": 5359,
      "Ġcitizens": 5360,
      "ĠPC": 5361,
      "Ġdiscover": 5362,
      "state": 5363,
      "ĠSil": 5364,
      "Ġvision": 5365,
      "ĠStep": 5366,
      "bour": 5367,
      "sing": 5368,
      "Ġancient": 5369,
      "olars": 5370,
      "Ġtelevision": 5371,
      "ĠWho": 5372,
      "Ġnap": 5373,
      "ãģ": 5374,
      "ictions": 5375,
      "ĠDet": 5376,
      "andy": 5377,
      "wers": 5378,
      "Ġtechnical": 5379,
      "ĠChicago": 5380,
      "Ġappears": 5381,
      "Ġprin": 5382,
      "Ġfashion": 5383,
      "ĠArts": 5384,
      "ĠTO": 5385,
      "ĠWil": 5386,
      "Ġinstr": 5387,
      "ĠFamily": 5388,
      "Ġunc": 5389,
      "ĠRead": 5390,
      "Ġcities": 5391,
      "Ġdogs": 5392,
      "Maybe": 5393,
      "umber": 5394,
      "gment": 5395,
      "Ed": 5396,
      "Ġdiagn": 5397,
      "Ġoperating": 5398,
      "ĠPolicy": 5399,
      "Ġsequ": 5400,
      "Ġprison": 5401,
      "orpor": 5402,
      "Ġgain": 5403,
      "ette": 5404,
      "inn": 5405,
      "ĠMount": 5406,
      "Ġagency": 5407,
      "Ġplate": 5408,
      "igration": 5409,
      "Ġ195": 5410,
      "Ġyouth": 5411,
      "Ġing": 5412,
      "Ġdistance": 5413,
      "ĠIT": 5414,
      "Ġmanufacture": 5415,
      "Ġopinion": 5416,
      "Ġtouc": 5417,
      "Ġkeeping": 5418,
      "Ġthr": 5419,
      "Ġwww": 5420,
      "Ġtrouble": 5421,
      "gn": 5422,
      "88": 5423,
      "ĠLord": 5424,
      "Ġcompar": 5425,
      "ometimes": 5426,
      "\\\\\\\\\\\\\\\\\\\\\\\\\\\\\\\\": 5427,
      "Ġrac": 5428,
      "Ġ2004": 5429,
      "with": 5430,
      "199": 5431,
      "ĠIslam": 5432,
      "ĠIr": 5433,
      "SA": 5434,
      "ashed": 5435,
      "Ġcoffee": 5436,
      "Ġcow": 5437,
      "ĠLike": 5438,
      "Ġmanage": 5439,
      "ĠSeries": 5440,
      "icing": 5441,
      "Ġgirls": 5442,
      "ĠLee": 5443,
      "Or": 5444,
      "ĠBilly": 5445,
      "look": 5446,
      "Ġdepartment": 5447,
      "atin": 5448,
      "ĠArab": 5449,
      "Ġprepared": 5450,
      "Ġfox": 5451,
      "ĠInvest": 5452,
      "Ġadvantage": 5453,
      "ĠAny": 5454,
      "Ġchick": 5455,
      "Ġtea": 5456,
      "ĠWood": 5457,
      "bow": 5458,
      "lying": 5459,
      "Ġdecisions": 5460,
      "Ġsexual": 5461,
      "Ġuniversity": 5462,
      "Ġcore": 5463,
      "Ġwinter": 5464,
      "ĠLake": 5465,
      "Ġconcent": 5466,
      "Ġearn": 5467,
      "Ã¡": 5468,
      "ĠInf": 5469,
      "Ġresearc": 5470,
      "leg": 5471,
      "ĠEach": 5472,
      "rehens": 5473,
      "Ġinitial": 5474,
      "Ġimportance": 5475,
      "Ġstarts": 5476,
      "uro": 5477,
      "Ġbrief": 5478,
      "iter": 5479,
      "Ġsang": 5480,
      "yan": 5481,
      "42": 5482,
      "Ġbehavior": 5483,
      "Ġwriter": 5484,
      "ĠAlthough": 5485,
      "Ġpretend": 5486,
      "king": 5487,
      "ĠEnd": 5488,
      "Ġbrings": 5489,
      "ĠMedical": 5490,
      "equ": 5491,
      "but": 5492,
      "Ġgiant": 5493,
      "ĠAngeles": 5494,
      "Ġpump": 5495,
      "Ġveget": 5496,
      "Ġnose": 5497,
      "ĠBecause": 5498,
      "rastructure": 5499,
      "Ġdedicated": 5500,
      "igan": 5501,
      "Ġcards": 5502,
      "Ġwal": 5503,
      "Ġstanding": 5504,
      "mail": 5505,
      "Ġpun": 5506,
      "Ġwhom": 5507,
      "Ġnom": 5508,
      "Ġfilms": 5509,
      "Ġotherwise": 5510,
      "Ġphil": 5511,
      "yard": 5512,
      "Ġrough": 5513,
      "Ġtend": 5514,
      "Ġselected": 5515,
      "Ġcalling": 5516,
      "Ġkick": 5517,
      "ĠReport": 5518,
      "Ġwaste": 5519,
      "ĠMass": 5520,
      "ĠData": 5521,
      "ĠForm": 5522,
      "emporary": 5523,
      "ĠObama": 5524,
      "App": 5525,
      "Ġsymb": 5526,
      "Ġrestaurant": 5527,
      "Gr": 5528,
      "Ġmarkets": 5529,
      "arian": 5530,
      "LC": 5531,
      "Ġofficer": 5532,
      "friend": 5533,
      "ĠTwo": 5534,
      "ucing": 5535,
      "soft": 5536,
      "Ġminor": 5537,
      "atically": 5538,
      "Ġflo": 5539,
      "ĠShow": 5540,
      "ĠEU": 5541,
      "Ġdisp": 5542,
      "Ġplays": 5543,
      "Ġbattle": 5544,
      "urb": 5545,
      "Ġwhatever": 5546,
      "Read": 5547,
      "ca": 5548,
      "kins": 5549,
      "Ġdecades": 5550,
      "Ġwinning": 5551,
      "ini": 5552,
      "hab": 5553,
      "Ġthick": 5554,
      "odies": 5555,
      "Ind": 5556,
      "Ġplus": 5557,
      "lete": 5558,
      "Ġfaces": 5559,
      "eddy": 5560,
      "Ġproceed": 5561,
      "Ġfab": 5562,
      "uke": 5563,
      "ĠMer": 5564,
      "Ġappeal": 5565,
      "ena": 5566,
      "Ġfemale": 5567,
      "Ġmarried": 5568,
      "Ġhaven": 5569,
      "ulture": 5570,
      "Ġtaught": 5571,
      "Ġcheap": 5572,
      "Ġcrisis": 5573,
      "ĠApple": 5574,
      "77": 5575,
      "Ġbee": 5576,
      "Ġpoll": 5577,
      "Ġpurple": 5578,
      "ĠAP": 5579,
      "ĠDown": 5580,
      "erences": 5581,
      "Ġsharp": 5582,
      "Ġnumerous": 5583,
      "Ġpayment": 5584,
      "Ġhidden": 5585,
      "utely": 5586,
      "iciency": 5587,
      "Ġcircum": 5588,
      "03": 5589,
      "Ġcrying": 5590,
      "Ġincredible": 5591,
      "Ġconstit": 5592,
      "Home": 5593,
      "active": 5594,
      "Cont": 5595,
      "Ġtask": 5596,
      "43": 5597,
      "Ġterror": 5598,
      "Ġmaintain": 5599,
      "Ġsecure": 5600,
      "Ġreligious": 5601,
      "Ġlon": 5602,
      "acement": 5603,
      "Ġdat": 5604,
      "ĠMel": 5605,
      "icians": 5606,
      "ĠRev": 5607,
      "ĠCle": 5608,
      "host": 5609,
      "ĠJose": 5610,
      "ĠNor": 5611,
      "CT": 5612,
      "Ġsmiles": 5613,
      "stances": 5614,
      "Ġempt": 5615,
      "ĠHen": 5616,
      "hicles": 5617,
      "Ġselection": 5618,
      "Ġhearing": 5619,
      "athe": 5620,
      "Ġstring": 5621,
      "Ġobs": 5622,
      "Ġclinical": 5623,
      "Ġconcerns": 5624,
      "Ġoccup": 5625,
      "Ġguarant": 5626,
      "ĠVict": 5627,
      "Ġtough": 5628,
      "ĠSpecial": 5629,
      "otic": 5630,
      "66": 5631,
      "ancer": 5632,
      "ĠCentre": 5633,
      "ias": 5634,
      "LA": 5635,
      "Ġlaughing": 5636,
      "Ġlabor": 5637,
      "Ġexecutive": 5638,
      "Ġlucky": 5639,
      "Ġgather": 5640,
      "Ġdocuments": 5641,
      "Ġnoted": 5642,
      "Ġguy": 5643,
      "ĠChief": 5644,
      "41": 5645,
      "Ġjar": 5646,
      "Ġbeat": 5647,
      "ulty": 5648,
      "Ġcommitted": 5649,
      "Ġcra": 5650,
      "Ġcute": 5651,
      "02": 5652,
      "gly": 5653,
      "Ġdrum": 5654,
      "ga": 5655,
      "Ġcop": 5656,
      "Ġinjury": 5657,
      "iano": 5658,
      "Ġsail": 5659,
      "point": 5660,
      "Ġdiscovered": 5661,
      "Ġdiscussion": 5662,
      "Ġwearing": 5663,
      "Ġfreedom": 5664,
      "ĠTown": 5665,
      "awn": 5666,
      "uable": 5667,
      "imi": 5668,
      "ĠDog": 5669,
      "Ġbone": 5670,
      "ĠLand": 5671,
      "Some": 5672,
      "Ġexercise": 5673,
      "Ġsport": 5674,
      "ita": 5675,
      "etic": 5676,
      "no": 5677,
      "Ġutil": 5678,
      "Pre": 5679,
      "Ġestate": 5680,
      "Ġexplain": 5681,
      "ĠÂ»": 5682,
      "inating": 5683,
      "ores": 5684,
      "Ġfavour": 5685,
      "ĠIts": 5686,
      "Ġchanging": 5687,
      "Ġlandsc": 5688,
      "Ġ45": 5689,
      "idential": 5690,
      "ĠAtl": 5691,
      "Ġfol": 5692,
      "ework": 5693,
      "Ġfairy": 5694,
      "Ġwire": 5695,
      "ĠLear": 5696,
      "Ġadvance": 5697,
      "Ġspending": 5698,
      "Ġguitar": 5699,
      "ĠLibr": 5700,
      "Ġadm": 5701,
      "ario": 5702,
      "Ġstrugg": 5703,
      "Ġpud": 5704,
      "Ġtransform": 5705,
      "Ġarticles": 5706,
      "Ġlovely": 5707,
      "ĠLead": 5708,
      "Ġraise": 5709,
      "ĠNY": 5710,
      "ilding": 5711,
      "Ġhandle": 5712,
      "ala": 5713,
      "Ġdestroy": 5714,
      "cell": 5715,
      "ĠCup": 5716,
      "Ġputting": 5717,
      "ĠTeam": 5718,
      "Ġwings": 5719,
      "rad": 5720,
      "Ġedge": 5721,
      "Ġhoped": 5722,
      "Ġmixed": 5723,
      "Ġissued": 5724,
      "ĠDuring": 5725,
      "Ġchief": 5726,
      "uration": 5727,
      "ĠLeg": 5728,
      "Ġguys": 5729,
      "Ġkiss": 5730,
      "Ġtheory": 5731,
      "Ġboss": 5732,
      "Ġpair": 5733,
      "ĠRights": 5734,
      "Ġlaunched": 5735,
      "ogue": 5736,
      "ĠEp": 5737,
      "Americ": 5738,
      "Ġroof": 5739,
      "Ġinterests": 5740,
      "Ġsupported": 5741,
      "ateful": 5742,
      "Ġexperts": 5743,
      "Ġrecorded": 5744,
      "Ġcandy": 5745,
      "andemic": 5746,
      "Ġepisode": 5747,
      "Ġknowing": 5748,
      "ĠLila": 5749,
      "ype": 5750,
      "Ġstood": 5751,
      "eration": 5752,
      "ixt": 5753,
      "ENT": 5754,
      "lig": 5755,
      "Ġprocesses": 5756,
      "Ġbedroom": 5757,
      "ĠValley": 5758,
      "Ġhouses": 5759,
      "Ġpil": 5760,
      "Ġsitu": 5761,
      "lder": 5762,
      "Ġcabin": 5763,
      "ĠExp": 5764,
      "Ġnearby": 5765,
      "Ġremove": 5766,
      "2019": 5767,
      "ĠLong": 5768,
      "ĠDen": 5769,
      "Ġstated": 5770,
      "inations": 5771,
      "Ġapart": 5772,
      "ĠAccording": 5773,
      "Ġadapt": 5774,
      "aked": 5775,
      "Ġwine": 5776,
      "ĠSk": 5777,
      "OM": 5778,
      "ĠLouis": 5779,
      "Ġton": 5780,
      "Ġholiday": 5781,
      "Ġbathroom": 5782,
      "OW": 5783,
      "Amy": 5784,
      "Ġmostly": 5785,
      "Ġmissing": 5786,
      "Ġsuddenly": 5787,
      "respond": 5788,
      "ĠJohnson": 5789,
      "IF": 5790,
      "Ġreference": 5791,
      "kes": 5792,
      "Ġscr": 5793,
      "ĠAff": 5794,
      "arks": 5795,
      "SP": 5796,
      "Ġadding": 5797,
      "Ġdefend": 5798,
      "Ġnotes": 5799,
      "ĠAsia": 5800,
      "Ġtemperature": 5801,
      "Ġmovies": 5802,
      "Ġacademic": 5803,
      "Posted": 5804,
      "Ġloves": 5805,
      "ĠFood": 5806,
      "Ġwilling": 5807,
      "Ġtun": 5808,
      "aws": 5809,
      "Ġunits": 5810,
      "Ġapplied": 5811,
      "FL": 5812,
      "ĠMike": 5813,
      "Ġcontains": 5814,
      "ĠFederal": 5815,
      "gery": 5816,
      "ĠAmazon": 5817,
      "Ġintroduced": 5818,
      "ideo": 5819,
      "Ġsession": 5820,
      "enance": 5821,
      "Ġris": 5822,
      "Ġcrime": 5823,
      "Ġholds": 5824,
      "Ġproperties": 5825,
      "Ġunderst": 5826,
      "Ġhyd": 5827,
      "Ġinvestigation": 5828,
      "Ġ2003": 5829,
      "Ġburn": 5830,
      "ĠOrgan": 5831,
      "achel": 5832,
      "Ġrevealed": 5833,
      "Ġquant": 5834,
      "ĠLab": 5835,
      "fast": 5836,
      "Ġalternative": 5837,
      "poses": 5838,
      "Ġconsequ": 5839,
      "ĠFinally": 5840,
      "Ġclassic": 5841,
      "road": 5842,
      "ĠMartin": 5843,
      "85": 5844,
      "isted": 5845,
      "Ġefficient": 5846,
      "nam": 5847,
      "Ġmulti": 5848,
      "Ġjoint": 5849,
      "Ġcorporate": 5850,
      "Ġreviews": 5851,
      "ĠEnter": 5852,
      "Ġchain": 5853,
      "ĠGen": 5854,
      "Ġemergency": 5855,
      "Ġrelationships": 5856,
      "roid": 5857,
      "Ġsurvey": 5858,
      "Ġadvanced": 5859,
      "related": 5860,
      "Ġfacility": 5861,
      "Ġshapes": 5862,
      "ĠAustralian": 5863,
      "Me": 5864,
      "Ġannounce": 5865,
      "Ġidentified": 5866,
      "ĠConn": 5867,
      "amin": 5868,
      "eated": 5869,
      "Ġtreasure": 5870,
      "Ġjuice": 5871,
      "Ġconnected": 5872,
      "pret": 5873,
      "Ġbell": 5874,
      "Ġcolle": 5875,
      "ĠLook": 5876,
      "Ġhousing": 5877,
      "Ġcoat": 5878,
      "oles": 5879,
      "ĠHy": 5880,
      "osen": 5881,
      "ua": 5882,
      "Ġdoubt": 5883,
      "Ġcrab": 5884,
      "ĠPub": 5885,
      "ĠAbout": 5886,
      "olar": 5887,
      "PR": 5888,
      "how": 5889,
      "Ġteachers": 5890,
      "Ġwore": 5891,
      "acter": 5892,
      "Ġresponsibility": 5893,
      "Ġdynam": 5894,
      "Ġjew": 5895,
      "ĠTommy": 5896,
      "Ġsugar": 5897,
      "viously": 5898,
      "ĠAND": 5899,
      "Ġswitch": 5900,
      "ĠMur": 5901,
      "ship": 5902,
      "Ġvolunte": 5903,
      "ĠMot": 5904,
      "oration": 5905,
      "ompl": 5906,
      "Ġshares": 5907,
      "Finally": 5908,
      "Ġdefense": 5909,
      "ĠOnce": 5910,
      "ĠEnergy": 5911,
      "allery": 5912,
      "gers": 5913,
      "Are": 5914,
      "irmed": 5915,
      "Ġpin": 5916,
      "Ġec": 5917,
      "alled": 5918,
      "Ġarrang": 5919,
      "SE": 5920,
      "Ġnegative": 5921,
      "Ġhistorical": 5922,
      "ns": 5923,
      "rav": 5924,
      "ocolate": 5925,
      "Ġscre": 5926,
      "Jack": 5927,
      "ĠIll": 5928,
      "ĠFire": 5929,
      "Ġmedicine": 5930,
      "Ġfailed": 5931,
      "unning": 5932,
      "ĠThanks": 5933,
      "Ġlibrary": 5934,
      "Ġjustice": 5935,
      "CE": 5936,
      "ĠAdministr": 5937,
      "osy": 5938,
      "Ġempty": 5939,
      "raid": 5940,
      "Ġrail": 5941,
      "Ġuns": 5942,
      "uthors": 5943,
      "Ġwhist": 5944,
      "Ġbeauty": 5945,
      "Ġexchange": 5946,
      "Ġcoverage": 5947,
      "Ġcraft": 5948,
      "ivered": 5949,
      "Ġvehicles": 5950,
      "Ġsnake": 5951,
      "ĠID": 5952,
      "igital": 5953,
      "Ġlonely": 5954,
      "phas": 5955,
      "craft": 5956,
      "emon": 5957,
      "Ġapproximately": 5958,
      "Ġfarmer": 5959,
      "Ġdistribution": 5960,
      "ĠOper": 5961,
      "ĠBow": 5962,
      "Ġhun": 5963,
      "Ġboys": 5964,
      "lection": 5965,
      "ĠIndust": 5966,
      "ĠInstead": 5967,
      "Ġsets": 5968,
      "Where": 5969,
      "Ġvisual": 5970,
      "Ġcompetitive": 5971,
      "ĠCorpor": 5972,
      "osop": 5973,
      "flow": 5974,
      "Ġvent": 5975,
      "ifying": 5976,
      "ĠWeek": 5977,
      "Ġorganized": 5978,
      "Go": 5979,
      "Ġblanket": 5980,
      "Ġsaved": 5981,
      "Am": 5982,
      "Mr": 5983,
      "espite": 5984,
      "Ġapples": 5985,
      "Ġbuildings": 5986,
      "prise": 5987,
      "ĠSaf": 5988,
      "ĠBo": 5989,
      "Next": 5990,
      "Ġeditor": 5991,
      "Ġwheel": 5992,
      "Ġhappening": 5993,
      "free": 5994,
      "Ġimpressive": 5995,
      "Ġvalid": 5996,
      "Ġveter": 5997,
      "Ġjudge": 5998,
      "Ġleads": 5999,
      "Ġdish": 6000,
      "aks": 6001,
      "ĠFestival": 6002,
      "Ġpointed": 6003,
      "Ġcombination": 6004,
      "ception": 6005,
      "Ġclasses": 6006,
      "Ġbound": 6007,
      "Ġiron": 6008,
      "edy": 6009,
      "MA": 6010,
      "fol": 6011,
      "ĠWall": 6012,
      "Ġpuzz": 6013,
      "Ġlisted": 6014,
      "kr": 6015,
      "Ġassum": 6016,
      "Ġpackage": 6017,
      "utional": 6018,
      "According": 6019,
      "know": 6020,
      "Ġcriminal": 6021,
      "See": 6022,
      "ĠMexico": 6023,
      "ighter": 6024,
      "inding": 6025,
      "ĠCath": 6026,
      "ounce": 6027,
      "Ġplenty": 6028,
      "Ġcoast": 6029,
      "uous": 6030,
      "Ġnine": 6031,
      "rible": 6032,
      "urther": 6033,
      "Ġmuseum": 6034,
      "ĠPolice": 6035,
      "paper": 6036,
      "Ġideal": 6037,
      "Ġpocket": 6038,
      "gl": 6039,
      "Ġwitness": 6040,
      "Fr": 6041,
      "door": 6042,
      "Im": 6043,
      "ĠHospital": 6044,
      "ĠIre": 6045,
      "ĠDi": 6046,
      "Â®": 6047,
      "Ġdecre": 6048,
      "Ġbridge": 6049,
      "Ġpurposes": 6050,
      "rier": 6051,
      "Ġrooms": 6052,
      "Ġminute": 6053,
      "ĠVis": 6054,
      "OP": 6055,
      "col": 6056,
      "Ġforced": 6057,
      "Ġforth": 6058,
      "Ġscientific": 6059,
      "Ġtomorrow": 6060,
      "Well": 6061,
      "ĠParis": 6062,
      "ĠStand": 6063,
      "Ġmut": 6064,
      "ĠCanadian": 6065,
      "Ġunivers": 6066,
      "Ġmarriage": 6067,
      "Ġshining": 6068,
      "Pr": 6069,
      "Ġadvoc": 6070,
      "Ġlegs": 6071,
      "asp": 6072,
      "Ġmoon": 6073,
      "icate": 6074,
      "Ġpolitics": 6075,
      "ĠJustice": 6076,
      "Ġhiding": 6077,
      "ommod": 6078,
      "Ġgrown": 6079,
      "Ġnor": 6080,
      "Ġblow": 6081,
      "Ġframe": 6082,
      "Ġfourth": 6083,
      "Ġfort": 6084,
      "Ġupset": 6085,
      "Get": 6086,
      "ĠYes": 6087,
      "Ġbringing": 6088,
      "ĠCharl": 6089,
      "upp": 6090,
      "Ġflu": 6091,
      "Ġdim": 6092,
      "Ġeleph": 6093,
      "Ġdebt": 6094,
      "ml": 6095,
      "----": 6096,
      "iamond": 6097,
      "Ġrepair": 6098,
      "Ġmountain": 6099,
      "Ġinstitutions": 6100,
      "Ġputs": 6101,
      "Ġvideos": 6102,
      "Ġspark": 6103,
      "Ġfif": 6104,
      "Ġapproved": 6105,
      "iament": 6106,
      "Ġrapid": 6107,
      "Ġbrow": 6108,
      "ĠWhe": 6109,
      "Ġupdate": 6110,
      "andom": 6111,
      "Ġcentre": 6112,
      "ĠJeff": 6113,
      "Ġ500": 6114,
      "Ġdragon": 6115,
      "eb": 6116,
      "ĠWindows": 6117,
      "Ġspeech": 6118,
      "Ġinternal": 6119,
      "Ġrub": 6120,
      "Ġfence": 6121,
      "anish": 6122,
      "Ġsuc": 6123,
      "eck": 6124,
      "aren": 6125,
      "ĠPriv": 6126,
      "However": 6127,
      "rive": 6128,
      "Ġsupporting": 6129,
      "hus": 6130,
      "ĠAcademy": 6131,
      "Ġplanet": 6132,
      "oston": 6133,
      "Ġgrab": 6134,
      "Ġselling": 6135,
      "ternal": 6136,
      "Ġtouched": 6137,
      "Ġhoney": 6138,
      "cher": 6139,
      "ĠRoyal": 6140,
      "Ġsubs": 6141,
      "Ġevalu": 6142,
      "Ġlinks": 6143,
      "Ġanx": 6144,
      "eah": 6145,
      "ĠNetwork": 6146,
      "ĠChris": 6147,
      "Ð¸": 6148,
      "Ġrobot": 6149,
      "Ġliber": 6150,
      "Ġsubsc": 6151,
      "ĠTri": 6152,
      "Ġsymbol": 6153,
      "EW": 6154,
      "Ġ2023": 6155,
      "oted": 6156,
      "Ġ2002": 6157,
      "alian": 6158,
      "ĠJapanese": 6159,
      "Ġfrag": 6160,
      "Ġlad": 6161,
      "Ġallowing": 6162,
      "ĠTour": 6163,
      "Ġdie": 6164,
      "Ġidentity": 6165,
      "ĠVirginia": 6166,
      "ĠJones": 6167,
      "Ġelement": 6168,
      "Ġmanner": 6169,
      "Ġmort": 6170,
      "Ġdemocr": 6171,
      "Ġauthority": 6172,
      "ishing": 6173,
      "Ġgrandma": 6174,
      "Ġpoly": 6175,
      "Ġwedding": 6176,
      "Ġlicense": 6177,
      "ĠCome": 6178,
      "Ġinfrastructure": 6179,
      "Who": 6180,
      "Ġtasty": 6181,
      "Ġunless": 6182,
      "Ġpp": 6183,
      "Ġment": 6184,
      "ĠReal": 6185,
      "Ġregul": 6186,
      "Mar": 6187,
      "ĠId": 6188,
      "ĠWay": 6189,
      "ĠRichard": 6190,
      "Ġcritic": 6191,
      "Ġthoughts": 6192,
      "Ġmole": 6193,
      "aped": 6194,
      "ĠPo": 6195,
      "Ġsteel": 6196,
      "isters": 6197,
      "ĠLim": 6198,
      "ĠSqu": 6199,
      "Ġcrowd": 6200,
      "ĠWhere": 6201,
      "Ġtelling": 6202,
      "Ġ*": 6203,
      "Ġcoal": 6204,
      "Ġexpression": 6205,
      "Ġextensive": 6206,
      "Ġvolume": 6207,
      "86": 6208,
      "Ġsupposed": 6209,
      "Ġtie": 6210,
      "ups": 6211,
      "ĠMcC": 6212,
      "ĠOld": 6213,
      "char": 6214,
      "Ġofficers": 6215,
      "Ġped": 6216,
      "ĠBack": 6217,
      "tain": 6218,
      "ĠCard": 6219,
      "ĠCA": 6220,
      "while": 6221,
      "ĠLittle": 6222,
      "Ġapparent": 6223,
      "Ġbond": 6224,
      "ĠGame": 6225,
      "Ġaspects": 6226,
      "illiant": 6227,
      "ĠKim": 6228,
      "ĠConference": 6229,
      "Ġregistered": 6230,
      "Your": 6231,
      "Ġce": 6232,
      "Ġconstruct": 6233,
      "Ġsympt": 6234,
      "Ġnuclear": 6235,
      "Ġparticipants": 6236,
      "Ġfollows": 6237,
      "hew": 6238,
      "Ġfiles": 6239,
      "ĠPac": 6240,
      "prene": 6241,
      "elines": 6242,
      "Ġtechnologies": 6243,
      "Ġsignificantly": 6244,
      "ĠPan": 6245,
      "oral": 6246,
      "¿½": 6247,
      "noon": 6248,
      "Ġthin": 6249,
      "igure": 6250,
      "ĠBoth": 6251,
      "Ġteeth": 6252,
      "Ġ2001": 6253,
      "Ġadults": 6254,
      "Ġflight": 6255,
      "Ġ<": 6256,
      "Ġfailure": 6257,
      "ĠMa": 6258,
      "Ġgrateful": 6259,
      "asks": 6260,
      "Ġcombined": 6261,
      "59": 6262,
      "itable": 6263,
      "ĠAL": 6264,
      "which": 6265,
      "Ġdiet": 6266,
      "rehensive": 6267,
      "ï¿½": 6268,
      "Ġassistance": 6269,
      "Ġfamiliar": 6270,
      ".;": 6271,
      "Ġaffected": 6272,
      "ani": 6273,
      "Ġdisappoint": 6274,
      "Tw": 6275,
      "ĠAuthor": 6276,
      "Ġdrove": 6277,
      "Ġaccompl": 6278,
      "ĠMiddle": 6279,
      "olit": 6280,
      "reprene": 6281,
      "ĠJewish": 6282,
      "Ġmatters": 6283,
      "ĠGeorg": 6284,
      "Ġserving": 6285,
      "76": 6286,
      "ĠSenate": 6287,
      "SS": 6288,
      "ĠMaster": 6289,
      "2018": 6290,
      "ĠLast": 6291,
      "ĠEmma": 6292,
      "TA": 6293,
      "ĠÎ": 6294,
      "Ġguard": 6295,
      "Ġpainting": 6296,
      "Ġafraid": 6297,
      "Ġdrawing": 6298,
      "zen": 6299,
      "Ġcarbon": 6300,
      "Ġoptim": 6301,
      "iveness": 6302,
      "lets": 6303,
      "Ġcommitment": 6304,
      "Ġpandemic": 6305,
      "ĠHead": 6306,
      "Ġspecifically": 6307,
      "ĠLibrary": 6308,
      "Ġvisitors": 6309,
      "Ġdepart": 6310,
      "Ġunderstood": 6311,
      "Ġmagical": 6312,
      "Ġnarr": 6313,
      "Ġreb": 6314,
      "Ġindustrial": 6315,
      "Ġspoke": 6316,
      "Ġbush": 6317,
      "Ġdesk": 6318,
      "itage": 6319,
      "Ġminimum": 6320,
      "Ġshr": 6321,
      "Ġplanned": 6322,
      "ĠDev": 6323,
      "ĠĠĠĠĠĠĠĠ": 6324,
      "idering": 6325,
      "Ġpanel": 6326,
      "Ġconducted": 6327,
      "Ġprocessing": 6328,
      "luding": 6329,
      "Qu": 6330,
      "Ġintended": 6331,
      "Ġrot": 6332,
      "Ġprofessionals": 6333,
      "ilit": 6334,
      "Ġdiss": 6335,
      "ĠIreland": 6336,
      "Ġbarked": 6337,
      "ĠColor": 6338,
      "appy": 6339,
      "Ġtechniques": 6340,
      "ĠBoy": 6341,
      "Ġdelight": 6342,
      "iration": 6343,
      "Res": 6344,
      "ĠTH": 6345,
      "hop": 6346,
      "Ġfactor": 6347,
      "Ġrevenue": 6348,
      "Ġschedule": 6349,
      "oons": 6350,
      "Ġcommittee": 6351,
      "Ġcave": 6352,
      "Ġunknown": 6353,
      "Ġentertain": 6354,
      "ĠGal": 6355,
      "Ġreliable": 6356,
      "Ġlabel": 6357,
      "56": 6358,
      "Ġpromote": 6359,
      "DF": 6360,
      "ĠExper": 6361,
      "Ġcharges": 6362,
      "Ġwagged": 6363,
      "Ġconversation": 6364,
      "Ġending": 6365,
      "rick": 6366,
      "Ġnic": 6367,
      "ĠHaw": 6368,
      "ĠRE": 6369,
      "Ġbattery": 6370,
      "ĠLisa": 6371,
      "Ġimagine": 6372,
      "Ġbelieved": 6373,
      "obe": 6374,
      "Ġsigns": 6375,
      "Ġreaders": 6376,
      "Ġchemical": 6377,
      "ĠYoung": 6378,
      "wich": 6379,
      "Ġdirt": 6380,
      "Ġdial": 6381,
      "Ġ36": 6382,
      "Ġabsolutely": 6383,
      "Ġsne": 6384,
      "Ġath": 6385,
      "Ġperspective": 6386,
      "Ġballs": 6387,
      "Ġcoord": 6388,
      "ĠTrust": 6389,
      "essions": 6390,
      "ĠOnline": 6391,
      "rees": 6392,
      "istration": 6393,
      "Ġcarr": 6394,
      "top": 6395,
      "mosp": 6396,
      "ĠLight": 6397,
      "Ġwalls": 6398,
      "Ġseeking": 6399,
      "lymp": 6400,
      "td": 6401,
      "MP": 6402,
      "Ġconcerned": 6403,
      "ĠChair": 6404,
      "ĠBeach": 6405,
      "ĠLo": 6406,
      "Ġdelivered": 6407,
      "xy": 6408,
      "rical": 6409,
      "raq": 6410,
      "Ġremoved": 6411,
      "Ġvaluable": 6412,
      "OC": 6413,
      "ĠSecond": 6414,
      "HS": 6415,
      "Ġbelief": 6416,
      "ĠSup": 6417,
      "ĠSports": 6418,
      "irms": 6419,
      "ifts": 6420,
      "terday": 6421,
      "west": 6422,
      "print": 6423,
      "ĠSecretary": 6424,
      "oses": 6425,
      "Ġnegot": 6426,
      "Ġaccepted": 6427,
      "Ġflav": 6428,
      "Ġresearchers": 6429,
      "ographic": 6430,
      "ossible": 6431,
      "Ġtheme": 6432,
      "ĠPolit": 6433,
      "ĠJun": 6434,
      "apping": 6435,
      "Ġhighlight": 6436,
      "Man": 6437,
      "ĠChampions": 6438,
      "lusion": 6439,
      "Ġspons": 6440,
      "Ġlocations": 6441,
      "astern": 6442,
      "ĠMedicine": 6443,
      "Ġitem": 6444,
      "ĠSus": 6445,
      "Ġsty": 6446,
      "Ġrose": 6447,
      "Ġloan": 6448,
      "gent": 6449,
      "Ġincorpor": 6450,
      "forcement": 6451,
      "Ġunus": 6452,
      "Ġtransl": 6453,
      "En": 6454,
      "Ġauthorities": 6455,
      "Ġgreatest": 6456,
      "Ġreduced": 6457,
      "ĠStudies": 6458,
      "Ġplastic": 6459,
      "ĠJon": 6460,
      "Ġwoke": 6461,
      "Ġaccommod": 6462,
      "Ġsam": 6463,
      "Ġcelebrate": 6464,
      "Ġmel": 6465,
      "Ġmedium": 6466,
      "Ġsuggested": 6467,
      "rell": 6468,
      "Ġdollars": 6469,
      "Ġrenew": 6470,
      "Ġmaximum": 6471,
      "mes": 6472,
      "Ġdiscl": 6473,
      "Ġprepare": 6474,
      "Ġcommission": 6475,
      "89": 6476,
      "Ġfurniture": 6477,
      "mond": 6478,
      "comes": 6479,
      "Ġmagazine": 6480,
      "Ġcolour": 6481,
      "Ġgray": 6482,
      "ĠCharles": 6483,
      "ĠCast": 6484,
      "uggle": 6485,
      "Ġworse": 6486,
      "Ġreform": 6487,
      "Ġregional": 6488,
      "Ġflag": 6489,
      "Ġyog": 6490,
      "Ġemphas": 6491,
      "Ġinspired": 6492,
      "Ġcreation": 6493,
      "Ġmusical": 6494,
      "Com": 6495,
      "Ġspok": 6496,
      "Ġinvited": 6497,
      "Ġsan": 6498,
      "Ġwash": 6499,
      "uts": 6500,
      "eep": 6501,
      "inem": 6502,
      "ĠUse": 6503,
      "Ġillustr": 6504,
      "ĠProv": 6505,
      "ogen": 6506,
      "Br": 6507,
      "Ġseed": 6508,
      "Ġeducational": 6509,
      "Ġcorrespond": 6510,
      "Ġfields": 6511,
      "ĠEr": 6512,
      "ĠView": 6513,
      "Ġlux": 6514,
      "atures": 6515,
      "ĠCarolina": 6516,
      "Ġencourage": 6517,
      "Ġsoul": 6518,
      "ĠVictor": 6519,
      "ĠProfessor": 6520,
      "sembly": 6521,
      "Ġ(\"": 6522,
      "orable": 6523,
      "ĠAud": 6524,
      "Ġanywhere": 6525,
      "Ġrope": 6526,
      "Ġsevere": 6527,
      "Ġslightly": 6528,
      "cious": 6529,
      "ician": 6530,
      "Ġtreated": 6531,
      "Ġmassive": 6532,
      "odcast": 6533,
      "ocation": 6534,
      "Ġadvis": 6535,
      "Ġdefined": 6536,
      "Ġdraft": 6537,
      "ĠTest": 6538,
      "ĠAdv": 6539,
      "Ġdelay": 6540,
      "Ġfiled": 6541,
      "ĠChildren": 6542,
      "ĠMat": 6543,
      "ĠExecutive": 6544,
      "Hey": 6545,
      "Ġshy": 6546,
      "ĠAT": 6547,
      "Ġingred": 6548,
      "Â°": 6549,
      "opping": 6550,
      "Ġchocolate": 6551,
      "Ġguests": 6552,
      "Ġshopping": 6553,
      "Ġentered": 6554,
      "Ġpile": 6555,
      "Ġconven": 6556,
      "Ġdu": 6557,
      "Ġbugs": 6558,
      "Ġmotiv": 6559,
      "antly": 6560,
      "Ġsides": 6561,
      "Ġcomplic": 6562,
      "SC": 6563,
      "encing": 6564,
      "Ġdrugs": 6565,
      "Ġsucceed": 6566,
      "Ġassets": 6567,
      "Ġflat": 6568,
      "ĠArmy": 6569,
      "Ġbegins": 6570,
      "ĠEnvironment": 6571,
      "79": 6572,
      "GB": 6573,
      "Ġattacks": 6574,
      "Ġmeal": 6575,
      "Ġglow": 6576,
      "Ġafternoon": 6577,
      "Ġtwins": 6578,
      "ĠCy": 6579,
      "Ġposts": 6580,
      "akistan": 6581,
      "Ġemployee": 6582,
      "Ġlights": 6583,
      "Ġdomestic": 6584,
      "Ġ32": 6585,
      "Ġhundreds": 6586,
      "Ġelev": 6587,
      "Ġrecognized": 6588,
      "Ġourselves": 6589,
      "Ġgoods": 6590,
      "Ġsolar": 6591,
      "Ġbrilliant": 6592,
      "hal": 6593,
      "Ġimproved": 6594,
      "orters": 6595,
      "ĠBas": 6596,
      "Ġsubstant": 6597,
      "acc": 6598,
      "orders": 6599,
      "stein": 6600,
      "Ġaccounts": 6601,
      ",'": 6602,
      "ĠWal": 6603,
      "water": 6604,
      "Ġcalm": 6605,
      "ingly": 6606,
      "Ġagencies": 6607,
      "First": 6608,
      "Ġtests": 6609,
      "Ġhall": 6610,
      "ultural": 6611,
      "ĠIP": 6612,
      "Ġsolve": 6613,
      "hand": 6614,
      "Ġswings": 6615,
      "Ġkill": 6616,
      "ĠMimi": 6617,
      "ingu": 6618,
      "ĠWild": 6619,
      "Ġdetailed": 6620,
      "otes": 6621,
      "Ġstrategies": 6622,
      "ora": 6623,
      "Ġinvestors": 6624,
      "Ġcorn": 6625,
      "Ġdoct": 6626,
      "Ġoven": 6627,
      "ĠEqu": 6628,
      "Ġenthus": 6629,
      "ĠOffic": 6630,
      "Ġcrazy": 6631,
      "ĠWilliams": 6632,
      "BI": 6633,
      "ĠMen": 6634,
      "adium": 6635,
      "ted": 6636,
      "Ġrecip": 6637,
      "Ġelim": 6638,
      "Ġshift": 6639,
      "Ġequal": 6640,
      "ĠAndrew": 6641,
      "Ġconfused": 6642,
      "ĠSpring": 6643,
      "alse": 6644,
      "Ġpuppy": 6645,
      "Ġcrew": 6646,
      "Ġaid": 6647,
      "Ġshook": 6648,
      "Ġvictory": 6649,
      "gypt": 6650,
      "Ġinstance": 6651,
      "writ": 6652,
      "Ġsour": 6653,
      "ĠAwards": 6654,
      "Ġmeat": 6655,
      "Ġmic": 6656,
      "Ġugly": 6657,
      "ache": 6658,
      "Ġtreats": 6659,
      "Ġtypically": 6660,
      "Ġpuddle": 6661,
      "Ġcoin": 6662,
      "DS": 6663,
      "Ġinvolve": 6664,
      "hetic": 6665,
      "Ġemployment": 6666,
      "ĠRoman": 6667,
      "ĠHor": 6668,
      "Ġswimming": 6669,
      "Ġcookie": 6670,
      "oured": 6671,
      "oh": 6672,
      "ĠItaly": 6673,
      "Rec": 6674,
      "icit": 6675,
      "Ġfake": 6676,
      "Ġteddy": 6677,
      "Ġresol": 6678,
      "then": 6679,
      "Ġtopic": 6680,
      "Ġfunctional": 6681,
      "Ġformed": 6682,
      "Ġmale": 6683,
      "Ġgrad": 6684,
      "rieved": 6685,
      "Ġhyp": 6686,
      "Ġcray": 6687,
      "Ġtradition": 6688,
      "Ġmotion": 6689,
      "Ġmechanism": 6690,
      "Ġdecade": 6691,
      "ĠSand": 6692,
      "urse": 6693,
      "Ġcircumstances": 6694,
      "Ġneighborhood": 6695,
      "Ġcloth": 6696,
      "ooked": 6697,
      "rm": 6698,
      "Ġfees": 6699,
      "Ġbat": 6700,
      "izza": 6701,
      "esome": 6702,
      "Ġtherapy": 6703,
      "ĠIraq": 6704,
      "Ġkite": 6705,
      "Ġdatab": 6706,
      "Ġcooper": 6707,
      "Ġnav": 6708,
      "Ġbuying": 6709,
      "Ġborder": 6710,
      "Ġfunctions": 6711,
      "arry": 6712,
      "ĠSometimes": 6713,
      "ensions": 6714,
      "Ġagent": 6715,
      "Ġedition": 6716,
      "About": 6717,
      "Ġfinds": 6718,
      "ĠHave": 6719,
      "ĠOlymp": 6720,
      "Ġconsumer": 6721,
      "sen": 6722,
      "Ġdrew": 6723,
      "Ġweird": 6724,
      "Ġconsumers": 6725,
      "ĠBoston": 6726,
      "Ġcleaning": 6727,
      "Ġworldwide": 6728,
      "Ġengineering": 6729,
      "Ġcandidate": 6730,
      "ployment": 6731,
      "Ġsack": 6732,
      "icket": 6733,
      "Ġbreath": 6734,
      "ĠScot": 6735,
      "Ġfee": 6736,
      "ĠColl": 6737,
      "Mommy": 6738,
      "Ġcategory": 6739,
      "Ġinterpret": 6740,
      "ansas": 6741,
      "andon": 6742,
      "Ġconfirmed": 6743,
      "aughty": 6744,
      "Ġsac": 6745,
      "ĠMake": 6746,
      "ective": 6747,
      "rum": 6748,
      "Ġowned": 6749,
      "ownt": 6750,
      "Ġliqu": 6751,
      "ĠProduct": 6752,
      "Ġfruits": 6753,
      "UL": 6754,
      "Ġtow": 6755,
      "Ġconfidence": 6756,
      "Ġrid": 6757,
      "Ġstepped": 6758,
      "Ġcommand": 6759,
      "Ġdoors": 6760,
      "Ġcauses": 6761,
      "Ġenem": 6762,
      "Ġcourses": 6763,
      "ilty": 6764,
      "ĠGames": 6765,
      "AA": 6766,
      "ĠLin": 6767,
      "Ġvari": 6768,
      "Ġwing": 6769,
      "iana": 6770,
      "amber": 6771,
      "Ġjack": 6772,
      "heme": 6773,
      "Ġru": 6774,
      "Ġflood": 6775,
      "Ġescape": 6776,
      "Ġcandidates": 6777,
      "ĠMicrosoft": 6778,
      "rome": 6779,
      "Ġcompr": 6780,
      "Ġstores": 6781,
      "ollywood": 6782,
      "Ġash": 6783,
      "Ġpartnership": 6784,
      "Ġsatisf": 6785,
      "luded": 6786,
      "cript": 6787,
      "ĠPay": 6788,
      "Ġacknow": 6789,
      "Ġcomponents": 6790,
      "Ġperman": 6791,
      "ĠTem": 6792,
      "Ġrisks": 6793,
      "Ġille": 6794,
      "Ġkinds": 6795,
      "Ġmoments": 6796,
      "Ġlanded": 6797,
      "outs": 6798,
      "Ġrow": 6799,
      "Int": 6800,
      "Ġgender": 6801,
      "Will": 6802,
      "Ġchicken": 6803,
      "aylor": 6804,
      "Ġwinner": 6805,
      "Ġspray": 6806,
      "arf": 6807,
      "Ġpic": 6808,
      "och": 6809,
      "anche": 6810,
      "stitution": 6811,
      "Ġmonkey": 6812,
      "Ġupdated": 6813,
      "Ġnone": 6814,
      "arrow": 6815,
      "ĠPenn": 6816,
      "Ġconcert": 6817,
      "ĠWatch": 6818,
      "Ġassessment": 6819,
      "Ġresc": 6820,
      "Ġprotein": 6821,
      "Ġflexible": 6822,
      "Ġpossibly": 6823,
      "zer": 6824,
      "ĠFilm": 6825,
      "Ġmaintenance": 6826,
      "greg": 6827,
      "Ġexamples": 6828,
      "arming": 6829,
      "rete": 6830,
      "ĠPerson": 6831,
      "Up": 6832,
      "Ġspeaking": 6833,
      "Ġinnovative": 6834,
      "ĠNext": 6835,
      "Ġven": 6836,
      "ulner": 6837,
      "rawn": 6838,
      "Ġadult": 6839,
      "Rep": 6840,
      "anges": 6841,
      "Ġdifferences": 6842,
      "stal": 6843,
      "leep": 6844,
      "Ġexpans": 6845,
      "57": 6846,
      "berry": 6847,
      "Ġrelatively": 6848,
      "aints": 6849,
      "Ġabuse": 6850,
      "Ġcharged": 6851,
      "ĠList": 6852,
      "Ġfigures": 6853,
      "Ġwest": 6854,
      "Ã³": 6855,
      "Ġsav": 6856,
      "Ġappearance": 6857,
      "igen": 6858,
      "word": 6859,
      "ĠUkr": 6860,
      "Ġdistinct": 6861,
      "Ġletters": 6862,
      "Ġsnack": 6863,
      "Ġresource": 6864,
      "Ġdiverse": 6865,
      "Ġatmosp": 6866,
      "Ġchart": 6867,
      "tle": 6868,
      "ĠDC": 6869,
      "alysis": 6870,
      "Ġstir": 6871,
      "Ġphase": 6872,
      "Ġshooting": 6873,
      "ĠFox": 6874,
      "Ġturt": 6875,
      "Ġsurf": 6876,
      "Ġformat": 6877,
      "osc": 6878,
      "Ġocean": 6879,
      "cohol": 6880,
      "ĠNight": 6881,
      "Ġfestival": 6882,
      "asters": 6883,
      "ribe": 6884,
      "isp": 6885,
      "Ġends": 6886,
      "Ġlistening": 6887,
      "58": 6888,
      "Ġadventures": 6889,
      "aze": 6890,
      "Ġreceiving": 6891,
      "Ġpositions": 6892,
      "Ġobtained": 6893,
      "ÃŃ": 6894,
      "Ġalleged": 6895,
      "Ġstudio": 6896,
      "ĠÂ·": 6897,
      "Ġrecommended": 6898,
      "Ġnaughty": 6899,
      "ÑĤ": 6900,
      "ĠCatholic": 6901,
      "erg": 6902,
      "ĠColumb": 6903,
      "Ġspr": 6904,
      "iki": 6905,
      "2020": 6906,
      "Ġthread": 6907,
      "ĠFrancisco": 6908,
      "Ġtries": 6909,
      "mary": 6910,
      "Ġtrick": 6911,
      "ĠSpanish": 6912,
      "ifications": 6913,
      "ĠVan": 6914,
      "va": 6915,
      "Ġshirt": 6916,
      "Ġunusual": 6917,
      "Ġauthors": 6918,
      "bal": 6919,
      "can": 6920,
      "idy": 6921,
      "ãĥ": 6922,
      "ĠMic": 6923,
      "ĠCall": 6924,
      "ulf": 6925,
      "ĠRose": 6926,
      "Ġentirely": 6927,
      "Ġongoing": 6928,
      "iskers": 6929,
      "Ġhousehold": 6930,
      "Ġdebate": 6931,
      "ĠAri": 6932,
      "ĠDaniel": 6933,
      "Ġshelf": 6934,
      "iments": 6935,
      "69": 6936,
      "Ġscholars": 6937,
      "Ġairport": 6938,
      "Se": 6939,
      "Ġspo": 6940,
      "merce": 6941,
      "add": 6942,
      "osophy": 6943,
      "razil": 6944,
      "2017": 6945,
      "Ġelephant": 6946,
      "eller": 6947,
      "Ġpredict": 6948,
      "Ġcircle": 6949,
      "Ġenhance": 6950,
      "Ġreporting": 6951,
      "Ġmal": 6952,
      "Ġdesire": 6953,
      "Ġcomprehensive": 6954,
      "Ġ300": 6955,
      "Ġremaining": 6956,
      "Ġinnovation": 6957,
      "Ġcraw": 6958,
      "ĠLive": 6959,
      "Ġload": 6960,
      "Ġinn": 6961,
      "Ġmenu": 6962,
      "Ġreject": 6963,
      "athan": 6964,
      "Ġtalent": 6965,
      "Ġtank": 6966,
      "Ġpapers": 6967,
      "OD": 6968,
      "raud": 6969,
      "ĠLtd": 6970,
      "Ġtips": 6971,
      "yers": 6972,
      "ĠPhys": 6973,
      "Ġresolution": 6974,
      "RC": 6975,
      "Ġ1990": 6976,
      "ĠOnly": 6977,
      "Ġcollected": 6978,
      "Ġham": 6979,
      "Ġclosely": 6980,
      "Last": 6981,
      "ĠPhot": 6982,
      "ibilities": 6983,
      "Ġsymptoms": 6984,
      "Ġrainbow": 6985,
      "Ġprotected": 6986,
      "Ġcontrast": 6987,
      "Ġregulations": 6988,
      "ĠBritain": 6989,
      "case": 6990,
      "assed": 6991,
      "ãĤ": 6992,
      "ĠSupreme": 6993,
      "EE": 6994,
      "Ġwindows": 6995,
      "Ñģ": 6996,
      "endar": 6997,
      "ĠItalian": 6998,
      "Ġupgr": 6999,
      "Ġprincess": 7000,
      "Ġstretch": 7001,
      "ĠThrough": 7002,
      "Ġlegislation": 7003,
      "Ġelder": 7004,
      "Ġexploring": 7005,
      "Ġproperly": 7006,
      "py": 7007,
      "Ġelectronic": 7008,
      "Ġacid": 7009,
      "Ġmonit": 7010,
      "Ġemotional": 7011,
      "uting": 7012,
      "Ġzoom": 7013,
      "Ġcheered": 7014,
      "Ġicon": 7015,
      "Ġgig": 7016,
      "amework": 7017,
      "Ġrank": 7018,
      "Ġprofile": 7019,
      "ĠBird": 7020,
      "Ġfinger": 7021,
      "assion": 7022,
      "Ġdiscussed": 7023,
      "Ġnerv": 7024,
      "Ġfeatured": 7025,
      "ĠRef": 7026,
      "ĠLiber": 7027,
      "Ġmere": 7028,
      "Ġclock": 7029,
      "Ġobserved": 7030,
      "ez": 7031,
      "ensity": 7032,
      "ĠSteve": 7033,
      "lishing": 7034,
      "Ġticket": 7035,
      "ĠPen": 7036,
      "Ġtransition": 7037,
      "ĠHon": 7038,
      "Ġfasc": 7039,
      "Ġrecovery": 7040,
      "Ġlandscape": 7041,
      "ĠEngineering": 7042,
      "cing": 7043,
      "Ġseconds": 7044,
      "Ġinput": 7045,
      "omin": 7046,
      "ĠZeal": 7047,
      "cles": 7048,
      "Ġphen": 7049,
      "ÑĢ": 7050,
      "Ġpractical": 7051,
      "Ġsight": 7052,
      "mun": 7053,
      "ects": 7054,
      "Ġstatements": 7055,
      "weet": 7056,
      "Ġcampus": 7057,
      "ĠMichigan": 7058,
      "rid": 7059,
      "ĠKingdom": 7060,
      "unction": 7061,
      "eler": 7062,
      "87": 7063,
      "Ġsheep": 7064,
      "Ġroute": 7065,
      "ĠHenry": 7066,
      "ĠSpace": 7067,
      "Ġmanufacturing": 7068,
      "Ġdram": 7069,
      "Ġpaying": 7070,
      "ĠTogether": 7071,
      "Ġprogramme": 7072,
      "ĠMov": 7073,
      "rig": 7074,
      "Ġamazed": 7075,
      "stream": 7076,
      "Ġchannel": 7077,
      "Ġmillions": 7078,
      "%)": 7079,
      "Ġbehavi": 7080,
      "ATION": 7081,
      "Ġreplace": 7082,
      "Ġdolls": 7083,
      "Ġsalt": 7084,
      "inton": 7085,
      "ye": 7086,
      "Ġwake": 7087,
      "Ġloyal": 7088,
      "Ġserves": 7089,
      "Ġclever": 7090,
      "ĠCode": 7091,
      "Ġrealize": 7092,
      "da": 7093,
      "Ġtwice": 7094,
      "abeth": 7095,
      "Ġtrop": 7096,
      "hent": 7097,
      "ĠWalk": 7098,
      "ĠFair": 7099,
      "ĠSouthern": 7100,
      "Ġcontemporary": 7101,
      "ĠDivision": 7102,
      "osite": 7103,
      "Ġstands": 7104,
      "Ġcounty": 7105,
      "Ġurban": 7106,
      "cend": 7107,
      "Ġhealthcare": 7108,
      "keep": 7109,
      "ogy": 7110,
      "Ġhang": 7111,
      "Ġoccasion": 7112,
      "2016": 7113,
      "ĠCoast": 7114,
      "umpy": 7115,
      "orough": 7116,
      "aching": 7117,
      "Ġearned": 7118,
      "Ġfacts": 7119,
      "ĠGovern": 7120,
      "uality": 7121,
      "otted": 7122,
      "ĠJoseph": 7123,
      "Over": 7124,
      "redit": 7125,
      "Ġsyn": 7126,
      "Ġparticipate": 7127,
      "ĠSciences": 7128,
      "ĠExt": 7129,
      "Ġnative": 7130,
      "ĠCheck": 7131,
      "Since": 7132,
      "Ġfellow": 7133,
      "Ġstruggle": 7134,
      "Ġreward": 7135,
      "Ġindeed": 7136,
      "ĠCarl": 7137,
      "bridge": 7138,
      "resents": 7139,
      "lights": 7140,
      "Ġtalks": 7141,
      "ĠRepublican": 7142,
      "AG": 7143,
      "Ġtent": 7144,
      "Ġintelligence": 7145,
      "Ġeffectively": 7146,
      "ĠForce": 7147,
      "Ð½": 7148,
      "ĠZealand": 7149,
      "ĠJackson": 7150,
      "Ġconsidering": 7151,
      "ĠSection": 7152,
      "iden": 7153,
      "ĠVer": 7154,
      "Ġodd": 7155,
      "Ġsubsequ": 7156,
      "American": 7157,
      "abled": 7158,
      "Ġsheet": 7159,
      "Ġmistake": 7160,
      "53": 7161,
      "ĠMP": 7162,
      "Ġpregn": 7163,
      "tw": 7164,
      "Ġborrow": 7165,
      "Ġmurder": 7166,
      "ĠAp": 7167,
      "Ġsoil": 7168,
      "worth": 7169,
      "Ġteen": 7170,
      "Ġcovers": 7171,
      "ĠPakistan": 7172,
      "Ġfrustr": 7173,
      "Ġwand": 7174,
      "Ġestimated": 7175,
      "Ġcollaboration": 7176,
      "Ã¼": 7177,
      "Ġsilver": 7178,
      "Ġalt": 7179,
      "Ġmirror": 7180,
      "Ġoriginally": 7181,
      "Ġsurrounding": 7182,
      "ĠCross": 7183,
      "ĠFed": 7184,
      "profit": 7185,
      "Ġenable": 7186,
      "Ġchosen": 7187,
      "Ġfacing": 7188,
      "ĠTit": 7189,
      "ĠCirc": 7190,
      "Pub": 7191,
      "ĠJerry": 7192,
      "oir": 7193,
      "ĠAD": 7194,
      "real": 7195,
      "Ġgolf": 7196,
      "ih": 7197,
      "Ġobtain": 7198,
      "TH": 7199,
      "Ġsample": 7200,
      "Ġhate": 7201,
      "ĠHarr": 7202,
      "64": 7203,
      "oster": 7204,
      "Ġexpertise": 7205,
      "Ġfantastic": 7206,
      "Ġserver": 7207,
      "holders": 7208,
      "urning": 7209,
      "Ġsole": 7210,
      "Ġtopics": 7211,
      "Ġdreams": 7212,
      "Ġremained": 7213,
      "aduate": 7214,
      "Ġrom": 7215,
      "Ġstronger": 7216,
      "Ġbanks": 7217,
      "ĠEgypt": 7218,
      "RI": 7219,
      "ĠBella": 7220,
      "Ġeggs": 7221,
      "acle": 7222,
      "Ġeast": 7223,
      "Ġorders": 7224,
      "ĠGirl": 7225,
      "Ġoutput": 7226,
      "Ġelig": 7227,
      "Ġincident": 7228,
      "Ġbrands": 7229,
      "inity": 7230,
      "Ġadvertising": 7231,
      "ĠDonald": 7232,
      "________": 7233,
      "Ġarts": 7234,
      "Ġwhistle": 7235,
      "ĠNiger": 7236,
      "Sure": 7237,
      "ĠCivil": 7238,
      "Ġdust": 7239,
      "54": 7240,
      "Ġmand": 7241,
      "Col": 7242,
      "Ġobvious": 7243,
      "Ġbucket": 7244,
      "uan": 7245,
      "Ġmode": 7246,
      "Ġbon": 7247,
      "Ġembarr": 7248,
      "Today": 7249,
      "Ġsignal": 7250,
      "Ġerror": 7251,
      "ĠGuide": 7252,
      "Ġterrit": 7253,
      "Ġspoon": 7254,
      "ĠPage": 7255,
      "Ġguilty": 7256,
      "ĠPacific": 7257,
      "Ġshake": 7258,
      "ĠCustom": 7259,
      "Ġportion": 7260,
      "ĠDigital": 7261,
      "ĠON": 7262,
      "Ġnurs": 7263,
      "Ġboost": 7264,
      "Ġprovider": 7265,
      "Ġtotally": 7266,
      "ĠDisc": 7267,
      "ruption": 7268,
      "Ġacting": 7269,
      "ulous": 7270,
      "67": 7271,
      "Ġcrown": 7272,
      "onav": 7273,
      "that": 7274,
      "Ġlie": 7275,
      "Ġsplit": 7276,
      "ĠLeo": 7277,
      "Ġtape": 7278,
      "Ġcrack": 7279,
      "ĠMill": 7280,
      "Ġspaces": 7281,
      "68": 7282,
      "Ġprize": 7283,
      "Ġextended": 7284,
      "Ġvulner": 7285,
      "ellect": 7286,
      "ĠThose": 7287,
      "Ġcable": 7288,
      "ĠAccess": 7289,
      "ĠJr": 7290,
      "erves": 7291,
      "Ġaudio": 7292,
      "lyn": 7293,
      "Ġcompens": 7294,
      "ĠDie": 7295,
      "Ġwaves": 7296,
      "Ġmelt": 7297,
      "Ġdirected": 7298,
      "Ġ1999": 7299,
      "ao": 7300,
      "stone": 7301,
      "ecution": 7302,
      "Ġtracks": 7303,
      "Ġturning": 7304,
      "ĠFinancial": 7305,
      "Ġtwist": 7306,
      "Ġroles": 7307,
      "Ġchest": 7308,
      "Ġtrading": 7309,
      "Ġpainted": 7310,
      "51": 7311,
      "Ġjewel": 7312,
      "Ø§": 7313,
      "Ġdesigns": 7314,
      "Ġvirus": 7315,
      "Ġsustainable": 7316,
      "Ġlemon": 7317,
      "\")": 7318,
      "ĠBefore": 7319,
      "Ġentertainment": 7320,
      "Ġpersons": 7321,
      "Ġprivacy": 7322,
      "ĠGre": 7323,
      "acts": 7324,
      "ĠPrem": 7325,
      "yc": 7326,
      "ERS": 7327,
      "Ġrepresents": 7328,
      "ĠFeb": 7329,
      "Ġgraph": 7330,
      "De": 7331,
      "alle": 7332,
      "Ġyield": 7333,
      "Ġclouds": 7334,
      "Ġvend": 7335,
      "Ġmeetings": 7336,
      "ĠKnow": 7337,
      "ĠControl": 7338,
      "Hel": 7339,
      "lines": 7340,
      "Ġvast": 7341,
      "Ġstrategic": 7342,
      "date": 7343,
      "Ġtroub": 7344,
      "FC": 7345,
      "ĠPrime": 7346,
      "ĠFollow": 7347,
      "Ġnetworks": 7348,
      "Ġextent": 7349,
      "Ġvisiting": 7350,
      "wan": 7351,
      "ĠPsych": 7352,
      "Ġsurgery": 7353,
      "ĠAgain": 7354,
      "Ġtickets": 7355,
      "Ġreferred": 7356,
      "ĠWhiskers": 7357,
      "Ġnervous": 7358,
      "ĠTake": 7359,
      "ĠKorea": 7360,
      "Ġclassroom": 7361,
      "Ġrecording": 7362,
      "ĠManager": 7363,
      "bi": 7364,
      "ĠCH": 7365,
      "Ġlawyer": 7366,
      "Ġcouncil": 7367,
      "sm": 7368,
      "agues": 7369,
      "iform": 7370,
      "ĠClin": 7371,
      "Ġ48": 7372,
      "Ġupdates": 7373,
      "Ġrandom": 7374,
      "Ġterrible": 7375,
      "âĢĭ": 7376,
      "ĠSpe": 7377,
      "Ġreasonable": 7378,
      "Pe": 7379,
      "Ġrul": 7380,
      "Ġhistoric": 7381,
      "Ġscript": 7382,
      "Tube": 7383,
      "Ġcutting": 7384,
      "ĠKat": 7385,
      "umes": 7386,
      "ikes": 7387,
      "Ġupcoming": 7388,
      "Ġawareness": 7389,
      "iversary": 7390,
      "PC": 7391,
      "abet": 7392,
      "Ġaccomp": 7393,
      "Ġheav": 7394,
      "Ġrecognize": 7395,
      "Ġ33": 7396,
      "Ġphotograph": 7397,
      "Ġpure": 7398,
      "Ġpleased": 7399,
      "comp": 7400,
      "Ġattorney": 7401,
      "Ġfancy": 7402,
      "Ġalert": 7403,
      "Ġkm": 7404,
      "Ġknee": 7405,
      "Ġgate": 7406,
      "TC": 7407,
      "rence": 7408,
      "Ġbodies": 7409,
      "raph": 7410,
      "ĠSupport": 7411,
      "Ġsear": 7412,
      "Ġbasketball": 7413,
      "Ġenorm": 7414,
      "Ġnoises": 7415,
      "Ġnob": 7416,
      "Ġaer": 7417,
      "gar": 7418,
      "ĠWrit": 7419,
      "Ġfounded": 7420,
      "ĠFind": 7421,
      "issions": 7422,
      "ĠBear": 7423,
      "Ġpatterns": 7424,
      "Ġconfirm": 7425,
      "ĠInstagram": 7426,
      "ĠSon": 7427,
      "ĠOhio": 7428,
      "Ġchose": 7429,
      "inson": 7430,
      "Ġvirtual": 7431,
      "Ġparking": 7432,
      "ĠFurther": 7433,
      "ĠSea": 7434,
      "arrant": 7435,
      "Ġproviders": 7436,
      "utch": 7437,
      "Â©": 7438,
      "ĠQueen": 7439,
      "Ġliterature": 7440,
      "During": 7441,
      "ĠPop": 7442,
      "Ġsupports": 7443,
      "nic": 7444,
      "Ġexpressed": 7445,
      "52": 7446,
      "Ġcycle": 7447,
      "Ġimpossible": 7448,
      "Ġprocedures": 7449,
      "Em": 7450,
      "ĠGeorgia": 7451,
      "Ġmoves": 7452,
      "ĠSign": 7453,
      "rency": 7454,
      "ĠNorthern": 7455,
      "Ġdebut": 7456,
      "Ġtech": 7457,
      "Ġagric": 7458,
      "ĠFar": 7459,
      "Ġworst": 7460,
      "Ġguest": 7461,
      "Ġera": 7462,
      "izabeth": 7463,
      "Ġspicy": 7464,
      "Phone": 7465,
      "pa": 7466,
      "Ġcruc": 7467,
      "anches": 7468,
      "pir": 7469,
      "Ġisol": 7470,
      "âĢī": 7471,
      "etry": 7472,
      "Ġchoices": 7473,
      "ĠCost": 7474,
      "elcome": 7475,
      "ĠHotel": 7476,
      "Ġawarded": 7477,
      "html": 7478,
      "ĠBal": 7479,
      "ĠTele": 7480,
      "Ġultimately": 7481,
      "Ġanswers": 7482,
      "rich": 7483,
      "Ġwondered": 7484,
      "ili": 7485,
      "Ġscientists": 7486,
      "Ġhonor": 7487,
      "Ġextract": 7488,
      "ĠJac": 7489,
      "Ġcooking": 7490,
      "ester": 7491,
      "osa": 7492,
      "Co": 7493,
      "Ġreligion": 7494,
      "Later": 7495,
      "inent": 7496,
      "ĠFort": 7497,
      "Ġinstrument": 7498,
      "ura": 7499,
      "Ġusual": 7500,
      "Ġturtle": 7501,
      "Ġexposure": 7502,
      "ĠIss": 7503,
      "istent": 7504,
      "ensus": 7505,
      "Ġharder": 7506,
      "Ġcontest": 7507,
      "Ġhopes": 7508,
      "Ġstreets": 7509,
      "evin": 7510,
      "Ġdrivers": 7511,
      "Ġflash": 7512,
      "Ġdiscount": 7513,
      "Ġperfectly": 7514,
      "Ġpeaceful": 7515,
      "Ġmagnet": 7516,
      "Ġremote": 7517,
      "Ġfalse": 7518,
      "Ġimplementation": 7519,
      "Ġnewspaper": 7520,
      "Ġeager": 7521,
      "Ġbreakfast": 7522,
      "Ġpref": 7523,
      "ĠRest": 7524,
      "Ġappreciate": 7525,
      "ockey": 7526,
      "Ġentreprene": 7527,
      "Ġdepending": 7528,
      "ĠAdministration": 7529,
      "Ġhumans": 7530,
      "ĠHa": 7531,
      "Another": 7532,
      "Ġyounger": 7533,
      "Ġprove": 7534,
      "Ġincreasingly": 7535,
      "enger": 7536,
      "gely": 7537,
      "Ġleague": 7538,
      "ĠGar": 7539,
      "ĠFour": 7540,
      "ghan": 7541,
      "Ġclaimed": 7542,
      "Ġcarrying": 7543,
      "eries": 7544,
      "fortunately": 7545,
      "Ġrug": 7546,
      "Ġathlet": 7547,
      "ican": 7548,
      "upid": 7549,
      "Ġheads": 7550,
      "adel": 7551,
      "Ġsuccessfully": 7552,
      "opyright": 7553,
      "Ġyesterday": 7554,
      "Ġvisited": 7555,
      "essed": 7556,
      "ĠStory": 7557,
      "Ġfacilit": 7558,
      "Ġweapons": 7559,
      "ador": 7560,
      "Ġ37": 7561,
      "Ġparam": 7562,
      "Ġreput": 7563,
      "Ġ39": 7564,
      "Thanks": 7565,
      "Ġdancing": 7566,
      "Ġlamp": 7567,
      "idi": 7568,
      "Ġchapter": 7569,
      "Ġopens": 7570,
      "Ġgraduate": 7571,
      "list": 7572,
      "Ġargument": 7573,
      "Ġpuzzle": 7574,
      "Ġgenerous": 7575,
      "ĠCreat": 7576,
      "ĠBrazil": 7577,
      "ĠSP": 7578,
      "Ġpresentation": 7579,
      "ĠDemocratic": 7580,
      "Ġsticks": 7581,
      "Ġagents": 7582,
      "EST": 7583,
      "Come": 7584,
      "ayer": 7585,
      "Ġgear": 7586,
      "2015": 7587,
      "ĠMrs": 7588,
      "class": 7589,
      "ĠFull": 7590,
      "ta": 7591,
      "Ġalive": 7592,
      "iral": 7593,
      "long": 7594,
      "Ġefficiency": 7595,
      "Ġordinary": 7596,
      "apore": 7597,
      "ĠTheatre": 7598,
      "Ġachieved": 7599,
      "Ġingredients": 7600,
      "Ġtied": 7601,
      "Ġmysterious": 7602,
      "Ġcapable": 7603,
      "ĠSeason": 7604,
      "Ġscheduled": 7605,
      "Ġrude": 7606,
      "Ġpizza": 7607,
      "itled": 7608,
      "Ġbelieves": 7609,
      "estyle": 7610,
      "Ġaircraft": 7611,
      "ĠPhoto": 7612,
      "Ġreturns": 7613,
      "Jan": 7614,
      "ĠJersey": 7615,
      "ati": 7616,
      "onavirus": 7617,
      "riff": 7618,
      "Ġcolumn": 7619,
      "away": 7620,
      "fa": 7621,
      "Ġrein": 7622,
      "Ġsuggests": 7623,
      "ennis": 7624,
      "Ġexecut": 7625,
      "Ġacts": 7626,
      "Ġvictims": 7627,
      "Ġfulf": 7628,
      "Ġessay": 7629,
      "Ġattractive": 7630,
      "Ġaccord": 7631,
      "asts": 7632,
      "Ġawards": 7633,
      "umin": 7634,
      "ĠEff": 7635,
      "Ġincreases": 7636,
      "Ġattrib": 7637,
      "erman": 7638,
      "Ġrecon": 7639,
      "Ġfalls": 7640,
      "Ġvital": 7641,
      "Ġpilot": 7642,
      "ĠCas": 7643,
      "Ã¶": 7644,
      "ĠFre": 7645,
      "Ġstamp": 7646,
      "Ġfindings": 7647,
      "ĠMA": 7648,
      "Most": 7649,
      "ĠLabor": 7650,
      "Ġsauce": 7651,
      "Ġkeeps": 7652,
      "sters": 7653,
      "Ġrestaurants": 7654,
      "Ġwidely": 7655,
      "you": 7656,
      "Dec": 7657,
      "ĠDisney": 7658,
      "otten": 7659,
      "Ġprinciples": 7660,
      "ĠRemy": 7661,
      "Ġfeedback": 7662,
      "Ġ38": 7663,
      "Art": 7664,
      "ĠAnother": 7665,
      "Ġdepth": 7666,
      "ounter": 7667,
      "Ġexternal": 7668,
      "Ġpassing": 7669,
      "ĠRight": 7670,
      "%.": 7671,
      "Ġcoc": 7672,
      "Ġregularly": 7673,
      "Ġconsistent": 7674,
      "Ġmarch": 7675,
      "Ġdeals": 7676,
      "wered": 7677,
      "ĠDub": 7678,
      "Ġbelt": 7679,
      "pat": 7680,
      "Add": 7681,
      "Ġpossibility": 7682,
      "ĠPalest": 7683,
      "otal": 7684,
      "rovers": 7685,
      "Ġqueen": 7686,
      "Ġevol": 7687,
      "level": 7688,
      "Ġchallenging": 7689,
      "Ġdepos": 7690,
      "Ġheight": 7691,
      "Ġfavourite": 7692,
      "Ġcounsel": 7693,
      "uls": 7694,
      "bed": 7695,
      "Ġfeaturing": 7696,
      "Ġprofit": 7697,
      "Ġobjects": 7698,
      "ĠRam": 7699,
      "Ġhoping": 7700,
      "inf": 7701,
      "Ġfool": 7702,
      "Ġrelief": 7703,
      "Ġentr": 7704,
      "ĠPoint": 7705,
      "Ġboring": 7706,
      "ĠCond": 7707,
      "Ġplot": 7708,
      "Ġordered": 7709,
      "Ġsimpl": 7710,
      "jo": 7711,
      "Ġgently": 7712,
      "ĠRay": 7713,
      "Ġlargely": 7714,
      "Ġfrequently": 7715,
      "Ġmagn": 7716,
      "ĠMS": 7717,
      "Ġapproval": 7718,
      "Ġfalling": 7719,
      "ĠEth": 7720,
      "Ġlayer": 7721,
      "Ġtap": 7722,
      "AB": 7723,
      "Ġregister": 7724,
      "Ġgod": 7725,
      "iro": 7726,
      "Ġtag": 7727,
      "onto": 7728,
      "Ġsufficient": 7729,
      "63": 7730,
      "Ġdegrees": 7731,
      "ĠLog": 7732,
      "Ġresulting": 7733,
      "amental": 7734,
      "Gu": 7735,
      "Ġspider": 7736,
      "Ġguidance": 7737,
      "ĠTerm": 7738,
      "Ġlosing": 7739,
      "unct": 7740,
      "Ġawesome": 7741,
      "Ġwra": 7742,
      "bec": 7743,
      "Ġeth": 7744,
      "endment": 7745,
      "uster": 7746,
      "ĠOfficer": 7747,
      "ĠSpain": 7748,
      "Ġpharm": 7749,
      "Ġbackyard": 7750,
      "Ġunable": 7751,
      "ĠHard": 7752,
      "Ġaffordable": 7753,
      "ĠIrish": 7754,
      "Ġbull": 7755,
      "Ġkitten": 7756,
      "ba": 7757,
      "ĠBooks": 7758,
      "Ġpayments": 7759,
      "Ġhits": 7760,
      "Ġrepeated": 7761,
      "Ġelected": 7762,
      "Ġtwe": 7763,
      "ĠStart": 7764,
      "ĠPR": 7765,
      "Ġrevolution": 7766,
      "Ġstrike": 7767,
      "Ġduty": 7768,
      "Ġuncom": 7769,
      "athered": 7770,
      "vin": 7771,
      "TV": 7772,
      "Ġelderly": 7773,
      "ifer": 7774,
      "Ġfabric": 7775,
      "Ġexplains": 7776,
      "Ġregions": 7777,
      "Ġprofessor": 7778,
      "lar": 7779,
      "news": 7780,
      "riv": 7781,
      "Many": 7782,
      "inals": 7783,
      "Ġcheer": 7784,
      "eer": 7785,
      "ĠTaylor": 7786,
      "eria": 7787,
      "Ġtack": 7788,
      "Ġ1998": 7789,
      "Book": 7790,
      "angle": 7791,
      "Ġanyway": 7792,
      "li": 7793,
      "itals": 7794,
      "ito": 7795,
      "ĠAR": 7796,
      "Ġvary": 7797,
      "amil": 7798,
      "ĠAC": 7799,
      "Ġcrus": 7800,
      "Ġtested": 7801,
      "Ġoutdoor": 7802,
      "ĠKn": 7803,
      "Ġengage": 7804,
      "Ġgrade": 7805,
      "Ġattended": 7806,
      "Ġreaction": 7807,
      "ĠAndy": 7808,
      "Ġdatabase": 7809,
      "Ġrocket": 7810,
      "ĠRetrieved": 7811,
      "icity": 7812,
      "ras": 7813,
      "Ġfeather": 7814,
      "ĠÃł": 7815,
      "Ġintent": 7816,
      "Ġfoundation": 7817,
      "Ġhugs": 7818,
      "Ġconfig": 7819,
      "Ġstim": 7820,
      "Ġpresents": 7821,
      "Ġwebsites": 7822,
      "Per": 7823,
      "Ġprimarily": 7824,
      "Ġgarage": 7825,
      "Ġexcess": 7826,
      "Ġlegisl": 7827,
      "Ġremov": 7828,
      "Ġenormous": 7829,
      "Ġstructures": 7830,
      "Ġupper": 7831,
      "Ġrespectively": 7832,
      "bury": 7833,
      "Ġpiano": 7834,
      "Ġpowers": 7835,
      "Ġinstalled": 7836,
      "Ġconcentr": 7837,
      "ĠSn": 7838,
      "Ġselfish": 7839,
      "ĠDaily": 7840,
      "ĠNon": 7841,
      "Ġexpansion": 7842,
      "Ġsmoke": 7843,
      "istant": 7844,
      "Che": 7845,
      "Ġlinked": 7846,
      "Ġenforcement": 7847,
      "Ġ75": 7848,
      "ĠRadio": 7849,
      "Ġscheme": 7850,
      "Ġfeelings": 7851,
      "Ġretire": 7852,
      "Ġ34": 7853,
      "Ġjumping": 7854,
      "ĠOp": 7855,
      "icide": 7856,
      "âĢ¦âĢ¦": 7857,
      "ervative": 7858,
      "Bu": 7859,
      "ĠRom": 7860,
      "Ġmainly": 7861,
      "Ġprocedure": 7862,
      "ĠStan": 7863,
      "61": 7864,
      "CD": 7865,
      "Ġoccurred": 7866,
      "ĠTax": 7867,
      "],": 7868,
      "Ġtiss": 7869,
      "Ġaccurate": 7870,
      "Ġresistance": 7871,
      "Ġunp": 7872,
      "ĠHarry": 7873,
      "Ġalongside": 7874,
      "cular": 7875,
      "Ġzoo": 7876,
      "ĠColorado": 7877,
      "Ġstake": 7878,
      "Ġoperate": 7879,
      "Ġ1980": 7880,
      "ĠUr": 7881,
      "Any": 7882,
      "Ġseal": 7883,
      "Ġlicens": 7884,
      "ĠAgency": 7885,
      "Ġske": 7886,
      "ampion": 7887,
      "ĠHun": 7888,
      "Follow": 7889,
      "ĠAndroid": 7890,
      "Ġstudied": 7891,
      "ĠFoot": 7892,
      "inois": 7893,
      "Ġcouch": 7894,
      "df": 7895,
      "Ġgranted": 7896,
      "inking": 7897,
      "ĠVideo": 7898,
      "2014": 7899,
      "ĠSky": 7900,
      "inter": 7901,
      "Ġbrothers": 7902,
      "Ġanticip": 7903,
      "Ġperforming": 7904,
      "Ġrecognition": 7905,
      "Ġprepar": 7906,
      "Ġapps": 7907,
      "Ġmessy": 7908,
      "Ġlect": 7909,
      "Ġmessages": 7910,
      "ĠSystems": 7911,
      "ĠAsian": 7912,
      "ordan": 7913,
      "ĠYouTube": 7914,
      "Ġgrace": 7915,
      "angers": 7916,
      "Ġstable": 7917,
      "rogen": 7918,
      "ĠSa": 7919,
      "Sub": 7920,
      "Ġbrush": 7921,
      "Ġbranches": 7922,
      "Ġtypical": 7923,
      "Ġrice": 7924,
      "Ġseeds": 7925,
      "Ġarrested": 7926,
      "ĠApplic": 7927,
      "vania": 7928,
      "Ġpurchased": 7929,
      "Ġalcohol": 7930,
      "ĠMu": 7931,
      "Ġwriters": 7932,
      "Ġcontribute": 7933,
      "Ġtrig": 7934,
      "Ġactor": 7935,
      "ruit": 7936,
      "ĠRon": 7937,
      "inder": 7938,
      "Ġdescribe": 7939,
      "utor": 7940,
      "EP": 7941,
      "ĠWord": 7942,
      "Ġboxes": 7943,
      "Ġimprovement": 7944,
      "Ġmask": 7945,
      "Ġuncle": 7946,
      "ĠViet": 7947,
      "aron": 7948,
      "raham": 7949,
      "Ġtourn": 7950,
      "Ġinfo": 7951,
      "ĠSanta": 7952,
      "ĠTherefore": 7953,
      "ĠBang": 7954,
      "makers": 7955,
      "front": 7956,
      "Although": 7957,
      "ĠCapital": 7958,
      "ĠThus": 7959,
      "ĠExpl": 7960,
      "ĠCorporation": 7961,
      "ĠGrandma": 7962,
      "ĠFOR": 7963,
      "Photo": 7964,
      "olph": 7965,
      "hell": 7966,
      "owntown": 7967,
      "Ġsuitable": 7968,
      "Ġmonthly": 7969,
      "ĠMinistry": 7970,
      "MC": 7971,
      "iti": 7972,
      "ĠVill": 7973,
      "bel": 7974,
      "Ġwhenever": 7975,
      "ĠMir": 7976,
      "Ġsomewhere": 7977,
      "amm": 7978,
      "oli": 7979,
      "ĠEnt": 7980,
      "Ġengagement": 7981,
      "Ġexpectations": 7982,
      "Ġreduction": 7983,
      "roph": 7984,
      "Ġoutstanding": 7985,
      "Ġinspect": 7986,
      "ĠFac": 7987,
      "Ġdescription": 7988,
      "usal": 7989,
      "VD": 7990,
      "Ġprompt": 7991,
      "Ġ150": 7992,
      "Ġjoke": 7993,
      "Ġwithd": 7994,
      "ĠJill": 7995,
      "Ġbaseball": 7996,
      "gov": 7997,
      "Ġaccessible": 7998,
      "Ġillness": 7999,
      "ĠGuard": 8000,
      "73": 8001,
      "onym": 8002,
      "FA": 8003,
      "ĠFriend": 8004,
      "imb": 8005,
      "Ġshadow": 8006,
      "Ġexceed": 8007,
      "Ġyours": 8008,
      "cons": 8009,
      "ierce": 8010,
      "Ġluxury": 8011,
      "Other": 8012,
      "Ġinstallation": 8013,
      "Ġpotato": 8014,
      "ĠRyan": 8015,
      "Ġinjuries": 8016,
      "Ġwolf": 8017,
      "ership": 8018,
      "Ġcontributions": 8019,
      "Ġatmosphere": 8020,
      "anes": 8021,
      "ĠÂ©": 8022,
      "Ġpit": 8023,
      "Ġframework": 8024,
      "Ġpitch": 8025,
      "Ġmob": 8026,
      "Ġinformed": 8027,
      "Ġpresc": 8028,
      "ĠPract": 8029,
      "Ġdiamond": 8030,
      "ĠBlog": 8031,
      "Ġsuspect": 8032,
      "Ġdiversity": 8033,
      "Ġsituations": 8034,
      "oa": 8035,
      "uis": 8036,
      "Ġengaged": 8037,
      "Part": 8038,
      "Ġinvent": 8039,
      "ĠLi": 8040,
      "Ġimmediate": 8041,
      "OU": 8042,
      "Ġskill": 8043,
      "zard": 8044,
      "Med": 8045,
      "71": 8046,
      "Ġtaxes": 8047,
      "ĠTal": 8048,
      "RS": 8049,
      "Ġtomato": 8050,
      "ĠRod": 8051,
      "ouston": 8052,
      "Ġcher": 8053,
      "Ġdomain": 8054,
      "ificate": 8055,
      "Ġseats": 8056,
      "ounced": 8057,
      "umer": 8058,
      "making": 8059,
      "Ġsettings": 8060,
      "Ġexperiment": 8061,
      "Ġrelie": 8062,
      "Ġpublication": 8063,
      "ifies": 8064,
      "ĠFord": 8065,
      "itionally": 8066,
      "Ġfirms": 8067,
      "Ġvictim": 8068,
      "arters": 8069,
      "arly": 8070,
      "quir": 8071,
      "Sm": 8072,
      "Ġliquid": 8073,
      "ĠAsh": 8074,
      "stance": 8075,
      "Ġcommunications": 8076,
      "Ġillegal": 8077,
      "Ġarchitecture": 8078,
      "ava": 8079,
      "Ġmonitoring": 8080,
      "Ġregistration": 8081,
      "Ġclar": 8082,
      "Ġassign": 8083,
      "Ġminister": 8084,
      "Ġseriously": 8085,
      "Ġexclusive": 8086,
      "ĠKent": 8087,
      "ĠMult": 8088,
      "Ġadds": 8089,
      "burgh": 8090,
      "Ġplatforms": 8091,
      "ulating": 8092,
      "Ġdivision": 8093,
      "ressed": 8094,
      "Ġbehalf": 8095,
      "ĠAction": 8096,
      "ĠRen": 8097,
      "Ġconsequences": 8098,
      "Ġautomatically": 8099,
      "Ġfaculty": 8100,
      "OV": 8101,
      "Ġexhibition": 8102,
      "vy": 8103,
      "ĠMach": 8104,
      "EA": 8105,
      "folio": 8106,
      "Comp": 8107,
      "News": 8108,
      "ĠYet": 8109,
      "Dav": 8110,
      "Ġstupid": 8111,
      "ĠThree": 8112,
      "Ġfactory": 8113,
      "born": 8114,
      "las": 8115,
      "ologist": 8116,
      "Ġroot": 8117,
      "Ġvegetables": 8118,
      "Ġconstantly": 8119,
      "El": 8120,
      "Ġoutcomes": 8121,
      "Ġshock": 8122,
      "!!!": 8123,
      "Ġlean": 8124,
      "Ġintegrated": 8125,
      "ĠHand": 8126,
      "ja": 8127,
      "ĠNick": 8128,
      "Ġax": 8129,
      "Ġtum": 8130,
      "ellow": 8131,
      "syl": 8132,
      "Ġzero": 8133,
      "Ġelections": 8134,
      "ĠArea": 8135,
      "ĠMolly": 8136,
      "llie": 8137,
      "awa": 8138,
      "Ġsuffering": 8139,
      "ĠHeart": 8140,
      "Ġexistence": 8141,
      "fe": 8142,
      "ounded": 8143,
      "DP": 8144,
      "urrent": 8145,
      "ĠIII": 8146,
      "Ġ49": 8147,
      "300": 8148,
      "Ġundert": 8149,
      "uces": 8150,
      "ĠStudents": 8151,
      "ĠUt": 8152,
      "Ġconvert": 8153,
      "ĠRoom": 8154,
      "atics": 8155,
      "Ġ)": 8156,
      "ĠDid": 8157,
      "Ġpercentage": 8158,
      "Ġrural": 8159,
      "Ġchased": 8160,
      "gor": 8161,
      "Ġlies": 8162,
      "zona": 8163,
      "Ġpra": 8164,
      "ÂŃ": 8165,
      "Ġpotentially": 8166,
      "Ġfinance": 8167,
      "enda": 8168,
      "Ġcleaned": 8169,
      "Ġdeer": 8170,
      "ĠBroad": 8171,
      "Ġscored": 8172,
      "Ġsplash": 8173,
      "Ġspell": 8174,
      "Ġmatches": 8175,
      "ped": 8176,
      "ĠClick": 8177,
      "ĠSoft": 8178,
      "Ġindex": 8179,
      "Ġdisturb": 8180,
      "Ġblend": 8181,
      "Ġsteal": 8182,
      "Ġbags": 8183,
      "Ġsurprising": 8184,
      ")(": 8185,
      "Ġassociation": 8186,
      "Ġproposal": 8187,
      "asses": 8188,
      "Ġcontinuing": 8189,
      "Ġmemories": 8190,
      "Ġdefinition": 8191
    },
    "merges": [
      [
        "Ġ",
        "t"
      ],
      [
        "h",
        "e"
      ],
      [
        "Ġ",
        "a"
      ],
      [
        "i",
        "n"
      ],
      [
        "Ġt",
        "he"
      ],
      [
        "r",
        "e"
      ],
      [
        "Ġ",
        "s"
      ],
      [
        "Ġ",
        "w"
      ],
      [
        "n",
        "d"
      ],
      [
        "o",
        "n"
      ],
      [
        "e",
        "r"
      ],
      [
        "a",
        "t"
      ],
      [
        "Ġ",
        "b"
      ],
      [
        "e",
        "d"
      ],
      [
        "i",
        "t"
      ],
      [
        "Ġ",
        "o"
      ],
      [
        "Ġ",
        "c"
      ],
      [
        "Ġ",
        "f"
      ],
      [
        "Ġt",
        "o"
      ],
      [
        "i",
        "s"
      ],
      [
        "Ġa",
        "nd"
      ],
      [
        "e",
        "n"
      ],
      [
        "Ġ",
        "p"
      ],
      [
        "o",
        "r"
      ],
      [
        "o",
        "u"
      ],
      [
        "a",
        "n"
      ],
      [
        "e",
        "s"
      ],
      [
        "in",
        "g"
      ],
      [
        "a",
        "r"
      ],
      [
        "Ġ",
        "h"
      ],
      [
        "Ġ",
        "m"
      ],
      [
        "a",
        "l"
      ],
      [
        "Ġ",
        "d"
      ],
      [
        "a",
        "s"
      ],
      [
        "Ġ",
        "in"
      ],
      [
        "Ġo",
        "f"
      ],
      [
        "o",
        "m"
      ],
      [
        "Ġ",
        "l"
      ],
      [
        "Ġ",
        "T"
      ],
      [
        "i",
        "c"
      ],
      [
        "i",
        "l"
      ],
      [
        "Ġt",
        "h"
      ],
      [
        "i",
        "on"
      ],
      [
        "Ġ",
        "n"
      ],
      [
        "l",
        "e"
      ],
      [
        "a",
        "y"
      ],
      [
        "Ġ",
        "S"
      ],
      [
        "i",
        "d"
      ],
      [
        "en",
        "t"
      ],
      [
        "Ġ",
        "g"
      ],
      [
        "e",
        "t"
      ],
      [
        "i",
        "m"
      ],
      [
        "o",
        "t"
      ],
      [
        "Ġ",
        "e"
      ],
      [
        "v",
        "e"
      ],
      [
        "s",
        "t"
      ],
      [
        "Ġ",
        "re"
      ],
      [
        "u",
        "t"
      ],
      [
        "r",
        "o"
      ],
      [
        "Ġ",
        "he"
      ],
      [
        "a",
        "d"
      ],
      [
        "Ġ",
        "I"
      ],
      [
        "a",
        "c"
      ],
      [
        "a",
        "m"
      ],
      [
        "ĠT",
        "he"
      ],
      [
        "Ġw",
        "as"
      ],
      [
        "e",
        "l"
      ],
      [
        "i",
        "g"
      ],
      [
        "Ġ",
        "y"
      ],
      [
        "Ġb",
        "e"
      ],
      [
        "o",
        "w"
      ],
      [
        "Ġ",
        "on"
      ],
      [
        "v",
        "er"
      ],
      [
        "Ġ",
        "A"
      ],
      [
        "i",
        "r"
      ],
      [
        "l",
        "y"
      ],
      [
        "Ġf",
        "or"
      ],
      [
        "Ġ",
        "u"
      ],
      [
        "Ġ",
        "is"
      ],
      [
        "Ġ",
        "C"
      ],
      [
        "it",
        "h"
      ],
      [
        "o",
        "l"
      ],
      [
        "Ġ",
        "it"
      ],
      [
        "u",
        "r"
      ],
      [
        "Ġs",
        "t"
      ],
      [
        "Ġ",
        "M"
      ],
      [
        "Ġw",
        "ith"
      ],
      [
        "e",
        "c"
      ],
      [
        "Ġy",
        "ou"
      ],
      [
        "Ġ",
        "H"
      ],
      [
        "Ġth",
        "at"
      ],
      [
        "s",
        "e"
      ],
      [
        "Ġ",
        "B"
      ],
      [
        "at",
        "ion"
      ],
      [
        "Ġh",
        "a"
      ],
      [
        "'",
        "s"
      ],
      [
        "c",
        "e"
      ],
      [
        "r",
        "i"
      ],
      [
        "p",
        "p"
      ],
      [
        "Ġs",
        "a"
      ],
      [
        "Ġa",
        "l"
      ],
      [
        "o",
        "o"
      ],
      [
        "Ġa",
        "n"
      ],
      [
        "k",
        "e"
      ],
      [
        "t",
        "er"
      ],
      [
        "Ġ",
        "P"
      ],
      [
        "Ġ",
        "\""
      ],
      [
        "u",
        "l"
      ],
      [
        "Ġa",
        "s"
      ],
      [
        "c",
        "h"
      ],
      [
        "Ġw",
        "e"
      ],
      [
        "Ġw",
        "h"
      ],
      [
        "l",
        "d"
      ],
      [
        "he",
        "r"
      ],
      [
        "Ġ",
        "L"
      ],
      [
        "il",
        "l"
      ],
      [
        "u",
        "n"
      ],
      [
        "Ġp",
        "l"
      ],
      [
        "an",
        "t"
      ],
      [
        "Ġ",
        "r"
      ],
      [
        "Ġ",
        "W"
      ],
      [
        "a",
        "g"
      ],
      [
        "Ġa",
        "t"
      ],
      [
        "Ġ",
        "D"
      ],
      [
        "i",
        "f"
      ],
      [
        "c",
        "t"
      ],
      [
        "Ġ",
        "2"
      ],
      [
        "Ġa",
        "re"
      ],
      [
        "er",
        "s"
      ],
      [
        "o",
        "re"
      ],
      [
        "e",
        "m"
      ],
      [
        "Ġ",
        "F"
      ],
      [
        "Ġn",
        "ot"
      ],
      [
        "Ġ",
        "1"
      ],
      [
        "h",
        "t"
      ],
      [
        "e",
        "w"
      ],
      [
        "Ġh",
        "is"
      ],
      [
        "Ġ",
        "("
      ],
      [
        "a",
        "in"
      ],
      [
        "Ġ",
        "R"
      ],
      [
        "u",
        "s"
      ],
      [
        "es",
        "t"
      ],
      [
        "u",
        "m"
      ],
      [
        "r",
        "om"
      ],
      [
        "al",
        "l"
      ],
      [
        "a",
        "b"
      ],
      [
        "Ġs",
        "h"
      ],
      [
        "ĠH",
        "e"
      ],
      [
        "Ġc",
        "om"
      ],
      [
        "es",
        "s"
      ],
      [
        "Ġp",
        "ro"
      ],
      [
        "o",
        "p"
      ],
      [
        "Ġc",
        "on"
      ],
      [
        "e",
        "nd"
      ],
      [
        "ar",
        "t"
      ],
      [
        "is",
        "t"
      ],
      [
        "ou",
        "ld"
      ],
      [
        "at",
        "e"
      ],
      [
        "Ġo",
        "r"
      ],
      [
        "Ġe",
        "x"
      ],
      [
        "ĠThe",
        "y"
      ],
      [
        "ver",
        "y"
      ],
      [
        "Ġsa",
        "id"
      ],
      [
        "a",
        "nd"
      ],
      [
        "t",
        "h"
      ],
      [
        "Ġ",
        "E"
      ],
      [
        "Ġ",
        "N"
      ],
      [
        "Ġhe",
        "r"
      ],
      [
        "e",
        "ar"
      ],
      [
        "Ġd",
        "o"
      ],
      [
        "Ġl",
        "i"
      ],
      [
        "Ġ",
        "v"
      ],
      [
        "it",
        "y"
      ],
      [
        "Ġthe",
        "y"
      ],
      [
        "Ġpl",
        "ay"
      ],
      [
        "Ġ",
        "G"
      ],
      [
        "re",
        "s"
      ],
      [
        "k",
        "ed"
      ],
      [
        "O",
        "n"
      ],
      [
        "Ġd",
        "ay"
      ],
      [
        "T",
        "he"
      ],
      [
        "q",
        "u"
      ],
      [
        "ec",
        "t"
      ],
      [
        "Ġha",
        "ve"
      ],
      [
        "Ġu",
        "p"
      ],
      [
        "Ġf",
        "rom"
      ],
      [
        "re",
        "d"
      ],
      [
        "ar",
        "d"
      ],
      [
        "or",
        "t"
      ],
      [
        "Ġs",
        "o"
      ],
      [
        "n",
        "t"
      ],
      [
        "o",
        "s"
      ],
      [
        "i",
        "ve"
      ],
      [
        "u",
        "st"
      ],
      [
        "Ġ",
        "k"
      ],
      [
        "Ġb",
        "y"
      ],
      [
        "m",
        "ent"
      ],
      [
        "om",
        "e"
      ],
      [
        "Ġ",
        "J"
      ],
      [
        "i",
        "es"
      ],
      [
        "ou",
        "nd"
      ],
      [
        "id",
        "e"
      ],
      [
        "Ġs",
        "e"
      ],
      [
        "ig",
        "ht"
      ],
      [
        "Ġal",
        "l"
      ],
      [
        "Ġs",
        "u"
      ],
      [
        "Ġc",
        "an"
      ],
      [
        "Ġ2",
        "0"
      ],
      [
        "a",
        "p"
      ],
      [
        "Ġh",
        "ad"
      ],
      [
        "u",
        "d"
      ],
      [
        "Ġb",
        "ut"
      ],
      [
        "Ġc",
        "h"
      ],
      [
        "im",
        "e"
      ],
      [
        "ac",
        "k"
      ],
      [
        "Ġt",
        "r"
      ],
      [
        "Ġ",
        "j"
      ],
      [
        "Ġth",
        "is"
      ],
      [
        "ĠS",
        "he"
      ],
      [
        "o",
        "c"
      ],
      [
        "el",
        "l"
      ],
      [
        "ou",
        "t"
      ],
      [
        "Ġw",
        "or"
      ],
      [
        "Ġs",
        "p"
      ],
      [
        "it",
        "t"
      ],
      [
        "il",
        "y"
      ],
      [
        "Ġd",
        "e"
      ],
      [
        "ĠT",
        "im"
      ],
      [
        "Ġb",
        "ig"
      ],
      [
        "as",
        "t"
      ],
      [
        "a",
        "ke"
      ],
      [
        "ou",
        "r"
      ],
      [
        "in",
        "d"
      ],
      [
        "Ġa",
        "b"
      ],
      [
        "i",
        "al"
      ],
      [
        "Ġw",
        "ill"
      ],
      [
        "ou",
        "g"
      ],
      [
        "Ġwe",
        "re"
      ],
      [
        "o",
        "d"
      ],
      [
        "Ġthe",
        "ir"
      ],
      [
        "Ġt",
        "ime"
      ],
      [
        "am",
        "e"
      ],
      [
        "a",
        "k"
      ],
      [
        "Ġw",
        "ant"
      ],
      [
        "o",
        "st"
      ],
      [
        "u",
        "e"
      ],
      [
        "Ġthe",
        "re"
      ],
      [
        "â",
        "Ģ"
      ],
      [
        "Ġha",
        "pp"
      ],
      [
        "he",
        "n"
      ],
      [
        ".",
        "\""
      ],
      [
        "Ġo",
        "ut"
      ],
      [
        "ic",
        "e"
      ],
      [
        "u",
        "re"
      ],
      [
        "on",
        "g"
      ],
      [
        "a",
        "re"
      ],
      [
        "ri",
        "end"
      ],
      [
        "Ġyou",
        "r"
      ],
      [
        "oo",
        "d"
      ],
      [
        "i",
        "v"
      ],
      [
        "'",
        "t"
      ],
      [
        "oo",
        "k"
      ],
      [
        "Ġ",
        "O"
      ],
      [
        "g",
        "e"
      ],
      [
        "Ġs",
        "he"
      ],
      [
        "r",
        "y"
      ],
      [
        "ĠI",
        "t"
      ],
      [
        "Ġf",
        "riend"
      ],
      [
        "Ġ",
        "very"
      ],
      [
        "Ġn",
        "e"
      ],
      [
        "t",
        "her"
      ],
      [
        "Ġc",
        "l"
      ],
      [
        "Ġm",
        "e"
      ],
      [
        "i",
        "a"
      ],
      [
        "Ġ",
        "U"
      ],
      [
        "in",
        "e"
      ],
      [
        "f",
        "f"
      ],
      [
        "Ġh",
        "as"
      ],
      [
        "on",
        "e"
      ],
      [
        "al",
        "ly"
      ],
      [
        "e",
        "p"
      ],
      [
        "Ġl",
        "e"
      ],
      [
        "v",
        "ed"
      ],
      [
        "u",
        "g"
      ],
      [
        "Ġin",
        "t"
      ],
      [
        "Ġm",
        "an"
      ],
      [
        "Ġa",
        "r"
      ],
      [
        "u",
        "c"
      ],
      [
        "Ġg",
        "o"
      ],
      [
        "i",
        "p"
      ],
      [
        "o",
        "g"
      ],
      [
        "ou",
        "s"
      ],
      [
        "ac",
        "t"
      ],
      [
        "ic",
        "h"
      ],
      [
        "ar",
        "k"
      ],
      [
        "re",
        "e"
      ],
      [
        "0",
        "0"
      ],
      [
        "b",
        "er"
      ],
      [
        "ion",
        "s"
      ],
      [
        "Ġa",
        "d"
      ],
      [
        "Ġcom",
        "p"
      ],
      [
        "itt",
        "le"
      ],
      [
        "On",
        "e"
      ],
      [
        "Ġm",
        "ore"
      ],
      [
        "Ġu",
        "s"
      ],
      [
        "Ġs",
        "m"
      ],
      [
        "Ġhe",
        "l"
      ],
      [
        "ĠI",
        "n"
      ],
      [
        "r",
        "a"
      ],
      [
        "Ġ",
        "K"
      ],
      [
        "p",
        "er"
      ],
      [
        "ag",
        "e"
      ],
      [
        "Ġ",
        "en"
      ],
      [
        "Ġl",
        "ittle"
      ],
      [
        "at",
        "ed"
      ],
      [
        "Ġwh",
        "o"
      ],
      [
        "o",
        "y"
      ],
      [
        "Ġthe",
        "m"
      ],
      [
        "Ġk",
        "n"
      ],
      [
        "ac",
        "e"
      ],
      [
        ".",
        "."
      ],
      [
        "Ġhapp",
        "y"
      ],
      [
        "ab",
        "le"
      ],
      [
        "Ġm",
        "om"
      ],
      [
        "Ġhel",
        "p"
      ],
      [
        "Ġo",
        "ther"
      ],
      [
        "Ġsa",
        "w"
      ],
      [
        "an",
        "s"
      ],
      [
        "ĠS",
        "t"
      ],
      [
        "Ġon",
        "e"
      ],
      [
        "i",
        "z"
      ],
      [
        "Ġ",
        "ro"
      ],
      [
        "ar",
        "y"
      ],
      [
        "Ġab",
        "out"
      ],
      [
        "Ġ",
        "im"
      ],
      [
        "Ġn",
        "ew"
      ],
      [
        "p",
        "t"
      ],
      [
        "p",
        "l"
      ],
      [
        "Ġ",
        "Y"
      ],
      [
        "o",
        "nd"
      ],
      [
        "Ġs",
        "c"
      ],
      [
        "ac",
        "h"
      ],
      [
        "Ġa",
        "g"
      ],
      [
        "ĠT",
        "h"
      ],
      [
        "i",
        "e"
      ],
      [
        "he",
        "d"
      ],
      [
        "Ġto",
        "o"
      ],
      [
        "c",
        "c"
      ],
      [
        "Ġ20",
        "1"
      ],
      [
        "Ġp",
        "r"
      ],
      [
        "Ġw",
        "ould"
      ],
      [
        "or",
        "m"
      ],
      [
        "u",
        "b"
      ],
      [
        "ay",
        "s"
      ],
      [
        "it",
        "e"
      ],
      [
        "ing",
        "s"
      ],
      [
        "ow",
        "n"
      ],
      [
        "Ġm",
        "y"
      ],
      [
        "Ġcon",
        "t"
      ],
      [
        "oug",
        "h"
      ],
      [
        "am",
        "ed"
      ],
      [
        "an",
        "ce"
      ],
      [
        "Ġbe",
        "c"
      ],
      [
        "Ġg",
        "r"
      ],
      [
        "s",
        "o"
      ],
      [
        "ir",
        "d"
      ],
      [
        "Ġli",
        "ke"
      ],
      [
        "Ġl",
        "o"
      ],
      [
        "Ġu",
        "n"
      ],
      [
        "Ġd",
        "id"
      ],
      [
        "g",
        "et"
      ],
      [
        "k",
        "s"
      ],
      [
        "i",
        "re"
      ],
      [
        "re",
        "at"
      ],
      [
        "as",
        "s"
      ],
      [
        "Ġc",
        "ould"
      ],
      [
        "il",
        "e"
      ],
      [
        "Ġin",
        "c"
      ],
      [
        "ic",
        "al"
      ],
      [
        "a",
        "v"
      ],
      [
        "o",
        "b"
      ],
      [
        "e",
        "re"
      ],
      [
        "as",
        "e"
      ],
      [
        "is",
        "h"
      ],
      [
        "Ġwh",
        "ich"
      ],
      [
        "Ġn",
        "amed"
      ],
      [
        "Ġre",
        "s"
      ],
      [
        "ig",
        "n"
      ],
      [
        "ation",
        "s"
      ],
      [
        "Ġa",
        "pp"
      ],
      [
        "a",
        "il"
      ],
      [
        "Ġfriend",
        "s"
      ],
      [
        "Ġwant",
        "ed"
      ],
      [
        "Ġs",
        "ome"
      ],
      [
        "l",
        "l"
      ],
      [
        "Ġwh",
        "at"
      ],
      [
        "ĠC",
        "h"
      ],
      [
        "Ġ",
        "V"
      ],
      [
        "ul",
        "t"
      ],
      [
        "Ġo",
        "ur"
      ],
      [
        "Ġof",
        "f"
      ],
      [
        "i",
        "b"
      ],
      [
        "en",
        "ce"
      ],
      [
        "ad",
        "e"
      ],
      [
        "!",
        "\""
      ],
      [
        "Ġh",
        "im"
      ],
      [
        "Ġe",
        "v"
      ],
      [
        "ic",
        "k"
      ],
      [
        "Ġan",
        "y"
      ],
      [
        "Ġw",
        "hen"
      ],
      [
        "ĠT",
        "om"
      ],
      [
        "Ġy",
        "ear"
      ],
      [
        "Ġp",
        "er"
      ],
      [
        "ĠL",
        "ily"
      ],
      [
        "Ġf",
        "un"
      ],
      [
        "Ġp",
        "e"
      ],
      [
        "ent",
        "s"
      ],
      [
        "Ġ",
        "âĢ"
      ],
      [
        "ve",
        "l"
      ],
      [
        "ou",
        "nt"
      ],
      [
        "Ġw",
        "ent"
      ],
      [
        "Ġ",
        "qu"
      ],
      [
        "Ġp",
        "re"
      ],
      [
        "or",
        "d"
      ],
      [
        "Ġal",
        "so"
      ],
      [
        "Ġp",
        "art"
      ],
      [
        "Ġit",
        "s"
      ],
      [
        "res",
        "s"
      ],
      [
        "Ġb",
        "ack"
      ],
      [
        "Ġg",
        "et"
      ],
      [
        "Ġd",
        "is"
      ],
      [
        "u",
        "ct"
      ],
      [
        "Ġth",
        "an"
      ],
      [
        "Ġb",
        "ird"
      ],
      [
        "u",
        "se"
      ],
      [
        "Ġ",
        "3"
      ],
      [
        "at",
        "er"
      ],
      [
        "w",
        "n"
      ],
      [
        "Ġn",
        "o"
      ],
      [
        "f",
        "ul"
      ],
      [
        "or",
        "y"
      ],
      [
        "Ġo",
        "ver"
      ],
      [
        "f",
        "ter"
      ],
      [
        "Ġbe",
        "en"
      ],
      [
        "or",
        "s"
      ],
      [
        "a",
        "x"
      ],
      [
        "On",
        "ce"
      ],
      [
        "h",
        "ing"
      ],
      [
        "Ġup",
        "on"
      ],
      [
        "an",
        "g"
      ],
      [
        "f",
        "orm"
      ],
      [
        "l",
        "ow"
      ],
      [
        "il",
        "d"
      ],
      [
        "Ġint",
        "o"
      ],
      [
        "p",
        "ort"
      ],
      [
        "Ġb",
        "r"
      ],
      [
        "Ġse",
        "e"
      ],
      [
        "Ġm",
        "ake"
      ],
      [
        "nd",
        "er"
      ],
      [
        "m",
        "er"
      ],
      [
        "Ġf",
        "e"
      ],
      [
        "Ġwor",
        "k"
      ],
      [
        "it",
        "ion"
      ],
      [
        "op",
        "le"
      ],
      [
        "Ġto",
        "get"
      ],
      [
        "Ġtoget",
        "her"
      ],
      [
        "en",
        "s"
      ],
      [
        "Ġa",
        "m"
      ],
      [
        "ol",
        "d"
      ],
      [
        "he",
        "re"
      ],
      [
        "Ġre",
        "c"
      ],
      [
        "o",
        "se"
      ],
      [
        "Ġst",
        "art"
      ],
      [
        "Ġf",
        "ound"
      ],
      [
        ",",
        "\""
      ],
      [
        "Ġe",
        "very"
      ],
      [
        "in",
        "t"
      ],
      [
        "Ġj",
        "ust"
      ],
      [
        "ir",
        "st"
      ],
      [
        "Ġ1",
        "9"
      ],
      [
        "Ġh",
        "ow"
      ],
      [
        "Ġs",
        "er"
      ],
      [
        "Ġ",
        "if"
      ],
      [
        "i",
        "an"
      ],
      [
        "Ġc",
        "at"
      ],
      [
        "Ġt",
        "w"
      ],
      [
        "Ġc",
        "ar"
      ],
      [
        "ver",
        "s"
      ],
      [
        "Ġ",
        "-"
      ],
      [
        "Ġt",
        "e"
      ],
      [
        "Ġg",
        "ood"
      ],
      [
        "Ġpe",
        "ople"
      ],
      [
        "Ġto",
        "y"
      ],
      [
        "Ġb",
        "l"
      ],
      [
        "in",
        "k"
      ],
      [
        "ig",
        "h"
      ],
      [
        "Ġkn",
        "ow"
      ],
      [
        "a",
        "use"
      ],
      [
        "Ġl",
        "a"
      ],
      [
        "ic",
        "t"
      ],
      [
        "s",
        "ide"
      ],
      [
        "i",
        "ous"
      ],
      [
        "Ġne",
        "ed"
      ],
      [
        "le",
        "ct"
      ],
      [
        "om",
        "et"
      ],
      [
        "ir",
        "l"
      ],
      [
        "an",
        "c"
      ],
      [
        "el",
        "y"
      ],
      [
        "is",
        "e"
      ],
      [
        "Ġd",
        "ec"
      ],
      [
        "u",
        "ch"
      ],
      [
        "Ġu",
        "nder"
      ],
      [
        "ĠW",
        "e"
      ],
      [
        "ou",
        "se"
      ],
      [
        "n",
        "ing"
      ],
      [
        "T",
        "h"
      ],
      [
        "Ġc",
        "o"
      ],
      [
        "ĠB",
        "ut"
      ],
      [
        "Ġa",
        "w"
      ],
      [
        "Ġb",
        "et"
      ],
      [
        "al",
        "s"
      ],
      [
        "Ġl",
        "ook"
      ],
      [
        "it",
        "ed"
      ],
      [
        "ot",
        "h"
      ],
      [
        "Ġdo",
        "g"
      ],
      [
        "on",
        "s"
      ],
      [
        "Ġm",
        "ade"
      ],
      [
        "Ġag",
        "ain"
      ],
      [
        "Ġman",
        "y"
      ],
      [
        "Ġa",
        "cc"
      ],
      [
        "?",
        "\""
      ],
      [
        "m",
        "y"
      ],
      [
        "Ġa",
        "ct"
      ],
      [
        "f",
        "t"
      ],
      [
        "oug",
        "ht"
      ],
      [
        "ĠS",
        "p"
      ],
      [
        "Ġf",
        "ind"
      ],
      [
        "Ġthe",
        "n"
      ],
      [
        "v",
        "ing"
      ],
      [
        "Ġg",
        "irl"
      ],
      [
        "Ġb",
        "o"
      ],
      [
        "Ġf",
        "irst"
      ],
      [
        "t",
        "y"
      ],
      [
        "Ġplay",
        "ed"
      ],
      [
        "Ġb",
        "all"
      ],
      [
        "g",
        "r"
      ],
      [
        "ĠY",
        "ou"
      ],
      [
        "Ġst",
        "r"
      ],
      [
        "Ġc",
        "ol"
      ],
      [
        "a",
        "red"
      ],
      [
        "l",
        "es"
      ],
      [
        "at",
        "es"
      ],
      [
        "l",
        "ic"
      ],
      [
        "Ġd",
        "own"
      ],
      [
        "is",
        "s"
      ],
      [
        "l",
        "ud"
      ],
      [
        "h",
        "n"
      ],
      [
        "Ġcom",
        "m"
      ],
      [
        "Ġs",
        "omet"
      ],
      [
        "if",
        "f"
      ],
      [
        "o",
        "ve"
      ],
      [
        "w",
        "e"
      ],
      [
        "2",
        "0"
      ],
      [
        "Ġh",
        "ome"
      ],
      [
        "Ġa",
        "fter"
      ],
      [
        "ur",
        "n"
      ],
      [
        "ĠâĢ",
[...]
