{
  "version": "1.0",
  "truncation": null,
  "padding": null,
  "added_tokens": [
    {
      "id": 0,
      "content": "<pad>",
      "single_word": false,
      "lstrip": false,
      "rstrip": false,
      "normalized": false,
      "special": true
    },
    {
      "id": 1,
      "content": "<unk>",
      "single_word": false,
      "lstrip": false,
      "rstrip": false,
      "normalized": false,
      "special": true
    },
    {
      "id": 2,
      "content": "<bos>",
      "single_word": false,
      "lstrip": false,
      "rstrip": false,
      "normalized": false,
      "special": true
    },
    {
      "id": 3,
      "content": "<eos>",
      "single_word": false,
      "lstrip": false,
      "rstrip": false,
      "normalized": false,
      "special": true
    },
    {
      "id": 4,
      "content": "<|system|>",
      "single_word": false,
      "lstrip": false,
      "rstrip": false,
      "normalized": false,
      "special": true
    },
    {
      "id": 5,
      "content": "<|user|>",
      "single_word": false,
      "lstrip": false,
      "rstrip": false,
      "normalized": false,
      "special": true
    },
    {
      "id": 6,
      "content": "<|assistant|>",
      "single_word": false,
      "lstrip": false,
      "rstrip": false,
      "normalized": false,
      "special": true
    }
  ],
  "normalizer": null,
  "pre_tokenizer": {
    "type": "ByteLevel",
    "add_prefix_space": false,
    "trim_offsets": true,
    "use_regex": true
  },
  "post_processor": null,
  "decoder": {
    "type": "ByteLevel",
    "add_prefix_space": true,
    "trim_offsets": true,
    "use_regex": true
  },
  "model": {
    "type": "BPE",
    "dropout": null,
    "unk_token": "<unk>",
    "continuing_subword_prefix": null,
    "end_of_word_suffix": null,
    "fuse_unk": false,
    "byte_fallback": false,
    "ignore_merges": false,
    "vocab": {
      "<pad>": 0,
      "<unk>": 1,
      "<bos>": 2,
      "<eos>": 3,
      "<|system|>": 4,
      "<|user|>": 5,
      "<|assistant|>": 6,
      "!": 7,
      "\"": 8,
      "#": 9,
      "$": 10,
      "%": 11,
      "&": 12,
      "'": 13,
      "(": 14,
      ")": 15,
      "*": 16,
      "+": 17,
      ",": 18,
      "-": 19,
      ".": 20,
      "/": 21,
      "0": 22,
      "1": 23,
      "2": 24,
      "3": 25,
      "4": 26,
      "5": 27,
      "6": 28,
      "7": 29,
      "8": 30,
      "9": 31,
      ":": 32,
      ";": 33,
      "<": 34,
      "=": 35,
      ">": 36,
      "?": 37,
      "@": 38,
      "A": 39,
      "B": 40,
      "C": 41,
      "D": 42,
      "E": 43,
      "F": 44,
      "G": 45,
      "H": 46,
      "I": 47,
      "J": 48,
      "K": 49,
      "L": 50,
      "M": 51,
      "N": 52,
      "O": 53,
      "P": 54,
      "Q": 55,
      "R": 56,
      "S": 57,
      "T": 58,
      "U": 59,
      "V": 60,
      "W": 61,
      "X": 62,
      "Y": 63,
      "Z": 64,
      "[": 65,
      "\\": 66,
      "]": 67,
      "^": 68,
      "_": 69,
      "`": 70,
      "a": 71,
      "b": 72,
      "c": 73,
      "d": 74,
      "e": 75,
      "f": 76,
      "g": 77,
      "h": 78,
      "i": 79,
      "j": 80,
      "k": 81,
      "l": 82,
      "m": 83,
      "n": 84,
      "o": 85,
      "p": 86,
      "q": 87,
      "r": 88,
      "s": 89,
      "t": 90,
      "u": 91,
      "v": 92,
      "w": 93,
      "x": 94,
      "y": 95,
      "z": 96,
      "{": 97,
      "|": 98,
      "}": 99,
      "~": 100,
      "¡": 101,
      "¢": 102,
      "£": 103,
      "¤": 104,
      "¥": 105,
      "¦": 106,
      "§": 107,
      "¨": 108,
      "©": 109,
      "ª": 110,
      "«": 111,
      "¬": 112,
      "®": 113,
      "¯": 114,
      "°": 115,
      "±": 116,
      "²": 117,
      "³": 118,
      "´": 119,
      "µ": 120,
      "¶": 121,
      "·": 122,
      "¸": 123,
      "¹": 124,
      "º": 125,
      "»": 126,
      "¼": 127,
      "½": 128,
      "¾": 129,
      "¿": 130,
      "Â": 131,
      "Ã": 132,
      "Ä": 133,
      "Å": 134,
      "Æ": 135,
      "Ç": 136,
      "È": 137,
      "É": 138,
      "Ê": 139,
      "Ë": 140,
      "Ì": 141,
      "Í": 142,
      "Î": 143,
      "Ï": 144,
      "Ð": 145,
      "Ñ": 146,
      "Ò": 147,
      "Ó": 148,
      "Ô": 149,
      "Õ": 150,
      "Ö": 151,
      "×": 152,
      "Ø": 153,
      "Ù": 154,
      "Ú": 155,
      "Û": 156,
      "Ü": 157,
      "Ý": 158,
      "Þ": 159,
      "ß": 160,
      "à": 161,
      "á": 162,
      "â": 163,
      "ã": 164,
      "ä": 165,
      "å": 166,
      "æ": 167,
      "ç": 168,
      "è": 169,
      "é": 170,
      "ê": 171,
      "ë": 172,
      "ì": 173,
      "í": 174,
      "î": 175,
      "ï": 176,
      "ð": 177,
      "ó": 178,
      "ô": 179,
      "ĉ": 180,
      "Ċ": 181,
      "Č": 182,
      "Ġ": 183,
      "Ģ": 184,
      "ģ": 185,
      "Ĥ": 186,
      "ĥ": 187,
      "Ħ": 188,
      "ħ": 189,
      "Ĩ": 190,
      "ĩ": 191,
      "Ī": 192,
      "ī": 193,
      "Ĭ": 194,
      "ĭ": 195,
      "Į": 196,
      "į": 197,
      "İ": 198,
      "ı": 199,
      "Ĳ": 200,
      "ĳ": 201,
      "Ĵ": 202,
      "ĵ": 203,
      "Ķ": 204,
      "ķ": 205,
      "ĸ": 206,
      "Ĺ": 207,
      "ĺ": 208,
      "Ļ": 209,
      "ļ": 210,
      "Ľ": 211,
      "ľ": 212,
      "Ŀ": 213,
      "ŀ": 214,
      "Ł": 215,
      "ł": 216,
      "Ń": 217,
      "Ġt": 218,
      "he": 219,
      "Ġa": 220,
      "in": 221,
      "Ġthe": 222,
      "re": 223,
      "Ġs": 224,
      "Ġw": 225,
      "nd": 226,
      "on": 227,
      "er": 228,
      "at": 229,
      "Ġb": 230,
      "ed": 231,
      "it": 232,
      "Ġo": 233,
      "Ġc": 234,
      "Ġf": 235,
      "Ġto": 236,
      "is": 237,
      "Ġand": 238,
      "en": 239,
      "Ġp": 240,
      "or": 241,
      "ou": 242,
      "an": 243,
      "es": 244,
      "ing": 245,
      "ar": 246,
      "Ġh": 247,
      "Ġm": 248,
      "al": 249,
      "Ġd": 250,
      "as": 251,
      "Ġin": 252,
      "Ġof": 253,
      "om": 254,
      "Ġl": 255,
      "ĠT": 256,
      "ic": 257,
      "il": 258,
      "Ġth": 259,
      "ion": 260,
      "Ġn": 261,
      "le": 262,
      "ay": 263,
      "ĠS": 264,
      "id": 265,
      "ent": 266,
      "Ġg": 267,
      "et": 268,
      "im": 269,
      "ot": 270,
      "Ġe": 271,
      "ve": 272,
      "st": 273,
      "Ġre": 274,
      "ut": 275,
      "ro": 276,
      "Ġhe": 277,
      "ad": 278,
      "ĠI": 279,
      "ac": 280,
      "am": 281,
      "ĠThe": 282,
      "Ġwas": 283,
      "el": 284,
      "ig": 285,
      "Ġy": 286,
      "Ġbe": 287,
      "ow": 288,
      "Ġon": 289,
      "ver": 290,
      "ĠA": 291,
      "ir": 292,
      "ly": 293,
      "Ġfor": 294,
      "Ġu": 295,
      "Ġis": 296,
      "ĠC": 297,
      "ith": 298,
      "ol": 299,
      "Ġit": 300,
      "ur": 301,
      "Ġst": 302,
      "ĠM": 303,
      "Ġwith": 304,
      "ec": 305,
      "Ġyou": 306,
      "ĠH": 307,
      "Ġthat": 308,
      "se": 309,
      "ĠB": 310,
      "ation": 311,
      "Ġha": 312,
      "'s": 313,
      "ce": 314,
      "ri": 315,
      "pp": 316,
      "Ġsa": 317,
      "Ġal": 318,
      "oo": 319,
      "Ġan": 320,
      "ke": 321,
      "ter": 322,
      "ĠP": 323,
      "Ġ\"": 324,
      "ul": 325,
      "Ġas": 326,
      "ch": 327,
      "Ġwe": 328,
      "Ġwh": 329,
      "ld": 330,
      "her": 331,
      "ĠL": 332,
      "ill": 333,
      "un": 334,
      "Ġpl": 335,
      "ant": 336,
      "Ġr": 337,
      "ĠW": 338,
      "ag": 339,
      "Ġat": 340,
      "ĠD": 341,
      "if": 342,
      "ct": 343,
      "Ġ2": 344,
      "Ġare": 345,
      "ers": 346,
      "ore": 347,
      "em": 348,
      "ĠF": 349,
      "Ġnot": 350,
      "Ġ1": 351,
      "ht": 352,
      "ew": 353,
      "Ġhis": 354,
      "Ġ(": 355,
      "ain": 356,
      "ĠR": 357,
      "us": 358,
      "est": 359,
      "um": 360,
      "rom": 361,
      "all": 362,
      "ab": 363,
      "Ġsh": 364,
      "ĠHe": 365,
      "Ġcom": 366,
      "ess": 367,
      "Ġpro": 368,
      "op": 369,
      "Ġcon": 370,
      "end": 371,
      "art": 372,
      "ist": 373,
      "ould": 374,
      "ate": 375,
      "Ġor": 376,
      "Ġex": 377,
      "ĠThey": 378,
      "very": 379,
      "Ġsaid": 380,
      "and": 381,
      "th": 382,
      "ĠE": 383,
      "ĠN": 384,
      "Ġher": 385,
      "ear": 386,
      "Ġdo": 387,
      "Ġli": 388,
      "Ġv": 389,
      "ity": 390,
      "Ġthey": 391,
      "Ġplay": 392,
      "ĠG": 393,
      "res": 394,
      "ked": 395,
      "On": 396,
      "Ġday": 397,
      "The": 398,
      "qu": 399,
      "ect": 400,
      "Ġhave": 401,
      "Ġup": 402,
      "Ġfrom": 403,
      "red": 404,
      "ard": 405,
      "ort": 406,
      "Ġso": 407,
      "nt": 408,
      "os": 409,
      "ive": 410,
      "ust": 411,
      "Ġk": 412,
      "Ġby": 413,
      "ment": 414,
      "ome": 415,
      "ĠJ": 416,
      "ies": 417,
      "ound": 418,
      "ide": 419,
      "Ġse": 420,
      "ight": 421,
      "Ġall": 422,
      "Ġsu": 423,
      "Ġcan": 424,
      "Ġ20": 425,
      "ap": 426,
      "Ġhad": 427,
      "ud": 428,
      "Ġbut": 429,
      "Ġch": 430,
      "ime": 431,
      "ack": 432,
      "Ġtr": 433,
      "Ġj": 434,
      "Ġthis": 435,
      "ĠShe": 436,
      "oc": 437,
      "ell": 438,
      "out": 439,
      "Ġwor": 440,
      "Ġsp": 441,
      "itt": 442,
      "ily": 443,
      "Ġde": 444,
      "ĠTim": 445,
      "Ġbig": 446,
      "ast": 447,
      "ake": 448,
      "our": 449,
      "ind": 450,
      "Ġab": 451,
      "ial": 452,
      "Ġwill": 453,
      "oug": 454,
      "Ġwere": 455,
      "od": 456,
      "Ġtheir": 457,
      "Ġtime": 458,
      "ame": 459,
      "ak": 460,
      "Ġwant": 461,
      "ost": 462,
      "ue": 463,
      "Ġthere": 464,
      "âĢ": 465,
      "Ġhapp": 466,
      "hen": 467,
      ".\"": 468,
      "Ġout": 469,
      "ice": 470,
      "ure": 471,
      "ong": 472,
      "are": 473,
      "riend": 474,
      "Ġyour": 475,
      "ood": 476,
      "iv": 477,
      "'t": 478,
      "ook": 479,
      "ĠO": 480,
      "ge": 481,
      "Ġshe": 482,
      "ry": 483,
      "ĠIt": 484,
      "Ġfriend": 485,
      "Ġvery": 486,
      "Ġne": 487,
      "ther": 488,
      "Ġcl": 489,
      "Ġme": 490,
      "ia": 491,
      "ĠU": 492,
      "ine": 493,
      "ff": 494,
      "Ġhas": 495,
      "one": 496,
      "ally": 497,
      "ep": 498,
      "Ġle": 499,
      "ved": 500,
      "ug": 501,
      "Ġint": 502,
      "Ġman": 503,
      "Ġar": 504,
      "uc": 505,
      "Ġgo": 506,
      "ip": 507,
      "og": 508,
      "ous": 509,
      "act": 510,
      "ich": 511,
      "ark": 512,
      "ree": 513,
      "00": 514,
      "ber": 515,
      "ions": 516,
      "Ġad": 517,
      "Ġcomp": 518,
      "ittle": 519,
      "One": 520,
      "Ġmore": 521,
      "Ġus": 522,
      "Ġsm": 523,
      "Ġhel": 524,
      "ĠIn": 525,
      "ra": 526,
      "ĠK": 527,
      "per": 528,
      "age": 529,
      "Ġen": 530,
      "Ġlittle": 531,
      "ated": 532,
      "Ġwho": 533,
      "oy": 534,
      "Ġthem": 535,
      "Ġkn": 536,
      "ace": 537,
      "..": 538,
      "Ġhappy": 539,
      "able": 540,
      "Ġmom": 541,
      "Ġhelp": 542,
      "Ġother": 543,
      "Ġsaw": 544,
      "ans": 545,
      "ĠSt": 546,
      "Ġone": 547,
      "iz": 548,
      "Ġro": 549,
      "ary": 550,
      "Ġabout": 551,
      "Ġim": 552,
      "Ġnew": 553,
      "pt": 554,
      "pl": 555,
      "ĠY": 556,
      "ond": 557,
      "Ġsc": 558,
      "ach": 559,
      "Ġag": 560,
      "ĠTh": 561,
      "ie": 562,
      "hed": 563,
      "Ġtoo": 564,
      "cc": 565,
      "Ġ201": 566,
      "Ġpr": 567,
      "Ġwould": 568,
      "orm": 569,
      "ub": 570,
      "ays": 571,
      "ite": 572,
      "ings": 573,
      "own": 574,
      "Ġmy": 575,
      "Ġcont": 576,
      "ough": 577,
      "amed": 578,
      "ance": 579,
      "Ġbec": 580,
      "Ġgr": 581,
      "so": 582,
      "ird": 583,
      "Ġlike": 584,
      "Ġlo": 585,
      "Ġun": 586,
      "Ġdid": 587,
      "get": 588,
      "ks": 589,
      "ire": 590,
      "reat": 591,
      "ass": 592,
      "Ġcould": 593,
      "ile": 594,
      "Ġinc": 595,
      "ical": 596,
      "av": 597,
      "ob": 598,
      "ere": 599,
      "ase": 600,
      "ish": 601,
      "Ġwhich": 602,
      "Ġnamed": 603,
      "Ġres": 604,
      "ign": 605,
      "ations": 606,
      "Ġapp": 607,
      "ail": 608,
      "Ġfriends": 609,
      "Ġwanted": 610,
      "Ġsome": 611,
      "ll": 612,
      "Ġwhat": 613,
      "ĠCh": 614,
      "ĠV": 615,
      "ult": 616,
      "Ġour": 617,
      "Ġoff": 618,
      "ib": 619,
      "ence": 620,
      "ade": 621,
      "!\"": 622,
      "Ġhim": 623,
      "Ġev": 624,
      "ick": 625,
      "Ġany": 626,
      "Ġwhen": 627,
      "ĠTom": 628,
      "Ġyear": 629,
      "Ġper": 630,
      "ĠLily": 631,
      "Ġfun": 632,
      "Ġpe": 633,
      "ents": 634,
      "ĠâĢ": 635,
      "vel": 636,
      "ount": 637,
      "Ġwent": 638,
      "Ġqu": 639,
      "Ġpre": 640,
      "ord": 641,
      "Ġalso": 642,
      "Ġpart": 643,
      "Ġits": 644,
      "ress": 645,
      "Ġback": 646,
      "Ġget": 647,
      "Ġdis": 648,
      "uct": 649,
      "Ġthan": 650,
      "Ġbird": 651,
      "use": 652,
      "Ġ3": 653,
      "ater": 654,
      "wn": 655,
      "Ġno": 656,
      "ful": 657,
      "ory": 658,
      "Ġover": 659,
      "fter": 660,
      "Ġbeen": 661,
      "ors": 662,
      "ax": 663,
      "Once": 664,
      "hing": 665,
      "Ġupon": 666,
      "ang": 667,
      "form": 668,
      "low": 669,
      "ild": 670,
      "Ġinto": 671,
      "port": 672,
      "Ġbr": 673,
      "Ġsee": 674,
      "Ġmake": 675,
      "nder": 676,
      "mer": 677,
      "Ġfe": 678,
      "Ġwork": 679,
      "ition": 680,
      "ople": 681,
      "Ġtoget": 682,
      "Ġtogether": 683,
      "ens": 684,
      "Ġam": 685,
      "old": 686,
      "here": 687,
      "Ġrec": 688,
      "ose": 689,
      "Ġstart": 690,
      "Ġfound": 691,
      ",\"": 692,
      "Ġevery": 693,
      "int": 694,
      "Ġjust": 695,
      "irst": 696,
      "Ġ19": 697,
      "Ġhow": 698,
      "Ġser": 699,
      "Ġif": 700,
      "ian": 701,
      "Ġcat": 702,
      "Ġtw": 703,
      "Ġcar": 704,
      "vers": 705,
      "Ġ-": 706,
      "Ġte": 707,
      "Ġgood": 708,
      "Ġpeople": 709,
      "Ġtoy": 710,
      "Ġbl": 711,
      "ink": 712,
      "igh": 713,
      "Ġknow": 714,
      "ause": 715,
      "Ġla": 716,
      "ict": 717,
      "side": 718,
      "ious": 719,
      "Ġneed": 720,
      "lect": 721,
      "omet": 722,
      "irl": 723,
      "anc": 724,
      "ely": 725,
      "ise": 726,
      "Ġdec": 727,
      "uch": 728,
      "Ġunder": 729,
      "ĠWe": 730,
      "ouse": 731,
      "ning": 732,
      "Th": 733,
      "Ġco": 734,
      "ĠBut": 735,
      "Ġaw": 736,
      "Ġbet": 737,
      "als": 738,
      "Ġlook": 739,
      "ited": 740,
      "oth": 741,
      "Ġdog": 742,
      "ons": 743,
      "Ġmade": 744,
      "Ġagain": 745,
      "Ġmany": 746,
      "Ġacc": 747,
      "?\"": 748,
      "my": 749,
      "Ġact": 750,
      "ft": 751,
      "ought": 752,
      "ĠSp": 753,
      "Ġfind": 754,
      "Ġthen": 755,
      "ving": 756,
      "Ġgirl": 757,
      "Ġbo": 758,
      "Ġfirst": 759,
      "ty": 760,
      "Ġplayed": 761,
      "Ġball": 762,
      "gr": 763,
      "ĠYou": 764,
      "Ġstr": 765,
      "Ġcol": 766,
      "ared": 767,
      "les": 768,
      "ates": 769,
      "lic": 770,
      "Ġdown": 771,
      "iss": 772,
      "lud": 773,
      "hn": 774,
      "Ġcomm": 775,
      "Ġsomet": 776,
      "iff": 777,
      "ove": 778,
      "we": 779,
      "20": 780,
      "Ġhome": 781,
      "Ġafter": 782,
      "urn": 783,
      "ĠâĢĵ": 784,
      "pect": 785,
      "Ġdes": 786,
      "Ġ4": 787,
      ").": 788,
      "rough": 789,
      "Ġshow": 790,
      "tern": 791,
      "Ġind": 792,
      "ĠAnd": 793,
      "Ġbecause": 794,
      "Ġtwo": 795,
      "Ġloo": 796,
      "Ġboy": 797,
      "ave": 798,
      "amp": 799,
      "xt": 800,
      "Ġsmall": 801,
      "ool": 802,
      "Ġ5": 803,
      "Ġonly": 804,
      "Ġke": 805,
      "ational": 806,
      "ĠUn": 807,
      "Ġsad": 808,
      "other": 809,
      "elt": 810,
      "ĠThis": 811,
      "ng": 812,
      "Ġaround": 813,
      "ities": 814,
      "row": 815,
      "ank": 816,
      "enc": 817,
      "Ġtree": 818,
      "iew": 819,
      "Ġthrough": 820,
      "Ġmost": 821,
      "Ġlooked": 822,
      "ss": 823,
      "Ġbu": 824,
      "Ġloved": 825,
      "Ġinclud": 826,
      "ual": 827,
      "Ġsur": 828,
      "Ġlong": 829,
      "Ġmay": 830,
      "pr": 831,
      "ĠOne": 832,
      "Ġprov": 833,
      "ating": 834,
      "day": 835,
      "Ġtri": 836,
      "Ġfl": 837,
      "ov": 838,
      "Ġput": 839,
      "Ġem": 840,
      "alk": 841,
      "hy": 842,
      "ject": 843,
      "Ġsomething": 844,
      "Ġmuch": 845,
      "fore": 846,
      "Ġcame": 847,
      "Ġeven": 848,
      "Ġbest": 849,
      "olog": 850,
      "Ġwhere": 851,
      "Ġdiff": 852,
      "Ġop": 853,
      "Ġpo": 854,
      "Ġadd": 855,
      "elf": 856,
      "rit": 857,
      "Ġyears": 858,
      "Ġrem": 859,
      "Ġstarted": 860,
      "Ġlear": 861,
      "Ġuse": 862,
      "Ġnow": 863,
      "Ġinv": 864,
      "Ġrel": 865,
      "Ġway": 866,
      "ont": 867,
      "Ġpark": 868,
      "ife": 869,
      "aking": 870,
      "Ġstud": 871,
      "ied": 872,
      "Ġ'": 873,
      "ĠRe": 874,
      "Ġwell": 875,
      "Ġcare": 876,
      "ath": 877,
      "Ġatt": 878,
      "Ġspec": 879,
      "ific": 880,
      "Ġthings": 881,
      "Ġimp": 882,
      "),": 883,
      "ull": 884,
      "air": 885,
      "ĠSue": 886,
      "Ġsupp": 887,
      "ne": 888,
      "Ġaway": 889,
      "Ġreg": 890,
      "ident": 891,
      "Ġshould": 892,
      "Ġasked": 893,
      "ĠMax": 894,
      "let": 895,
      "ĠCom": 896,
      "ened": 897,
      "Ġboth": 898,
      "ump": 899,
      "Ġlot": 900,
      "Ġthese": 901,
      "ased": 902,
      "Ġhigh": 903,
      "ics": 904,
      "ange": 905,
      "ert": 906,
      "gan": 907,
      "Ġthought": 908,
      "Ġend": 909,
      "Ġac": 910,
      "Ġtake": 911,
      "ures": 912,
      "Ġfelt": 913,
      "com": 914,
      "erm": 915,
      "oup": 916,
      "ĠAn": 917,
      "Ġdon": 918,
      "hes": 919,
      "Ġsy": 920,
      "ĠBen": 921,
      "Ġcons": 922,
      "Ġfam": 923,
      "In": 924,
      "Ġprod": 925,
      "Ġgreat": 926,
      "ĠSam": 927,
      "hat": 928,
      "Ġsec": 929,
      "Ġfin": 930,
      "ock": 931,
      "iled": 932,
      "ix": 933,
      "any": 934,
      "Ġpol": 935,
      "ices": 936,
      "ways": 937,
      "Ġbeing": 938,
      "Ġright": 939,
      "uck": 940,
      "arm": 941,
      "Ġeach": 942,
      "up": 943,
      "ative": 944,
      "ments": 945,
      "hip": 946,
      "Ġown": 947,
      "uring": 948,
      "Ġliked": 949,
      "Ġred": 950,
      "Ġexc": 951,
      "ee": 952,
      "Ġsays": 953,
      "Ġbus": 954,
      "oss": 955,
      "Ġass": 956,
      "alth": 957,
      "ility": 958,
      "rop": 959,
      "ĠNew": 960,
      "Ġcall": 961,
      "ible": 962,
      "ember": 963,
      "ble": 964,
      "velop": 965,
      "ular": 966,
      "erson": 967,
      "Ġgot": 968,
      "ren": 969,
      "ned": 970,
      "ork": 971,
      "und": 972,
      "Ġread": 973,
      "iness": 974,
      "Ġhouse": 975,
      "ting": 976,
      "Ġrun": 977,
      "ny": 978,
      "Ġhand": 979,
      "chool": 980,
      "Ġfeel": 981,
      "ered": 982,
      "pped": 983,
      "str": 984,
      "Ġtook": 985,
      "ĠAr": 986,
      "Ġsuch": 987,
      "Ġ200": 988,
      "az": 989,
      "Ġ6": 990,
      "Ġ&": 991,
      "ement": 992,
      "ves": 993,
      "Ġent": 994,
      "ided": 995,
      "ience": 996,
      "ck": 997,
      "ward": 998,
      "ener": 999,
      "Ġworld": 1000,
      "Ġsk": 1001,
      "ivers": 1002,
      "its": 1003,
      "Ġmon": 1004,
      "Ġalways": 1005,
      "Ġfr": 1006,
      "ĠSo": 1007,
      "Ġexper": 1008,
      "Ġ$": 1009,
      "Ġbefore": 1010,
      "Ġwater": 1011,
      "Ġsub": 1012,
      "Ġdiffere": 1013,
      "Ġset": 1014,
      "Ġplaying": 1015,
      "Ġpres": 1016,
      "oud": 1017,
      "land": 1018,
      "ner": 1019,
      "ient": 1020,
      "ven": 1021,
      "Ġcle": 1022,
      "io": 1023,
      "rib": 1024,
      "Ġgu": 1025,
      "Ġthink": 1026,
      "stem": 1027,
      "oun": 1028,
      "Ġbook": 1029,
      "ex": 1030,
      "ollow": 1031,
      "'re": 1032,
      "Ġcr": 1033,
      "br": 1034,
      "Ġstill": 1035,
      "ower": 1036,
      "Ġwhile": 1037,
      "ublic": 1038,
      "led": 1039,
      "Ġeff": 1040,
      "Ġche": 1041,
      "Ġcount": 1042,
      "aw": 1043,
      "irect": 1044,
      "Ġlist": 1045,
      "Ġdoes": 1046,
      "Ġused": 1047,
      "Ġart": 1048,
      "Ġmet": 1049,
      "Ġhere": 1050,
      "Ġcur": 1051,
      "Ġbel": 1052,
      "Ġph": 1053,
      "ĠAl": 1054,
      "Ġsmiled": 1055,
      "ues": 1056,
      "atch": 1057,
      "Ġsay": 1058,
      "ah": 1059,
      "19": 1060,
      "Ġloc": 1061,
      "'m": 1062,
      "Ġ10": 1063,
      "Ġ7": 1064,
      "ric": 1065,
      "Ġserv": 1066,
      "Ġdisc": 1067,
      "Ġran": 1068,
      "Ġtrans": 1069,
      "ars": 1070,
      "formation": 1071,
      "arch": 1072,
      "Ġlet": 1073,
      "ised": 1074,
      "Ġbox": 1075,
      "ters": 1076,
      "ather": 1077,
      "ĠPro": 1078,
      "ĠAs": 1079,
      "iet": 1080,
      "Ġgl": 1081,
      "Ġthose": 1082,
      "man": 1083,
      "Ġdr": 1084,
      "ale": 1085,
      "Ġold": 1086,
      "Ġide": 1087,
      "akes": 1088,
      "ins": 1089,
      "Ġob": 1090,
      "Ġsw": 1091,
      "Ġdevelop": 1092,
      "Ġcre": 1093,
      "Ġmod": 1094,
      "ason": 1095,
      "Ġroom": 1096,
      "ged": 1097,
      "We": 1098,
      "ince": 1099,
      "meric": 1100,
      "It": 1101,
      "Ġadv": 1102,
      "ph": 1103,
      "Ġreal": 1104,
      "ional": 1105,
      "Ġbetter": 1106,
      "Ġsun": 1107,
      "Ġwr": 1108,
      "ĠTr": 1109,
      "Ġlead": 1110,
      "Ġfollow": 1111,
      "ier": 1112,
      "iel": 1113,
      "ĠĊ": 1114,
      "ished": 1115,
      "Ġrep": 1116,
      "ĠSh": 1117,
      "gram": 1118,
      "Ġmed": 1119,
      "Ġlaug": 1120,
      "cess": 1121,
      "Ġ8": 1122,
      "Ġplace": 1123,
      "Ġmin": 1124,
      "na": 1125,
      "Ġperson": 1126,
      "ef": 1127,
      "view": 1128,
      "ĠSpot": 1129,
      "Ġgoing": 1130,
      "Ġnum": 1131,
      "Ġlove": 1132,
      "ween": 1133,
      "Ġsign": 1134,
      "...": 1135,
      "Ġcome": 1136,
      "Ġrequ": 1137,
      "Ġdifferent": 1138,
      "ever": 1139,
      "Ġvis": 1140,
      "Ġtry": 1141,
      "Ġchild": 1142,
      "lease": 1143,
      "echn": 1144,
      "Ġinter": 1145,
      "ines": 1146,
      "ired": 1147,
      "Ġexp": 1148,
      "Ġpret": 1149,
      "Ġnever": 1150,
      "Ġfamily": 1151,
      "Ġlife": 1152,
      "ts": 1153,
      "ash": 1154,
      "Ġcour": 1155,
      "Ġlast": 1156,
      "Ġproduct": 1157,
      "vern": 1158,
      "Ġsystem": 1159,
      "ually": 1160,
      "orn": 1161,
      "ames": 1162,
      "Ġdef": 1163,
      "Ġimport": 1164,
      "arket": 1165,
      "imes": 1166,
      "read": 1167,
      "Ġsl": 1168,
      "Ġlived": 1169,
      "10": 1170,
      "ata": 1171,
      "Ġ9": 1172,
      "ĠJo": 1173,
      "Ġbetween": 1174,
      "Ġdet": 1175,
      "ized": 1176,
      "ĠCl": 1177,
      "cept": 1178,
      "ution": 1179,
      "Ġsupport": 1180,
      "ology": 1181,
      "Ġref": 1182,
      "Ġret": 1183,
      "Ġcommun": 1184,
      "uth": 1185,
      "der": 1186,
      "Ġscared": 1187,
      "Ġthree": 1188,
      "Ġ0": 1189,
      "Ġplan": 1190,
      "ism": 1191,
      "Ġtoys": 1192,
      "Ġhard": 1193,
      "ĠLe": 1194,
      "Ġed": 1195,
      "Ġgame": 1196,
      "ital": 1197,
      "Ġbecame": 1198,
      "ĠAmeric": 1199,
      "Ġwee": 1200,
      "Ġbusiness": 1201,
      "Ġav": 1202,
      "ages": 1203,
      "Ġnear": 1204,
      "reen": 1205,
      "Ġtold": 1206,
      "ness": 1207,
      "Ġchar": 1208,
      "Ġtried": 1209,
      "Ġnext": 1210,
      "This": 1211,
      "iversity": 1212,
      "ross": 1213,
      "000": 1214,
      "Ġspecial": 1215,
      "Ġoutside": 1216,
      "Ġreally": 1217,
      "Ġkind": 1218,
      "Ġins": 1219,
      "ants": 1220,
      "Ġform": 1221,
      "Ġexpl": 1222,
      "Ġsim": 1223,
      "Ġext": 1224,
      "line": 1225,
      "Ġconf": 1226,
      "Ġpoint": 1227,
      "ote": 1228,
      "Ġinformation": 1229,
      "yp": 1230,
      ".,": 1231,
      "Ġsame": 1232,
      "rap": 1233,
      "Ġfood": 1234,
      "Ġteam": 1235,
      "uss": 1236,
      "Ġinst": 1237,
      "ĠSc": 1238,
      "ĠFor": 1239,
      "be": 1240,
      "ott": 1241,
      "Ġknew": 1242,
      "Ġdel": 1243,
      "ret": 1244,
      "self": 1245,
      "ute": 1246,
      "\\\\": 1247,
      "Ġturn": 1248,
      "Ġear": 1249,
      "Ġdesign": 1250,
      "Ġtop": 1251,
      "gy": 1252,
      "Ġkeep": 1253,
      "Ġdidn": 1254,
      "Ġsaf": 1255,
      "by": 1256,
      "thing": 1257,
      "ists": 1258,
      "erest": 1259,
      "ield": 1260,
      "Ġpur": 1261,
      "erv": 1262,
      "Ġcontin": 1263,
      "aint": 1264,
      "ĠIf": 1265,
      "Ġschool": 1266,
      "ger": 1267,
      "Ġpat": 1268,
      "Ġopen": 1269,
      "Ġbro": 1270,
      "As": 1271,
      "Ġmus": 1272,
      "Ġfore": 1273,
      "Ġbuild": 1274,
      "ces": 1275,
      "ets": 1276,
      "ives": 1277,
      "Ġdecided": 1278,
      "ĠMia": 1279,
      "Tim": 1280,
      "ĠBl": 1281,
      "ucy": 1282,
      "ton": 1283,
      "Ġgener": 1284,
      "Ġunt": 1285,
      "Ġinf": 1286,
      "ĠAd": 1287,
      "But": 1288,
      "'ve": 1289,
      "Ġwa": 1290,
      "Ġlar": 1291,
      "ĠInd": 1292,
      "ĠGr": 1293,
      "Ġhead": 1294,
      "Ġdist": 1295,
      "Ġlearned": 1296,
      "ection": 1297,
      "Ġprogram": 1298,
      "ys": 1299,
      "Ġduring": 1300,
      "oot": 1301,
      "Ġdirect": 1302,
      "bers": 1303,
      "Ġimportant": 1304,
      "Ġreport": 1305,
      "Ġstory": 1306,
      "Ġcent": 1307,
      "aut": 1308,
      "Ġgive": 1309,
      "Ġfil": 1310,
      "con": 1311,
      "Ġcap": 1312,
      "Ġhealth": 1313,
      "Ġmust": 1314,
      "less": 1315,
      "ize": 1316,
      "âĢ¦": 1317,
      "ĠIs": 1318,
      "ĠWh": 1319,
      "You": 1320,
      "Ġgroup": 1321,
      "Ġanother": 1322,
      "Ġpretty": 1323,
      "Ġanim": 1324,
      "ĠHis": 1325,
      "ww": 1326,
      "ane": 1327,
      "ural": 1328,
      "oll": 1329,
      "ĠZ": 1330,
      "illion": 1331,
      "rent": 1332,
      "els": 1333,
      "Ġcor": 1334,
      "Ġval": 1335,
      "ature": 1336,
      "ĠThere": 1337,
      "ined": 1338,
      "Ġinside": 1339,
      "They": 1340,
      "Ġpost": 1341,
      "Ġfact": 1342,
      "Ġ18": 1343,
      "Ġorgan": 1344,
      "Ġshare": 1345,
      "ĠDe": 1346,
      "ike": 1347,
      "ĠAll": 1348,
      "Ġsurpr": 1349,
      "Ġever": 1350,
      "ĠFr": 1351,
      "Ġdep": 1352,
      "....": 1353,
      "Ġmem": 1354,
      "Ġincluding": 1355,
      "ision": 1356,
      "Ġdri": 1357,
      "Ġpartic": 1358,
      "stand": 1359,
      "outh": 1360,
      "Ġuntil": 1361,
      "Ġprocess": 1362,
      "Ġsol": 1363,
      "Ġconc": 1364,
      "Ġpri": 1365,
      "den": 1366,
      "Ġinterest": 1367,
      "ĠCan": 1368,
      "aj": 1369,
      "ids": 1370,
      "Ġmarket": 1371,
      "Ġsoc": 1372,
      "bs": 1373,
      "Ġfew": 1374,
      "ĠWhen": 1375,
      "ral": 1376,
      "ern": 1377,
      "Ġleg": 1378,
      "ody": 1379,
      "Ġresp": 1380,
      "Ġpublic": 1381,
      "Ġtechn": 1382,
      "Lily": 1383,
      "Ġbeh": 1384,
      "ĠâĢĶ": 1385,
      "ract": 1386,
      "att": 1387,
      "Ġpass": 1388,
      "ms": 1389,
      "Ġjump": 1390,
      "ering": 1391,
      "ĠBob": 1392,
      "Ġiss": 1393,
      "Ġsing": 1394,
      "Ġgrow": 1395,
      "Ġidea": 1396,
      "Ġnice": 1397,
      "ention": 1398,
      "Ġgave": 1399,
      "ik": 1400,
      "Ġ.": 1401,
      "Ġresult": 1402,
      "Ġprof": 1403,
      "Ġstand": 1404,
      "ling": 1405,
      "iny": 1406,
      "uff": 1407,
      "inal": 1408,
      "ense": 1409,
      "aining": 1410,
      "vernment": 1411,
      "ĠBe": 1412,
      "Ġlaw": 1413,
      "uary": 1414,
      "Ġcalled": 1415,
      "Ġwalk": 1416,
      "ĠPl": 1417,
      "ĠAt": 1418,
      "ina": 1419,
      "ced": 1420,
      "Ġdata": 1421,
      "ps": 1422,
      "Ġ[": 1423,
      "Ġfast": 1424,
      "Ġmonth": 1425,
      "ĠLucy": 1426,
      "Ġmight": 1427,
      "Ġeas": 1428,
      "Ġnumber": 1429,
      "ides": 1430,
      "ĠQ": 1431,
      "Ġwom": 1432,
      "Ġwind": 1433,
      "Ġvar": 1434,
      "ĠComm": 1435,
      "Ġfull": 1436,
      "alked": 1437,
      "ĠHow": 1438,
      "ically": 1439,
      "Ġrest": 1440,
      "âĢĶ": 1441,
      "oney": 1442,
      "Ġwithout": 1443,
      "ream": 1444,
      "'ll": 1445,
      "Ġexcited": 1446,
      "Ġprom": 1447,
      "Ġflow": 1448,
      "Ġless": 1449,
      "Ġpower": 1450,
      "Ġperform": 1451,
      "Ġstrong": 1452,
      "Ġcompany": 1453,
      "ĠBr": 1454,
      "Ġprot": 1455,
      "Ġproject": 1456,
      "Ġmag": 1457,
      "ially": 1458,
      "aug": 1459,
      "Ġinvest": 1460,
      "ploy": 1461,
      "Ġincre": 1462,
      "Ġtre": 1463,
      "Ġlaughed": 1464,
      "pected": 1465,
      "Ġagainst": 1466,
      "ĠEx": 1467,
      "Ġcond": 1468,
      "Ġmaking": 1469,
      "ains": 1470,
      "ox": 1471,
      "//": 1472,
      "What": 1473,
      "ĠUniversity": 1474,
      "ara": 1475,
      "Ġwin": 1476,
      "Ġclos": 1477,
      "Ġdad": 1478,
      "Yes": 1479,
      "gest": 1480,
      "Ġ12": 1481,
      "Ġfree": 1482,
      "Ġposs": 1483,
      "Ġsecond": 1484,
      "Ġeat": 1485,
      "Ġeffect": 1486,
      "ĠMom": 1487,
      "ailable": 1488,
      "Ġopp": 1489,
      "Ġjo": 1490,
      "Ġmo": 1491,
      "co": 1492,
      "Ġfar": 1493,
      "ĠThat": 1494,
      "Ġallow": 1495,
      "iver": 1496,
      "ĠMay": 1497,
      "Ġelect": 1498,
      "Ġquest": 1499,
      "Ġusing": 1500,
      "ched": 1501,
      "rew": 1502,
      "Ġhaving": 1503,
      "Ġhug": 1504,
      "Ġpop": 1505,
      "Ġhum": 1506,
      "21": 1507,
      "Ġrece": 1508,
      "Ġsince": 1509,
      "the": 1510,
      "ries": 1511,
      "ĠFl": 1512,
      "rist": 1513,
      "sc": 1514,
      "ission": 1515,
      "ained": 1516,
      "aring": 1517,
      "te": 1518,
      "ĠCon": 1519,
      "rol": 1520,
      "aff": 1521,
      "ases": 1522,
      "ĠCol": 1523,
      "Ġclass": 1524,
      "ustom": 1525,
      "Ġrese": 1526,
      "Ġhist": 1527,
      "://": 1528,
      "Ġfle": 1529,
      "ĠUS": 1530,
      "raw": 1531,
      "ality": 1532,
      "ĠPh": 1533,
      "Ġhop": 1534,
      "ĠHer": 1535,
      "ards": 1536,
      "ency": 1537,
      "ider": 1538,
      "Ġel": 1539,
      "Ġbelie": 1540,
      "ĠRes": 1541,
      "Ġsit": 1542,
      "ster": 1543,
      "He": 1544,
      "Ġfish": 1545,
      "ately": 1546,
      "Ġtalk": 1547,
      "Ġoper": 1548,
      "Ġbad": 1549,
      "ories": 1550,
      "Ġclean": 1551,
      "Ġlight": 1552,
      "Tom": 1553,
      "Ġbeaut": 1554,
      "ĠOn": 1555,
      "joy": 1556,
      "Ġcomplet": 1557,
      "nce": 1558,
      "Ġmove": 1559,
      "ried": 1560,
      "ER": 1561,
      "ury": 1562,
      "Ġstate": 1563,
      "Ġappro": 1564,
      "Ġsn": 1565,
      "Ġspe": 1566,
      "Ġmean": 1567,
      "Ġlooking": 1568,
      "ĠPr": 1569,
      "ley": 1570,
      "Ġground": 1571,
      "Ġmanag": 1572,
      "iqu": 1573,
      "Ġann": 1574,
      "orth": 1575,
      "Ġthing": 1576,
      "ccess": 1577,
      "Ġothers": 1578,
      "Ġpay": 1579,
      "Ġchildren": 1580,
      "orry": 1581,
      "ior": 1582,
      "ator": 1583,
      "Ġfac": 1584,
      "Ġcareful": 1585,
      "Ġavailable": 1586,
      "Ġest": 1587,
      "Ġheard": 1588,
      "Ġproble": 1589,
      "11": 1590,
      "Ġlevel": 1591,
      "ently": 1592,
      "Ġhappened": 1593,
      "ats": 1594,
      "ĠMar": 1595,
      "50": 1596,
      "Ġrock": 1597,
      "Ġsure": 1598,
      "urt": 1599,
      "Ġdem": 1600,
      "Ġtest": 1601,
      "arent": 1602,
      "Ġdays": 1603,
      "Ġseem": 1604,
      "Ġmusic": 1605,
      "Ġpos": 1606,
      "Ġstay": 1607,
      "St": 1608,
      "Ġmar": 1609,
      "Ġland": 1610,
      "Ġclim": 1611,
      "ead": 1612,
      "more": 1613,
      "Ġbre": 1614,
      "Ġprev": 1615,
      "Ġstat": 1616,
      "Ġcurrent": 1617,
      "Ġtell": 1618,
      "Ġexperience": 1619,
      "ĠCent": 1620,
      "Ġnight": 1621,
      "icy": 1622,
      "lo": 1623,
      "med": 1624,
      "Ġable": 1625,
      "ĠJohn": 1626,
      "ney": 1627,
      "Ġcost": 1628,
      "iful": 1629,
      "Ġjob": 1630,
      "uthor": 1631,
      "ium": 1632,
      "Ġleft": 1633,
      "Ġtoday": 1634,
      "ĠĠ": 1635,
      "Ġet": 1636,
      "Ġwhy": 1637,
      "ĠOr": 1638,
      "earch": 1639,
      "Ġenjoy": 1640,
      "iron": 1641,
      "Ġrecord": 1642,
      "oci": 1643,
      "conom": 1644,
      "inc": 1645,
      "Ġbas": 1646,
      "Ġfour": 1647,
      "ortun": 1648,
      "por": 1649,
      "aster": 1650,
      "Ġtyp": 1651,
      "to": 1652,
      "Ġname": 1653,
      "app": 1654,
      "aper": 1655,
      "Ġeng": 1656,
      "ung": 1657,
      "Ġair": 1658,
      "Ġmor": 1659,
      "ech": 1660,
      "Ġmeet": 1661,
      "Ġgiv": 1662,
      "af": 1663,
      "atter": 1664,
      "oice": 1665,
      "Ġunderstand": 1666,
      "ertain": 1667,
      "Ġpresent": 1668,
      "Ġsoft": 1669,
      "uction": 1670,
      "ients": 1671,
      "Ġchange": 1672,
      "ternational": 1673,
      "Ġpast": 1674,
      "ple": 1675,
      "istr": 1676,
      "ĠTo": 1677,
      "ĠFrom": 1678,
      "ization": 1679,
      "When": 1680,
      "iting": 1681,
      "Ġcase": 1682,
      "Ġsafe": 1683,
      "Ġanimals": 1684,
      "Ġopt": 1685,
      "12": 1686,
      "Ġworking": 1687,
      "Ġweek": 1688,
      "Ġwithin": 1689,
      "eng": 1690,
      "Ġfav": 1691,
      "Ġtreat": 1692,
      "une": 1693,
      "icle": 1694,
      "ured": 1695,
      "ĠEd": 1696,
      "Ġword": 1697,
      "icked": 1698,
      "Ġequ": 1699,
      "Ġben": 1700,
      "oor": 1701,
      "ole": 1702,
      "ĠMan": 1703,
      "Ġpract": 1704,
      "Ġ|": 1705,
      "arr": 1706,
      "30": 1707,
      "ĠThen": 1708,
      "Ġcustom": 1709,
      "Ġsound": 1710,
      "Ġservice": 1711,
      "min": 1712,
      "Ġeveryone": 1713,
      "ten": 1714,
      "Ġsorry": 1715,
      "Ġ199": 1716,
      "Ġaff": 1717,
      "Ġcountry": 1718,
      "Ġwatch": 1719,
      "acy": 1720,
      "Ġpict": 1721,
      "Ġview": 1722,
      "ĠWhat": 1723,
      "Ġchang": 1724,
      "oon": 1725,
      "Ġsqu": 1726,
      "Ġwalked": 1727,
      "Ġ15": 1728,
      "Ġ11": 1729,
      "ĠEng": 1730,
      "lish": 1731,
      "ister": 1732,
      "aim": 1733,
      "Ġpot": 1734,
      "Ġhold": 1735,
      "Ġbeautiful": 1736,
      "ability": 1737,
      "Ġve": 1738,
      "Ġfly": 1739,
      "ograp": 1740,
      "me": 1741,
      "ified": 1742,
      "iety": 1743,
      "Ġorder": 1744,
      "gin": 1745,
      "Ġprovide": 1746,
      "Ġtown": 1747,
      "Ġstore": 1748,
      "rel": 1749,
      "ĠÂ": 1750,
      "iam": 1751,
      "Ġsuccess": 1752,
      "Ġwhe": 1753,
      "Ġey": 1754,
      "ober": 1755,
      "ivid": 1756,
      "Ġgovernment": 1757,
      "Ġstudents": 1758,
      "itions": 1759,
      "cent": 1760,
      "Ġbear": 1761,
      "ift": 1762,
      "ron": 1763,
      "\".": 1764,
      "ok": 1765,
      "22": 1766,
      "arden": 1767,
      "Ġoffic": 1768,
      "used": 1769,
      "tt": 1770,
      "iec": 1771,
      "ination": 1772,
      "Ġaccess": 1773,
      "Ġcourse": 1774,
      "work": 1775,
      "ĠEvery": 1776,
      "Ġdone": 1777,
      "son": 1778,
      "ĠSe": 1779,
      "Ġcreat": 1780,
      "Ġlots": 1781,
      "Ġarea": 1782,
      "ising": 1783,
      "ably": 1784,
      "Ġsky": 1785,
      "18": 1786,
      "Ġbit": 1787,
      "ĠDo": 1788,
      "ush": 1789,
      "ĠJan": 1790,
      "ajor": 1791,
      "Ġactiv": 1792,
      "âĢĵ": 1793,
      "uly": 1794,
      "Ġcommunity": 1795,
      "An": 1796,
      "ĠChrist": 1797,
      "Ġz": 1798,
      "Ġlocal": 1799,
      "Ġterm": 1800,
      "Ġdoor": 1801,
      "Ġservices": 1802,
      "Ġindust": 1803,
      "abb": 1804,
      "ued": 1805,
      "ĠNo": 1806,
      "Ġmoney": 1807,
      "ĠWith": 1808,
      "ape": 1809,
      "Ġproper": 1810,
      "ours": 1811,
      "way": 1812,
      "Ġant": 1813,
      "Ġwrit": 1814,
      "pos": 1815,
      "rod": 1816,
      "Ġmillion": 1817,
      "Ġaddition": 1818,
      "osp": 1819,
      "Ġalong": 1820,
      "ĠAmerican": 1821,
      "IN": 1822,
      "Ġface": 1823,
      "Ġmil": 1824,
      "ode": 1825,
      "Ġemploy": 1826,
      "Ġresearch": 1827,
      "Ġdoing": 1828,
      "ĠDec": 1829,
      "ential": 1830,
      "Ġacross": 1831,
      "urs": 1832,
      "ording": 1833,
      "stit": 1834,
      "ma": 1835,
      "of": 1836,
      "Ġkids": 1837,
      "reed": 1838,
      "ery": 1839,
      "Ġcollect": 1840,
      "orld": 1841,
      "itive": 1842,
      "Ġlik": 1843,
      "ĠRep": 1844,
      "Ġyoung": 1845,
      "Ġ2018": 1846,
      "Ġsoon": 1847,
      "If": 1848,
      "ĠUnited": 1849,
      "Ġmakes": 1850,
      "esp": 1851,
      "Ġevent": 1852,
      "ots": 1853,
      "Ġbed": 1854,
      "Ġsong": 1855,
      "Ġbug": 1856,
      "ept": 1857,
      "Ġlearn": 1858,
      "Ġsat": 1859,
      "Ġbuy": 1860,
      "Ġmess": 1861,
      "opped": 1862,
      "lement": 1863,
      "rog": 1864,
      "uture": 1865,
      "Ġ2019": 1866,
      "Ġimpro": 1867,
      "uce": 1868,
      "ON": 1869,
      "Ġphot": 1870,
      "ĠCar": 1871,
      "ĠMed": 1872,
      "Ġopened": 1873,
      "ended": 1874,
      "Ġlost": 1875,
      "ample": 1876,
      "ĠFe": 1877,
      "irc": 1878,
      "Thank": 1879,
      "15": 1880,
      "Ġsocial": 1881,
      "ĠAmy": 1882,
      "Ġseen": 1883,
      "Ġfund": 1884,
      "Ġvisit": 1885,
      "Ġsal": 1886,
      "viron": 1887,
      "Ġbecome": 1888,
      "No": 1889,
      "Ġproud": 1890,
      "ify": 1891,
      "Ġenough": 1892,
      "ĠMr": 1893,
      "Ġ30": 1894,
      "dy": 1895,
      "Ġside": 1896,
      "Ġblue": 1897,
      "Ġapplic": 1898,
      "Ġhot": 1899,
      "err": 1900,
      "Ġparty": 1901,
      "ĠCo": 1902,
      "iding": 1903,
      "ĠAm": 1904,
      "sh": 1905,
      "uit": 1906,
      "omm": 1907,
      "Ġstudy": 1908,
      "urop": 1909,
      "Ġfur": 1910,
      "ians": 1911,
      "cl": 1912,
      "room": 1913,
      "isk": 1914,
      "ony": 1915,
      "Ġbar": 1916,
      "Ġanymore": 1917,
      "Ġnet": 1918,
      "Ġwon": 1919,
      "Ġhig": 1920,
      "oint": 1921,
      "Ġi": 1922,
      "fect": 1923,
      "Ġnews": 1924,
      "lished": 1925,
      "itc": 1926,
      "Ġcharac": 1927,
      "atic": 1928,
      "Ġpolit": 1929,
      "alf": 1930,
      "Ġ16": 1931,
      "Ġlive": 1932,
      "aces": 1933,
      "ences": 1934,
      "ucation": 1935,
      "Ġorig": 1936,
      "Ġmembers": 1937,
      "ending": 1938,
      "ES": 1939,
      "Ġtimes": 1940,
      "illed": 1941,
      "Ġlarge": 1942,
      "Ġnon": 1943,
      "Ġcamp": 1944,
      "Ġfoc": 1945,
      "ills": 1946,
      "ived": 1947,
      "Ġoften": 1948,
      "AT": 1949,
      "16": 1950,
      "Ġdev": 1951,
      "Ġgarden": 1952,
      "Ġstre": 1953,
      "ball": 1954,
      "AR": 1955,
      "Ġcity": 1956,
      "ele": 1957,
      "Ġprofess": 1958,
      "Ġmajor": 1959,
      "Ġquick": 1960,
      "orts": 1961,
      "ready": 1962,
      "urity": 1963,
      "Ġbased": 1964,
      "rown": 1965,
      "ulation": 1966,
      "Ġseason": 1967,
      "artment": 1968,
      "wards": 1969,
      "Ġlisten": 1970,
      "Ġwomen": 1971,
      "Ġbehind": 1972,
      "Let": 1973,
      "AN": 1974,
      "Ġvide": 1975,
      "hys": 1976,
      "ones": 1977,
      "Ġdevelopment": 1978,
      "Ġkey": 1979,
      "Ġhuman": 1980,
      "Ġline": 1981,
      "resent": 1982,
      "Ġeconom": 1983,
      "Ġocc": 1984,
      "Ġhelped": 1985,
      "ene": 1986,
      "Ġ14": 1987,
      "ateg": 1988,
      "Ġindivid": 1989,
      "Ġwar": 1990,
      "Ch": 1991,
      "Ġask": 1992,
      "Ġanal": 1993,
      "Ġworked": 1994,
      "Ġfire": 1995,
      "Ġflew": 1996,
      "Ġonline": 1997,
      "ĠFin": 1998,
      "sel": 1999,
      "Ġsever": 2000,
      "Ġang": 2001,
      "Ġpiec": 2002,
      "ĠSy": 2003,
      "oard": 2004,
      "urope": 2005,
      "ances": 2006,
      "ĠDr": 2007,
      "Ġtra": 2008,
      "Ġpar": 2009,
      "Ġtrad": 2010,
      "ĠNow": 2011,
      "Ġfield": 2012,
      "Ġlater": 2013,
      "ining": 2014,
      "Ġ17": 2015,
      "Ġfavor": 2016,
      "\\\\\\\\": 2017,
      "Ġinclude": 2018,
      "ĠComp": 2019,
      "vironment": 2020,
      "Ġfilm": 2021,
      "Ġfell": 2022,
      "Ġfall": 2023,
      "Ġreturn": 2024,
      "Mom": 2025,
      "Ġneeded": 2026,
      "Ġconn": 2027,
      "Ġthough": 2028,
      "Ġrepl": 2029,
      "17": 2030,
      "Ġalready": 2031,
      "Ġaut": 2032,
      "ipp": 2033,
      "Ġ2017": 2034,
      "Ġsurprised": 2035,
      "Ġshort": 2036,
      "Ġgames": 2037,
      "Ġpicked": 2038,
      "lex": 2039,
      "Ġstop": 2040,
      "ama": 2041,
      "utes": 2042,
      "ĠEm": 2043,
      "denly": 2044,
      "Ġclear": 2045,
      "14": 2046,
      "Ġbring": 2047,
      "Ġcontrol": 2048,
      "ique": 2049,
      "aps": 2050,
      "Wh": 2051,
      "ĠAss": 2052,
      "ĠYork": 2053,
      "Ġfuture": 2054,
      "ison": 2055,
      "ann": 2056,
      "Ġwebs": 2057,
      "Ġ/": 2058,
      "Ġbegan": 2059,
      "ows": 2060,
      "Ġident": 2061,
      "Ġfeat": 2062,
      "ument": 2063,
      "Ġsug": 2064,
      "ĠLet": 2065,
      "Ġcut": 2066,
      "aterial": 2067,
      "Ġearly": 2068,
      "ĠAct": 2069,
      "Ġmeans": 2070,
      "Ġhands": 2071,
      "ĠPol": 2072,
      "Ġshowed": 2073,
      "Ġwond": 2074,
      "Ġ13": 2075,
      "Ġcake": 2076,
      "Ġgetting": 2077,
      "Ġseveral": 2078,
      "sy": 2079,
      "That": 2080,
      "__": 2081,
      "Ġunex": 2082,
      "ights": 2083,
      "Ġauthor": 2084,
      "Ġclose": 2085,
      "Ġmult": 2086,
      "ai": 2087,
      "Ġhistory": 2088,
      "ored": 2089,
      "ĠMy": 2090,
      "ails": 2091,
      "ĠState": 2092,
      "eral": 2093,
      "Ġgreen": 2094,
      "Ġheld": 2095,
      "ither": 2096,
      "ourn": 2097,
      "Ġclimb": 2098,
      "ĠAfter": 2099,
      "Ġcomes": 2100,
      "idence": 2101,
      "for": 2102,
      "ĠApp": 2103,
      "Ġinvol": 2104,
      "Ġlim": 2105,
      "oring": 2106,
      "Ġloud": 2107,
      "Ġcook": 2108,
      "Ġrele": 2109,
      "Ġ2016": 2110,
      "Ġpossible": 2111,
      "13": 2112,
      "Ġcult": 2113,
      "OR": 2114,
      "unch": 2115,
      "Ġunexpected": 2116,
      "eter": 2117,
      "enn": 2118,
      "Ġaccount": 2119,
      "most": 2120,
      "ption": 2121,
      "Ġnec": 2122,
      "iod": 2123,
      "Ġcoming": 2124,
      "Ġreview": 2125,
      "Ġwarm": 2126,
      "'d": 2127,
      "irt": 2128,
      "Ġneeds": 2129,
      "obal": 2130,
      "Ġopportun": 2131,
      "eal": 2132,
      "Ġcertain": 2133,
      "Ġmen": 2134,
      "ĠEurope": 2135,
      "ĠAnna": 2136,
      "Ġleast": 2137,
      "erence": 2138,
      "not": 2139,
      "ĠMin": 2140,
      "ĠNational": 2141,
      "At": 2142,
      "dle": 2143,
      "Ġforest": 2144,
      "aken": 2145,
      "Ġ2020": 2146,
      "Ġsite": 2147,
      "ands": 2148,
      "Ġsle": 2149,
      "Ġparticular": 2150,
      "Ġplease": 2151,
      "Ġmiss": 2152,
      "Ġshiny": 2153,
      "ĠGo": 2154,
      "Ġcry": 2155,
      "aves": 2156,
      "Ġmov": 2157,
      "Ġknown": 2158,
      "Ġdoll": 2159,
      "ĠWorld": 2160,
      "kay": 2161,
      "ĠPres": 2162,
      "org": 2163,
      "ĠSu": 2164,
      "ĠCity": 2165,
      "Ġfollowing": 2166,
      "ĠEn": 2167,
      "Ġparent": 2168,
      "book": 2169,
      "Ġtrying": 2170,
      "Ġcompet": 2171,
      "Ġtable": 2172,
      "iol": 2173,
      "How": 2174,
      "ĠStates": 2175,
      "Ġbreak": 2176,
      "utions": 2177,
      "ĠNe": 2178,
      "zy": 2179,
      "ĠSchool": 2180,
      "Ġbenef": 2181,
      "ĠCount": 2182,
      "So": 2183,
      "ource": 2184,
      "Ġlow": 2185,
      "Ġclaim": 2186,
      "ĠApr": 2187,
      "Ġheart": 2188,
      "Ġpriv": 2189,
      "Ġpaper": 2190,
      "uced": 2191,
      "lege": 2192,
      "ises": 2193,
      "Ġanything": 2194,
      "Ġmind": 2195,
      "Ġhurt": 2196,
      "Ġeverything": 2197,
      "ĠGu": 2198,
      "Ġworks": 2199,
      "ners": 2200,
      "ogn": 2201,
      "Ġtax": 2202,
      "Ġmain": 2203,
      "ĠOct": 2204,
      "hod": 2205,
      "urch": 2206,
      "Ġvol": 2207,
      "Ġdraw": 2208,
      "Ġcouldn": 2209,
      "ached": 2210,
      "Ġperfect": 2211,
      "Ġcomb": 2212,
      "mb": 2213,
      "Ġamong": 2214,
      "Ġtem": 2215,
      "Ġbody": 2216,
      "Ġfive": 2217,
      "Ġmeas": 2218,
      "ĠX": 2219,
      "There": 2220,
      "ĠGod": 2221,
      "abor": 2222,
      "Ġseries": 2223,
      "ule": 2224,
      "Ġbuilding": 2225,
      "Ġdeal": 2226,
      "ilt": 2227,
      "Ġdiscuss": 2228,
      "over": 2229,
      "ources": 2230,
      "wer": 2231,
      "Ġexample": 2232,
      "anies": 2233,
      "ware": 2234,
      "Ġgiven": 2235,
      "par": 2236,
      "Ġoffer": 2237,
      "Ġsomeone": 2238,
      "Ġpersonal": 2239,
      "Ġfix": 2240,
      "Can": 2241,
      "Ġcreate": 2242,
      "raft": 2243,
      "Ġchall": 2244,
      "Ġonce": 2245,
      "Ġ2015": 2246,
      "ĠAust": 2247,
      "Ġpull": 2248,
      "come": 2249,
      "ĠSec": 2250,
      "Ġhtt": 2251,
      "ĠCal": 2252,
      "Ġblack": 2253,
      "Ġbelieve": 2254,
      "Ġstep": 2255,
      "ĠAf": 2256,
      "Ġmaterial": 2257,
      "Ġdeep": 2258,
      "ĠJack": 2259,
      "Ġindustry": 2260,
      "ĠOff": 2261,
      "Ġsum": 2262,
      "Ġrain": 2263,
      "200": 2264,
      "au": 2265,
      "verage": 2266,
      "ru": 2267,
      "AS": 2268,
      "ummy": 2269,
      "Ġrace": 2270,
      "isc": 2271,
      "icult": 2272,
      "ĠMarch": 2273,
      "itten": 2274,
      "Ġrunning": 2275,
      "Ġpub": 2276,
      "Ġproducts": 2277,
      "ilities": 2278,
      "Ġthanked": 2279,
      "Ġproblem": 2280,
      "--": 2281,
      "Ġpress": 2282,
      "ĠSouth": 2283,
      "Ġjumped": 2284,
      "Ġbooks": 2285,
      "ĠAug": 2286,
      "Ġra": 2287,
      "hel": 2288,
      "ental": 2289,
      "ĠWill": 2290,
      "Ġspace": 2291,
      "Ġdesc": 2292,
      "ĠDep": 2293,
      "Ġswe": 2294,
      "ĠAb": 2295,
      "Ġpercent": 2296,
      "Ġmoment": 2297,
      "Ġvers": 2298,
      "ges": 2299,
      "yle": 2300,
      "IS": 2301,
      "Ġmonths": 2302,
      "Ġener": 2303,
      "ĠIm": 2304,
      "Ġspecific": 2305,
      "ĠMc": 2306,
      "Ġdoesn": 2307,
      "Ġmot": 2308,
      "Ġeasy": 2309,
      "Ġca": 2310,
      "go": 2311,
      "Ġeyes": 2312,
      "Ġfight": 2313,
      "Ġkept": 2314,
      "Ġquality": 2315,
      "Ġwebsite": 2316,
      "ĠJanuary": 2317,
      "aught": 2318,
      "hers": 2319,
      "Ġliving": 2320,
      "ction": 2321,
      "Ã©": 2322,
      "Ġreason": 2323,
      "ilar": 2324,
      "Ġappear": 2325,
      "ief": 2326,
      "Ġcell": 2327,
      "After": 2328,
      "gle": 2329,
      "ected": 2330,
      "Ġhugged": 2331,
      "Ġcolor": 2332,
      "Ġyet": 2333,
      "And": 2334,
      "For": 2335,
      "Ġmedia": 2336,
      "ancial": 2337,
      "itchen": 2338,
      "acks": 2339,
      "Ġtaking": 2340,
      "aur": 2341,
      "ĠThese": 2342,
      "EN": 2343,
      "Ġperiod": 2344,
      "Ġ25": 2345,
      "ze": 2346,
      "ounc": 2347,
      "Ġri": 2348,
      "Ġactually": 2349,
      "23": 2350,
      "iously": 2351,
      "Ġmid": 2352,
      "ĠHowever": 2353,
      "ĠCont": 2354,
      "Ġstopped": 2355,
      "Ġwhole": 2356,
      "Ġquestion": 2357,
      "vent": 2358,
      "anced": 2359,
      "ecut": 2360,
      "Ġrelations": 2361,
      "Ġtot": 2362,
      "Ġselect": 2363,
      "ĠApril": 2364,
      "Ġenc": 2365,
      "pe": 2366,
      "Ġfavorite": 2367,
      "Ġcrit": 2368,
      "ĠMe": 2369,
      "Ġwhite": 2370,
      "ournal": 2371,
      "oom": 2372,
      "ID": 2373,
      "itty": 2374,
      "Ġboat": 2375,
      "rave": 2376,
      "Ġele": 2377,
      "ensive": 2378,
      "Ġready": 2379,
      "Ġvideo": 2380,
      "ĠJune": 2381,
      "Ġsignific": 2382,
      "ĠGe": 2383,
      "Ġste": 2384,
      "Ġpick": 2385,
      "Ġrespons": 2386,
      "load": 2387,
      "ded": 2388,
      "Ġdark": 2389,
      "Ġstick": 2390,
      "ĠPart": 2391,
      "Ġcirc": 2392,
      "ĠSept": 2393,
      "Ġ24": 2394,
      "Ġwhether": 2395,
      "ino": 2396,
      "ging": 2397,
      "Ġsuper": 2398,
      "Ġdue": 2399,
      "itch": 2400,
      "Ġrequire": 2401,
      "illy": 2402,
      "asing": 2403,
      "Ġmagic": 2404,
      "ille": 2405,
      "Ġfurther": 2406,
      "Ġvalue": 2407,
      "Ġcal": 2408,
      "Ġself": 2409,
      "Ġ198": 2410,
      "Ġreach": 2411,
      "cle": 2412,
      "ring": 2413,
      "ators": 2414,
      "where": 2415,
      "ĠNorth": 2416,
      "selves": 2417,
      "Ġnod": 2418,
      "osed": 2419,
      "ival": 2420,
      "Ġhope": 2421,
      "ler": 2422,
      "Ġans": 2423,
      "Ġcompanies": 2424,
      "Ġelse": 2425,
      "mber": 2426,
      "Ġport": 2427,
      "Ġshared": 2428,
      "Ġenvironment": 2429,
      "Ġ2014": 2430,
      "aid": 2431,
      "yn": 2432,
      "Ġfoot": 2433,
      "uation": 2434,
      "Ġhours": 2435,
      "ibility": 2436,
      "www": 2437,
      "fer": 2438,
      "anger": 2439,
      "Ġwood": 2440,
      "Ġwall": 2441,
      "ĠServ": 2442,
      "Ġturned": 2443,
      "Ġroad": 2444,
      "Ġdig": 2445,
      "25": 2446,
      "Ġfloor": 2447,
      "iday": 2448,
      "oke": 2449,
      "irm": 2450,
      "ask": 2451,
      "ana": 2452,
      "Ġpain": 2453,
      "itted": 2454,
      "Ġamaz": 2455,
      "Ġtechnology": 2456,
      "angu": 2457,
      "Ġaddress": 2458,
      "Ġfair": 2459,
      "avy": 2460,
      "unny": 2461,
      "uddenly": 2462,
      "Ġissues": 2463,
      "Ġcand": 2464,
      "ees": 2465,
      "ĠPe": 2466,
      "ĠJuly": 2467,
      "ĠNews": 2468,
      "Ġfocus": 2469,
      "Ġroll": 2470,
      "Ġbegin": 2471,
      "ecially": 2472,
      "AL": 2473,
      "though": 2474,
      "Ġwords": 2475,
      "Ġenergy": 2476,
      "Ġtouch": 2477,
      "lu": 2478,
      "ovember": 2479,
      "Ġhigher": 2480,
      "fact": 2481,
      "Ġ100": 2482,
      "itting": 2483,
      "Ġfront": 2484,
      "aby": 2485,
      "ĠPresident": 2486,
      "ume": 2487,
      "roll": 2488,
      "IC": 2489,
      "ady": 2490,
      "ĠNot": 2491,
      "Ġslow": 2492,
      "Ġhalf": 2493,
      "Ġago": 2494,
      "Ġsingle": 2495,
      "ĠBar": 2496,
      "Ġsleep": 2497,
      "Ġfrog": 2498,
      "Al": 2499,
      "Ġcatch": 2500,
      "umb": 2501,
      "arth": 2502,
      "Ġrepresent": 2503,
      "elebr": 2504,
      "Ġtaken": 2505,
      "key": 2506,
      "Ġaud": 2507,
      "Ġdress": 2508,
      "Ġtool": 2509,
      "Ġrole": 2510,
      "Ġens": 2511,
      "Ġdeb": 2512,
      "ada": 2513,
      "ham": 2514,
      "Ġrad": 2515,
      "year": 2516,
      "Ġkitchen": 2517,
      "Ġhappily": 2518,
      "Ġabove": 2519,
      "Ġdoc": 2520,
      "Don": 2521,
      "Ġdeterm": 2522,
      "Ġalmost": 2523,
      "ively": 2524,
      "uge": 2525,
      "Ġlooks": 2526,
      "Ġtravel": 2527,
      "Ġsuggest": 2528,
      "Ġwat": 2529,
      "\",": 2530,
      "atural": 2531,
      "val": 2532,
      "omes": 2533,
      "ĠTw": 2534,
      "Ġresults": 2535,
      "ĠWar": 2536,
      "ĠJust": 2537,
      "IT": 2538,
      "Ġhon": 2539,
      "Ġcold": 2540,
      "Ġimpact": 2541,
      "Ġcontact": 2542,
      "vert": 2543,
      "idge": 2544,
      "Ġvoice": 2545,
      "ald": 2546,
      "Ġdeath": 2547,
      "ĠEl": 2548,
      "Ġtruck": 2549,
      "ĠTe": 2550,
      "aced": 2551,
      "Ġparticip": 2552,
      "Ġannoun": 2553,
      "Ġcharacter": 2554,
      "Ġphys": 2555,
      "eth": 2556,
      "fort": 2557,
      "Ġage": 2558,
      "ĠArt": 2559,
      "Ġprob": 2560,
      "Ġpage": 2561,
      "ĠGl": 2562,
      "By": 2563,
      "Ġsignificant": 2564,
      "olution": 2565,
      "ĠHealth": 2566,
      "Ġamount": 2567,
      "Ġhimself": 2568,
      "Ġbag": 2569,
      "reg": 2570,
      "Ġesp": 2571,
      "Ġhear": 2572,
      "ocr": 2573,
      "ĠAg": 2574,
      "rem": 2575,
      "Ġcommon": 2576,
      "ĠStud": 2577,
      "itor": 2578,
      "Ġexam": 2579,
      "Ġrespect": 2580,
      "ĠDecember": 2581,
      "........": 2582,
      "Ġinit": 2583,
      "Ġcool": 2584,
      "Ġpicture": 2585,
      "Ġhit": 2586,
      "ĠAmerica": 2587,
      "gress": 2588,
      "ĠCor": 2589,
      "Ġquickly": 2590,
      "chie": 2591,
      "Ġsent": 2592,
      "Ġmethod": 2593,
      "ĠPark": 2594,
      "Ġdi": 2595,
      "Ġflowers": 2596,
      "Ġ2013": 2597,
      "Ġcoll": 2598,
      "Ġangry": 2599,
      "Ġthird": 2600,
      "ken": 2601,
      "ĠSeptember": 2602,
      "ĠOctober": 2603,
      "ches": 2604,
      "anks": 2605,
      "Ġ#": 2606,
      "inks": 2607,
      "ĠCO": 2608,
      "apt": 2609,
      "ledge": 2610,
      "Ġcontent": 2611,
      "Ġ2021": 2612,
      "ese": 2613,
      "Ġ50": 2614,
      "Ġcheck": 2615,
      "Ġnoise": 2616,
      "Ġimprove": 2617,
      "Ġsho": 2618,
      "ray": 2619,
      "hib": 2620,
      "Ġhappen": 2621,
      "Ġeither": 2622,
      "iction": 2623,
      "Ġoffice": 2624,
      "ĠMus": 2625,
      "!!": 2626,
      "oose": 2627,
      "Ġstaff": 2628,
      "ĠDav": 2629,
      "ĠSm": 2630,
      "ministr": 2631,
      "cy": 2632,
      "Ġsix": 2633,
      "epend": 2634,
      "pro": 2635,
      "aul": 2636,
      "Ġround": 2637,
      "play": 2638,
      "ĠNovember": 2639,
      "aged": 2640,
      "Ġdifficult": 2641,
      "ĠSoc": 2642,
      "Ġexist": 2643,
      "Ġice": 2644,
      "Ġwait": 2645,
      "Ġshows": 2646,
      "Ġtast": 2647,
      "uffy": 2648,
      "ĠCounty": 2649,
      "Ġfeeling": 2650,
      "Ġsand": 2651,
      "AC": 2652,
      "ĠRec": 2653,
      "Ġconsider": 2654,
      "Ġnational": 2655,
      "Ġbelow": 2656,
      "ED": 2657,
      "Ġestab": 2658,
      "ĠAugust": 2659,
      "Ġmix": 2660,
      "elling": 2661,
      "Ġadvent": 2662,
      "Ġmodel": 2663,
      "ĠWest": 2664,
      "nes": 2665,
      "Ġrange": 2666,
      "ocks": 2667,
      "Ġperformance": 2668,
      "pping": 2669,
      "ope": 2670,
      "Ġmother": 2671,
      "Ġtakes": 2672,
      "Ġareas": 2673,
      "She": 2674,
      "Ġrecogn": 2675,
      "ĠCour": 2676,
      "Ġmouse": 2677,
      "Ġviol": 2678,
      "lin": 2679,
      "ĠAfric": 2680,
      "Ġbott": 2681,
      "Ġwonder": 2682,
      "Ġaccording": 2683,
      "Ġlate": 2684,
      "Ġassoci": 2685,
      "Ġvarious": 2686,
      "Ġmanagement": 2687,
      "Ġhole": 2688,
      "ĠHouse": 2689,
      "Then": 2690,
      "ification": 2691,
      "ude": 2692,
      "Ġleave": 2693,
      "ĠReg": 2694,
      "Ġespecially": 2695,
      "Ġentire": 2696,
      "60": 2697,
      "Ġoriginal": 2698,
      "ĠQu": 2699,
      "Ġprice": 2700,
      "bruary": 2701,
      "Look": 2702,
      "nov": 2703,
      "Ġforward": 2704,
      "ety": 2705,
      "Ġpers": 2706,
      "ication": 2707,
      "atory": 2708,
      "ĠBy": 2709,
      "ades": 2710,
      "Ġparents": 2711,
      "Ġquestions": 2712,
      "ological": 2713,
      "struct": 2714,
      "Ġwrong": 2715,
      "ĠCenter": 2716,
      "Ġtrue": 2717,
      "40": 2718,
      "Why": 2719,
      "ules": 2720,
      "Ġmatter": 2721,
      "ysis": 2722,
      "Ġhat": 2723,
      "iles": 2724,
      "Ġsometimes": 2725,
      "Ġfunny": 2726,
      "Ġmaint": 2727,
      "ĠDon": 2728,
      "Ġeducation": 2729,
      "Ġsubject": 2730,
      "Ġrisk": 2731,
      "Ġlit": 2732,
      "Ġcannot": 2733,
      "Ġhost": 2734,
      "Ġpopular": 2735,
      "Ġ2012": 2736,
      "Ġgen": 2737,
      "ires": 2738,
      "Ġaction": 2739,
      "Ġpolitical": 2740,
      "ĠAustral": 2741,
      "Ġlikely": 2742,
      "Ġcontrib": 2743,
      "Ġsmile": 2744,
      "Ġminutes": 2745,
      "Ġyell": 2746,
      "Ġrelationship": 2747,
      "Ġadded": 2748,
      "head": 2749,
      "time": 2750,
      "Ġbrave": 2751,
      "ĠRuss": 2752,
      "ev": 2753,
      "Ġate": 2754,
      "Ġexpect": 2755,
      "htt": 2756,
      "adem": 2757,
      "Ġformer": 2758,
      "Ġcontinue": 2759,
      "Ġaccept": 2760,
      "Ġteac": 2761,
      "era": 2762,
      "Ġrecomm": 2763,
      "istic": 2764,
      "icro": 2765,
      "ĠSally": 2766,
      "Ġess": 2767,
      "Ġbirds": 2768,
      "Ġsearch": 2769,
      "Ġstruct": 2770,
      "Ġcars": 2771,
      "ĠBrit": 2772,
      "arl": 2773,
      "Ġnothing": 2774,
      "ĠOur": 2775,
      "Ġissue": 2776,
      "Ġofficial": 2777,
      "Ġarri": 2778,
      "Ġevents": 2779,
      "Ġcred": 2780,
      "irth": 2781,
      "iant": 2782,
      "Ġbrought": 2783,
      "Ġcomput": 2784,
      "Ġreceived": 2785,
      "ĠPer": 2786,
      "Ġleaders": 2787,
      "lus": 2788,
      "Ġposition": 2789,
      "ites": 2790,
      "uel": 2791,
      "ĠUK": 2792,
      "Ġnecess": 2793,
      "Ġyummy": 2794,
      "ouncil": 2795,
      "Ġgone": 2796,
      "icks": 2797,
      "Ġmember": 2798,
      "Ġsimilar": 2799,
      "Ġpaint": 2800,
      "ĠChe": 2801,
      "Ġprotect": 2802,
      "Ġintern": 2803,
      "Ġfinal": 2804,
      "Ġquite": 2805,
      "Ġfail": 2806,
      "Ġhowever": 2807,
      "Ġcourt": 2808,
      "ĠTV": 2809,
      "Ġachie": 2810,
      "Ġrights": 2811,
      "cast": 2812,
      "Ġprovided": 2813,
      "ips": 2814,
      "iced": 2815,
      "Ġfarm": 2816,
      "Ġcard": 2817,
      "Ġhair": 2818,
      "aging": 2819,
      "Ġpatients": 2820,
      "Hi": 2821,
      "Ġpolicy": 2822,
      "bor": 2823,
      "Ġrecent": 2824,
      "Ġinternational": 2825,
      "Ġcelebr": 2826,
      "Ġrather": 2827,
      "Ġways": 2828,
      "ĠHar": 2829,
      "ashing": 2830,
      "Ġmat": 2831,
      "Ġdest": 2832,
      "Ġsecurity": 2833,
      "Ġgeneral": 2834,
      "ondon": 2835,
      "olly": 2836,
      "Ġagreed": 2837,
      "Ġfeatures": 2838,
      "arget": 2839,
      "Ġengine": 2840,
      "Ġplant": 2841,
      "ederal": 2842,
      "Ġrequired": 2843,
      "ceed": 2844,
      "ĠKitty": 2845,
      "24": 2846,
      "ello": 2847,
      "Ġslide": 2848,
      "augh": 2849,
      "Ġtrain": 2850,
      "anch": 2851,
      "ouble": 2852,
      "Ġep": 2853,
      "US": 2854,
      "Ġpurch": 2855,
      "Ġincrease": 2856,
      "ration": 2857,
      "Ġtraining": 2858,
      "Ġdescrib": 2859,
      "Ġfinancial": 2860,
      "ospital": 2861,
      "Ġbright": 2862,
      "ply": 2863,
      "ky": 2864,
      "Ġexplore": 2865,
      "ĠSara": 2866,
      "Ġexperi": 2867,
      "empt": 2868,
      "ser": 2869,
      "Ġfamil": 2870,
      "esc": 2871,
      "Ġhelping": 2872,
      "Jo": 2873,
      "Ġ197": 2874,
      "now": 2875,
      "sp": 2876,
      "ĠLaw": 2877,
      "urg": 2878,
      "hold": 2879,
      "ĠInc": 2880,
      "Ġarticle": 2881,
      "Ġdream": 2882,
      "Ġrabb": 2883,
      "Ġcountries": 2884,
      "Ġpoints": 2885,
      "opy": 2886,
      "Ġpack": 2887,
      "Ġtit": 2888,
      "Ben": 2889,
      "Ġgrand": 2890,
      "itional": 2891,
      "ĠInternational": 2892,
      "egr": 2893,
      "Ġcover": 2894,
      "Ġobject": 2895,
      "astic": 2896,
      "airs": 2897,
      "Ġcast": 2898,
      "reet": 2899,
      "Ġexpress": 2900,
      "Ġlonger": 2901,
      "Ġprovides": 2902,
      "ram": 2903,
      "aign": 2904,
      "hic": 2905,
      "Ġtrees": 2906,
      "Ġap": 2907,
      "Ġmach": 2908,
      "wh": 2909,
      "Ġimm": 2910,
      "Ġabs": 2911,
      "Ġsuccessful": 2912,
      "Ġtotal": 2913,
      "Ġprep": 2914,
      "Ġunique": 2915,
      "Ġbrother": 2916,
      "Ġshall": 2917,
      "Ġwriting": 2918,
      "Ġsweet": 2919,
      "Ġfig": 2920,
      "ĠFebruary": 2921,
      "atur": 2922,
      "aving": 2923,
      "hern": 2924,
      "ctor": 2925,
      "Ġcomplete": 2926,
      "Ġcontract": 2927,
      "Ġwel": 2928,
      "Ġ21": 2929,
      "HE": 2930,
      "iation": 2931,
      "Ġinvestig": 2932,
      "RE": 2933,
      "Ġpus": 2934,
      "iate": 2935,
      "Ġleaves": 2936,
      "oub": 2937,
      "Ġwalking": 2938,
      "Ġtired": 2939,
      "Ġstar": 2940,
      "ĠYour": 2941,
      "Ġchanges": 2942,
      "Ġregard": 2943,
      "Ġlives": 2944,
      "ague": 2945,
      "Ġlog": 2946,
      "Ġalone": 2947,
      "based": 2948,
      "Ġoffers": 2949,
      "Ġlangu": 2950,
      "Ġdom": 2951,
      "Ġglobal": 2952,
      "Ġmorning": 2953,
      "Ġstri": 2954,
      "Ġlay": 2955,
      "Ġpolice": 2956,
      "Ġband": 2957,
      "back": 2958,
      "Ġteach": 2959,
      "mit": 2960,
      "Ġpotential": 2961,
      "Ġworry": 2962,
      "Ġbow": 2963,
      "Ġpath": 2964,
      "Ġspeak": 2965,
      "Ġhor": 2966,
      "ems": 2967,
      "Ġdam": 2968,
      "Ġassist": 2969,
      "Ġcases": 2970,
      "Ġsystems": 2971,
      "off": 2972,
      "Ġincludes": 2973,
      "zz": 2974,
      "iving": 2975,
      "Ġfre": 2976,
      "ek": 2977,
      "Ġsuff": 2978,
      "irrel": 2979,
      "Ġstories": 2980,
      "Ġremember": 2981,
      "iple": 2982,
      "ĠDepartment": 2983,
      "Sp": 2984,
      "struction": 2985,
      "Ġproperty": 2986,
      "pper": 2987,
      "ĠDirect": 2988,
      "ming": 2989,
      "Ġill": 2990,
      "Ġboard": 2991,
      "ground": 2992,
      "Ġfollowed": 2993,
      "ables": 2994,
      "Ġarg": 2995,
      "atest": 2996,
      "Ġdecision": 2997,
      "ext": 2998,
      "Ġreached": 2999,
      "Ġ23": 3000,
      "Ġtext": 3001,
      "ĠSw": 3002,
      "Ġforg": 3003,
      "Ġmoral": 3004,
      "itary": 3005,
      "Ġcreated": 3006,
      "Ġ2011": 3007,
      "Ġneg": 3008,
      "Ġproduction": 3009,
      "Ġanyone": 3010,
      "Ġindividual": 3011,
      "Ġsurprise": 3012,
      "face": 3013,
      "Ġtype": 3014,
      "Ġfit": 3015,
      "ĠHigh": 3016,
      "Ġnorm": 3017,
      "Ġintrod": 3018,
      "Ġtall": 3019,
      "lt": 3020,
      "rest": 3021,
      "ales": 3022,
      "unt": 3023,
      "Ġtrack": 3024,
      "ĠGerm": 3025,
      "che": 3026,
      "agement": 3027,
      "Ġbuilt": 3028,
      "Ġdro": 3029,
      "light": 3030,
      "Ġ2010": 3031,
      "Do": 3032,
      "Ġthemselves": 3033,
      "uk": 3034,
      "Ġbi": 3035,
      "ĠMich": 3036,
      "Ġproblems": 3037,
      "Ġnodded": 3038,
      "Ġwoman": 3039,
      "Ġisn": 3040,
      "ests": 3041,
      "ops": 3042,
      "Ġmass": 3043,
      "ĠSch": 3044,
      "Ġsquirrel": 3045,
      "ufact": 3046,
      "Ġwants": 3047,
      "Ġupd": 3048,
      "Ġgrowth": 3049,
      "Ġconsum": 3050,
      "imate": 3051,
      "ittee": 3052,
      "Ġnetwork": 3053,
      "Ġpond": 3054,
      "eed": 3055,
      "ĠOf": 3056,
      "obile": 3057,
      "Ġrate": 3058,
      "ĠChina": 3059,
      "Ġcareer": 3060,
      "Ġtreatment": 3061,
      "Ġprivate": 3062,
      "Ġprint": 3063,
      "Ġcolors": 3064,
      "ĠIndia": 3065,
      "ĠMore": 3066,
      "Ġbaby": 3067,
      "Ġtowards": 3068,
      "atform": 3069,
      "Ġjud": 3070,
      "ĠLondon": 3071,
      "ĠPat": 3072,
      "Ġ,": 3073,
      "Ġcloser": 3074,
      "Ġrabbit": 3075,
      "Ġprobably": 3076,
      "ran": 3077,
      "aily": 3078,
      "Ġcy": 3079,
      "Sh": 3080,
      "Ġinstead": 3081,
      "Ġapproach": 3082,
      "To": 3083,
      "urance": 3084,
      "ĠSome": 3085,
      "de": 3086,
      "ĠCourt": 3087,
      "izing": 3088,
      "Ġitself": 3089,
      "Ġprim": 3090,
      "Ġmodern": 3091,
      "hood": 3092,
      "Ġseems": 3093,
      "Ġpiece": 3094,
      "Ġpractice": 3095,
      "Ġdate": 3096,
      "Ġcoup": 3097,
      "ĠAssoci": 3098,
      "right": 3099,
      "ĠInt": 3100,
      "Ġlearning": 3101,
      "Ġ40": 3102,
      "ĠTrump": 3103,
      "Ġ--": 3104,
      "Ġamazing": 3105,
      "Ġinj": 3106,
      "Ġble": 3107,
      "adu": 3108,
      "ĠKing": 3109,
      "Ġwasn": 3110,
      "Ġphone": 3111,
      "Ġcompl": 3112,
      "Ġopportunity": 3113,
      "cer": 3114,
      "Ġdrive": 3115,
      "Ġreported": 3116,
      "Ġwatched": 3117,
      "Ġnatural": 3118,
      "Ġsold": 3119,
      "Ġ22": 3120,
      "ivil": 3121,
      "set": 3122,
      "Ġcurrently": 3123,
      "Ġdance": 3124,
      "ey": 3125,
      "Ġfriendly": 3126,
      "bum": 3127,
      "ael": 3128,
      "ĠSer": 3129,
      "Ġlaugh": 3130,
      "Ġseek": 3131,
      "Ġpan": 3132,
      "Ġflower": 3133,
      "Ġwish": 3134,
      "Ġthank": 3135,
      "ĠWhile": 3136,
      "stant": 3137,
      "Ġdeg": 3138,
      "agon": 3139,
      "Ġthroughout": 3140,
      "Ġprofessional": 3141,
      "ĠĠĠĠ": 3142,
      "Ġrecently": 3143,
      "Ġlegal": 3144,
      "Ġtail": 3145,
      "Ġdin": 3146,
      "Ġtarget": 3147,
      "ĠBu": 3148,
      "Ġterms": 3149,
      "AM": 3150,
      "Ġcustomers": 3151,
      "Ġpropos": 3152,
      "Ġsense": 3153,
      "iforn": 3154,
      "ĠNet": 3155,
      "ĠAng": 3156,
      "Ġokay": 3157,
      "Ġcross": 3158,
      "Ġwide": 3159,
      "Ġinteresting": 3160,
      "Ġemb": 3161,
      "Ġknowledge": 3162,
      "Ġvac": 3163,
      "arter": 3164,
      "usiness": 3165,
      "Ġemer": 3166,
      "Ġpresident": 3167,
      "net": 3168,
      "atives": 3169,
      "Ġsize": 3170,
      "Ġsunny": 3171,
      "han": 3172,
      "Ġdise": 3173,
      "Ġgrass": 3174,
      "ĠDay": 3175,
      "Ġmovie": 3176,
      "Ġplayers": 3177,
      "olf": 3178,
      "ĠCommun": 3179,
      "onse": 3180,
      "Ġmeeting": 3181,
      "Ġprior": 3182,
      "oogle": 3183,
      "ends": 3184,
      "Ġsect": 3185,
      "Ġsimple": 3186,
      "ĠFluffy": 3187,
      "Ġtele": 3188,
      "Ġcontinued": 3189,
      "board": 3190,
      "Ġmoved": 3191,
      "erc": 3192,
      "Ġsmart": 3193,
      "Ġled": 3194,
      "ford": 3195,
      "Ġincluded": 3196,
      "Ġbroken": 3197,
      "ript": 3198,
      "ĠDis": 3199,
      "My": 3200,
      "Ġdiv": 3201,
      "Ġcomfort": 3202,
      "Ġgroups": 3203,
      "Ġsimply": 3204,
      "ĠCr": 3205,
      "Ġoil": 3206,
      "Ġbal": 3207,
      "Ġ28": 3208,
      "apan": 3209,
      "Ġord": 3210,
      "Ġgoes": 3211,
      "While": 3212,
      "Ġbunny": 3213,
      "Ġyard": 3214,
      "Ġloss": 3215,
      "oid": 3216,
      "ifornia": 3217,
      "Ġweeks": 3218,
      "Ġregular": 3219,
      "Ġrelease": 3220,
      "Ġhuge": 3221,
      "Ġinstall": 3222,
      "irit": 3223,
      "Hello": 3224,
      "Ġbutter": 3225,
      "Ġcampaign": 3226,
      "amb": 3227,
      "Ġmedical": 3228,
      "Ġworth": 3229,
      "Ġheavy": 3230,
      "Ġdefin": 3231,
      "ĠSan": 3232,
      "Ġtour": 3233,
      "ĠMon": 3234,
      "ender": 3235,
      "Ġful": 3236,
      "Ġinflu": 3237,
      "orge": 3238,
      "Ġwindow": 3239,
      "Ġcurious": 3240,
      "Ġsea": 3241,
      "ĠBlack": 3242,
      "Ġcloud": 3243,
      "Ġdesigned": 3244,
      "Ġfa": 3245,
      "useum": 3246,
      "New": 3247,
      "Ġsnow": 3248,
      "Ġinvolved": 3249,
      "ucky": 3250,
      "Ġvia": 3251,
      "Ġ27": 3252,
      "rect": 3253,
      "ĠGroup": 3254,
      "stitute": 3255,
      "alt": 3256,
      "Ġjoin": 3257,
      "Ġyes": 3258,
      "orks": 3259,
      "Ġsex": 3260,
      "action": 3261,
      "sych": 3262,
      "omen": 3263,
      "ĠAnn": 3264,
      "Ġcarry": 3265,
      "Ġswim": 3266,
      "Ph": 3267,
      "rec": 3268,
      "Ġvict": 3269,
      "Ġsett": 3270,
      "ecutive": 3271,
      "Ġpictures": 3272,
      "Ġfinally": 3273,
      "inary": 3274,
      "Ġtrust": 3275,
      "Ġrev": 3276,
      "ĠEnglish": 3277,
      "uals": 3278,
      "Ġvot": 3279,
      "itter": 3280,
      "eg": 3281,
      "Ġlab": 3282,
      "27": 3283,
      "ĠRo": 3284,
      ".)": 3285,
      "ĠSen": 3286,
      "Ġhung": 3287,
      "aly": 3288,
      "Ġactivities": 3289,
      "ĠAc": 3290,
      "Ġreve": 3291,
      "oph": 3292,
      "Ġpublished": 3293,
      "Ġclot": 3294,
      "ha": 3295,
      "Ġblog": 3296,
      "ĠAcc": 3297,
      "Ġhy": 3298,
      "Ġsens": 3299,
      "Ġreading": 3300,
      "Ġversion": 3301,
      "Ġwrite": 3302,
      "ĠPar": 3303,
      "ding": 3304,
      "Ġapplication": 3305,
      "Ġstudent": 3306,
      "Ġwritten": 3307,
      "Ġur": 3308,
      "Ġensure": 3309,
      "ux": 3310,
      "EC": 3311,
      "Ġdead": 3312,
      "With": 3313,
      "Ġsecret": 3314,
      "Ġpred": 3315,
      "Ġ26": 3316,
      "Ġyellow": 3317,
      "80": 3318,
      "Ġrelated": 3319,
      "ĠCollege": 3320,
      "Ġdrug": 3321,
      "Ġbirth": 3322,
      "Ġinsp": 3323,
      "Ġhill": 3324,
      "Ġvill": 3325,
      "ĠVal": 3326,
      "Ġchair": 3327,
      "acked": 3328,
      "Ġleading": 3329,
      "26": 3330,
      "ĠDem": 3331,
      "ube": 3332,
      "ĠRed": 3333,
      "Ġmatch": 3334,
      "Ġple": 3335,
      "\\\\\\\\\\\\\\\\": 3336,
      "Ġtal": 3337,
      "ying": 3338,
      "ila": 3339,
      "wood": 3340,
      "):": 3341,
      "From": 3342,
      "Ġfather": 3343,
      "ĠGener": 3344,
      "itation": 3345,
      "Ġsepar": 3346,
      "Ġindic": 3347,
      "ancy": 3348,
      "Be": 3349,
      "Ġweb": 3350,
      "Ġnote": 3351,
      "Ġspl": 3352,
      "vest": 3353,
      "Ġconduct": 3354,
      "Ġprojects": 3355,
      "Ġreceive": 3356,
      "Ġwet": 3357,
      "99": 3358,
      "ashington": 3359,
      "Ġindepend": 3360,
      "Ġlatest": 3361,
      "ĠCons": 3362,
      "Ġplatform": 3363,
      "Ġ2022": 3364,
      "put": 3365,
      "Ġgift": 3366,
      "Ġarch": 3367,
      "Ġautom": 3368,
      "Ġevidence": 3369,
      "Ġeconomic": 3370,
      "Ġ:": 3371,
      "rael": 3372,
      "All": 3373,
      "Ġgoal": 3374,
      "Ġconditions": 3375,
      "ari": 3376,
      "Ġtalking": 3377,
      "uments": 3378,
      "ession": 3379,
      "icient": 3380,
      "Ġneigh": 3381,
      "lam": 3382,
      "Ġgives": 3383,
      "Ġreleased": 3384,
      "Ġmommy": 3385,
      "Ġcream": 3386,
      "Ġemail": 3387,
      "Ġintegr": 3388,
      "Wow": 3389,
      "Ġscreen": 3390,
      "Ġpet": 3391,
      "ivity": 3392,
      "Ġlady": 3393,
      "Ġspot": 3394,
      "enced": 3395,
      "Ġsus": 3396,
      "Ġmanufact": 3397,
      "Ġdanger": 3398,
      "merc": 3399,
      "Ġbase": 3400,
      "aker": 3401,
      "ements": 3402,
      "ĠDes": 3403,
      "Ġyourself": 3404,
      "ĠCalifornia": 3405,
      "resh": 3406,
      "Ġbrand": 3407,
      "Ġadditional": 3408,
      "isions": 3409,
      "Ġattempt": 3410,
      "ĠAir": 3411,
      "erry": 3412,
      "irty": 3413,
      "ST": 3414,
      "ension": 3415,
      "Ġut": 3416,
      "pose": 3417,
      "Ġhistor": 3418,
      "Ġlevels": 3419,
      "Ġhol": 3420,
      "Ar": 3421,
      "Ġconnect": 3422,
      "ĠSte": 3423,
      "Ġdry": 3424,
      "asons": 3425,
      "idents": 3426,
      "attle": 3427,
      "28": 3428,
      "Ġstage": 3429,
      "ears": 3430,
      "dom": 3431,
      "ĠBook": 3432,
      "Ġlanguage": 3433,
      "AP": 3434,
      "asc": 3435,
      "Ġhous": 3436,
      "Ġsection": 3437,
      "aries": 3438,
      "lier": 3439,
      "45": 3440,
      "Ġmark": 3441,
      "Cl": 3442,
      "Ġexpected": 3443,
      "Ġprograms": 3444,
      "Ġcause": 3445,
      "Ġencour": 3446,
      "ĠDad": 3447,
      "Ġextra": 3448,
      "Ġchoose": 3449,
      "ĠDavid": 3450,
      "ris": 3451,
      "Ġdetails": 3452,
      "Ġnation": 3453,
      "ĠPhil": 3454,
      "ubb": 3455,
      "Ġanalysis": 3456,
      "ĠResearch": 3457,
      "ais": 3458,
      "ĠStreet": 3459,
      "Ġshout": 3460,
      "Ġimag": 3461,
      "Ġcoun": 3462,
      "Ġ2009": 3463,
      "gg": 3464,
      "ĠII": 3465,
      "Ġenjoyed": 3466,
      "Ġalbum": 3467,
      "BC": 3468,
      "illing": 3469,
      "Ġaverage": 3470,
      "bit": 3471,
      "Ġplaces": 3472,
      "imum": 3473,
      "Ġability": 3474,
      "Ġsummer": 3475,
      "Ġplans": 3476,
      "ĠBud": 3477,
      "Ġsees": 3478,
      "aughter": 3479,
      "Ġglad": 3480,
      "Ġinterview": 3481,
      "ica": 3482,
      "Ġfeed": 3483,
      "arc": 3484,
      "mission": 3485,
      "29": 3486,
      "ĠEuropean": 3487,
      "ĠJapan": 3488,
      "Ġsaying": 3489,
      "Ġpen": 3490,
      "Ġnature": 3491,
      "ĠLa": 3492,
      "sidered": 3493,
      "ĠCouncil": 3494,
      "OT": 3495,
      "ĠAre": 3496,
      "uses": 3497,
      "Ġcup": 3498,
      "Ġsil": 3499,
      "ares": 3500,
      "Ġmention": 3501,
      "Ġdrink": 3502,
      "Ġstyle": 3503,
      "iber": 3504,
      "Ġcouple": 3505,
      "ĠFirst": 3506,
      "Ġideas": 3507,
      "Ġpatient": 3508,
      "Ġimmed": 3509,
      "ĠEast": 3510,
      "Ġson": 3511,
      "Ġchalleng": 3512,
      "Ġfinished": 3513,
      "Ġdocument": 3514,
      "Sam": 3515,
      "Ġwild": 3516,
      "ĠMark": 3517,
      "Ġcapt": 3518,
      "Ġter": 3519,
      "Ġpartners": 3520,
      "Ġgiving": 3521,
      "iring": 3522,
      "Ġusers": 3523,
      "Ġbank": 3524,
      "Ġpu": 3525,
      "new": 3526,
      "ĠTrans": 3527,
      "Ġbroad": 3528,
      "Ġanswer": 3529,
      "Ġthreat": 3530,
      "Ġsave": 3531,
      "Ad": 3532,
      "ims": 3533,
      "ples": 3534,
      "Max": 3535,
      "Ġannounced": 3536,
      "Ġsharing": 3537,
      "Ġstates": 3538,
      "ville": 3539,
      "ography": 3540,
      "orrow": 3541,
      "Ġten": 3542,
      "vey": 3543,
      "Ġsales": 3544,
      "eared": 3545,
      "haps": 3546,
      "Ġbur": 3547,
      "Ġones": 3548,
      "Ġimage": 3549,
      "Ġsafety": 3550,
      "Ġwrote": 3551,
      "35": 3552,
      "Ġresponse": 3553,
      "Ġinstit": 3554,
      "oday": 3555,
      "ĠSund": 3556,
      "ĠBro": 3557,
      "ida": 3558,
      "Ġrequest": 3559,
      "Ġhttps": 3560,
      "Ġsoftware": 3561,
      "ulations": 3562,
      "mercial": 3563,
      "ĠHist": 3564,
      "Ġadministr": 3565,
      "Ġgets": 3566,
      "Ġlower": 3567,
      "Ġexact": 3568,
      "ĠPri": 3569,
      "error": 3570,
      "aches": 3571,
      "estern": 3572,
      "Ġregion": 3573,
      "Ġspent": 3574,
      "Ġimplement": 3575,
      "omp": 3576,
      "rast": 3577,
      "ancing": 3578,
      "imately": 3579,
      "Ġlocated": 3580,
      "inally": 3581,
      "Ġconsidered": 3582,
      "Ġbigger": 3583,
      "Ġchance": 3584,
      "Ġetc": 3585,
      "ĠJane": 3586,
      "Ġswing": 3587,
      "ĠDan": 3588,
      "Ġdistrib": 3589,
      "Ġsell": 3590,
      "emb": 3591,
      "sequ": 3592,
      "ĠCanada": 3593,
      "ĠPaul": 3594,
      "Ġletter": 3595,
      "Ġstandard": 3596,
      "Ġattention": 3597,
      "Ġsource": 3598,
      "Ġcam": 3599,
      "Ġcomplex": 3600,
      "Ġnecessary": 3601,
      "ĠTechn": 3602,
      "Ġblocks": 3603,
      "Ġgas": 3604,
      "ĠMet": 3605,
      "Ġexcept": 3606,
      "Ġpeace": 3607,
      "Ġusually": 3608,
      "Ġskills": 3609,
      "ĠWilliam": 3610,
      "ĠWashington": 3611,
      "Ġcomment": 3612,
      "oul": 3613,
      "Ġcosts": 3614,
      "Ġimpress": 3615,
      "Ġpieces": 3616,
      "Ġwear": 3617,
      "mon": 3618,
      "Ġagre": 3619,
      "Ġaward": 3620,
      "ager": 3621,
      "Ġculture": 3622,
      "Ġtrip": 3623,
      "iling": 3624,
      "iance": 3625,
      "Ġgold": 3626,
      "Ġturns": 3627,
      "unk": 3628,
      "Ġresources": 3629,
      "Ġmount": 3630,
      "ING": 3631,
      "Ġowner": 3632,
      "Ġspeed": 3633,
      "Ġclub": 3634,
      "Ġ29": 3635,
      "istry": 3636,
      "echan": 3637,
      "ĠRepublic": 3638,
      "ĠMary": 3639,
      "Ġ2008": 3640,
      "Ġmouth": 3641,
      "oto": 3642,
      "yond": 3643,
      "Ġattract": 3644,
      "Ġlic": 3645,
      "Ġcomputer": 3646,
      "Ġstreng": 3647,
      "Ġrob": 3648,
      "ipment": 3649,
      "ĠUp": 3650,
      "Ġdigital": 3651,
      "Ġparts": 3652,
      "rench": 3653,
      "Ġdisplay": 3654,
      "ato": 3655,
      "ban": 3656,
      "Ġreflect": 3657,
      "acing": 3658,
      "Ġwonderful": 3659,
      "Ġappl": 3660,
      "Ġprevent": 3661,
      "Ġpositive": 3662,
      "Ġdeveloped": 3663,
      "Ġoptions": 3664,
      "Ġhungry": 3665,
      "ĠPal": 3666,
      "Our": 3667,
      "nown": 3668,
      "Ġborn": 3669,
      "ĠMor": 3670,
      "ĠBusiness": 3671,
      "round": 3672,
      "vision": 3673,
      "Ġride": 3674,
      "EO": 3675,
      "Ġbath": 3676,
      "Oh": 3677,
      "vis": 3678,
      "itiz": 3679,
      "Ġx": 3680,
      "IL": 3681,
      "ĠBritish": 3682,
      "rs": 3683,
      "iger": 3684,
      "Un": 3685,
      "eff": 3686,
      "Ġtrade": 3687,
      "ĠIsrael": 3688,
      "icine": 3689,
      "ĠProf": 3690,
      "Is": 3691,
      "Ġmis": 3692,
      "mas": 3693,
      "Ġclosed": 3694,
      "elly": 3695,
      "Ġpushed": 3696,
      "ET": 3697,
      "uted": 3698,
      "enge": 3699,
      "ibr": 3700,
      "ications": 3701,
      "Ġchoice": 3702,
      "Ġrelig": 3703,
      "Ġorganization": 3704,
      "inated": 3705,
      "Ġprogress": 3706,
      "ĠInst": 3707,
      "ĠFace": 3708,
      "**": 3709,
      "Ġinnov": 3710,
      "ĠIndian": 3711,
      "Ġstuck": 3712,
      "ropri": 3713,
      "Ġgrowing": 3714,
      "Ġcried": 3715,
      "oming": 3716,
      "Ġapply": 3717,
      "Ġblock": 3718,
      "Ġcollection": 3719,
      "Ġcapital": 3720,
      "ĠMag": 3721,
      "Ġscient": 3722,
      "ett": 3723,
      "agged": 3724,
      "het": 3725,
      "Ġruns": 3726,
      "Ġbillion": 3727,
      "ĠOut": 3728,
      "Ġshop": 3729,
      "à¤": 3730,
      "Ġmoving": 3731,
      "Ġtiny": 3732,
      "ĠRem": 3733,
      "arah": 3734,
      "ĠHere": 3735,
      "Ġconcept": 3736,
      "lation": 3737,
      "Ġeffective": 3738,
      "Ex": 3739,
      "asure": 3740,
      "Ġnovel": 3741,
      "iable": 3742,
      "Ġschools": 3743,
      "Ġrecommend": 3744,
      "Ġblood": 3745,
      "iers": 3746,
      "ĠOb": 3747,
      "Ġpulled": 3748,
      "ĠFriday": 3749,
      "Ġorganiz": 3750,
      "Ġmilitary": 3751,
      "ĠStr": 3752,
      "33": 3753,
      "Ġplayer": 3754,
      "Ġtight": 3755,
      "Ġdirector": 3756,
      "apped": 3757,
      "pen": 3758,
      "Ġenter": 3759,
      "just": 3760,
      "Ġpros": 3761,
      "Ġbud": 3762,
      "EL": 3763,
      "Ġproviding": 3764,
      "ipped": 3765,
      "Ġconcern": 3766,
      "Ġquiet": 3767,
      "Ġsort": 3768,
      "Ġsituation": 3769,
      "Ġscience": 3770,
      "bon": 3771,
      "mitted": 3772,
      "ĠJames": 3773,
      "ĠGrand": 3774,
      "ports": 3775,
      "Ġthrow": 3776,
      "Ġow": 3777,
      "ĠProgram": 3778,
      "iment": 3779,
      "Ġassess": 3780,
      "ugg": 3781,
      "pre": 3782,
      "Ġhide": 3783,
      "oyal": 3784,
      "ico": 3785,
      "nces": 3786,
      "UR": 3787,
      "Ġmultiple": 3788,
      "Ġdisapp": 3789,
      "Ġthinking": 3790,
      "Ġdemand": 3791,
      "____": 3792,
      "yl": 3793,
      "Ġdemon": 3794,
      "Ġlion": 3795,
      "Ġmachine": 3796,
      "ĠPost": 3797,
      "Ġdelic": 3798,
      "Ġlistened": 3799,
      "ellig": 3800,
      "field": 3801,
      "Ġsched": 3802,
      "Ġfamilies": 3803,
      "Ġwelcome": 3804,
      "Ġ196": 3805,
      "bye": 3806,
      "Ġpopulation": 3807,
      "aturday": 3808,
      "Ġshoot": 3809,
      "Ġbehav": 3810,
      "Ġchanged": 3811,
      "Tr": 3812,
      "Ġwife": 3813,
      "Ġprevious": 3814,
      "ĠFound": 3815,
      "Ġ60": 3816,
      "Ġuser": 3817,
      "Ġacqu": 3818,
      "Ġmeasure": 3819,
      "ĠPre": 3820,
      "Ġcenter": 3821,
      "Ġpowerful": 3822,
      "ros": 3823,
      "Ġfeet": 3824,
      "ĠSunday": 3825,
      "enty": 3826,
      "ĠAustralia": 3827,
      "Ġstudies": 3828,
      "hest": 3829,
      "ords": 3830,
      "hem": 3831,
      "rial": 3832,
      "ĠReview": 3833,
      "Ġmaybe": 3834,
      "ourney": 3835,
      "Ġcredit": 3836,
      "ĠCong": 3837,
      "ĠWed": 3838,
      "order": 3839,
      "like": 3840,
      "ĠSim": 3841,
      "arily": 3842,
      "70": 3843,
      "Ġfinish": 3844,
      "Ġwhose": 3845,
      "OS": 3846,
      "John": 3847,
      "ĠAnt": 3848,
      "vant": 3849,
      "Ġrespond": 3850,
      "AD": 3851,
      "Ġsongs": 3852,
      "Ġfirm": 3853,
      "ado": 3854,
      "Ġdownload": 3855,
      "Ġhid": 3856,
      "May": 3857,
      "Ġeffects": 3858,
      "ĠGreen": 3859,
      "mp": 3860,
      "Anna": 3861,
      "Ġdisease": 3862,
      "Just": 3863,
      "ION": 3864,
      "Ġfruit": 3865,
      "Ġeasily": 3866,
      "Ġnut": 3867,
      "Ġadventure": 3868,
      "oly": 3869,
      "uman": 3870,
      "Ġfilled": 3871,
      "Ġhttp": 3872,
      "ĠSuddenly": 3873,
      "ags": 3874,
      "Ġfine": 3875,
      "Ġhighly": 3876,
      "ĠInstitute": 3877,
      "Ġconv": 3878,
      "ustr": 3879,
      "band": 3880,
      "ription": 3881,
      "ĠBoard": 3882,
      "ĠScience": 3883,
      "Ġlimited": 3884,
      "omb": 3885,
      "Ġspread": 3886,
      "Ġconsist": 3887,
      "erve": 3888,
      "Ġincreased": 3889,
      "force": 3890,
      "Now": 3891,
      "Ġbroke": 3892,
      "itect": 3893,
      "Ġking": 3894,
      "Ġachieve": 3895,
      "Ġlink": 3896,
      "Ġrout": 3897,
      "hicle": 3898,
      "ĠEveryone": 3899,
      "estival": 3900,
      "ading": 3901,
      "Ġlikes": 3902,
      "Ġvariety": 3903,
      "Ġallows": 3904,
      "Ġtur": 3905,
      "tr": 3906,
      "ĠWhite": 3907,
      "Ġqual": 3908,
      "Sue": 3909,
      "house": 3910,
      "wise": 3911,
      "Ġdeliver": 3912,
      "Ġpoor": 3913,
      "Ġdetail": 3914,
      "Ġtick": 3915,
      "ĠMid": 3916,
      "ij": 3917,
      "Ġstreet": 3918,
      "ĠPublic": 3919,
      "ecause": 3920,
      "Ġhospital": 3921,
      "Ġclimbed": 3922,
      "Ġbenefits": 3923,
      "apes": 3924,
      "Ġclothes": 3925,
      "ĠCompany": 3926,
      "Ġded": 3927,
      "Ġliter": 3928,
      "ĠInter": 3929,
      "Ġproduc": 3930,
      "Ġeight": 3931,
      "Ġindividuals": 3932,
      "lear": 3933,
      "Ġunderstanding": 3934,
      "Ġrestaur": 3935,
      "fully": 3936,
      "Ġobt": 3937,
      "ĠGreat": 3938,
      "ronic": 3939,
      "ĠDevelop": 3940,
      "oman": 3941,
      "ĠAssociation": 3942,
      "rie": 3943,
      "Ġnoticed": 3944,
      "onday": 3945,
      "ĠTHE": 3946,
      "Ġstatement": 3947,
      "za": 3948,
      "Ġ...": 3949,
      "Ġserious": 3950,
      "ĠJoe": 3951,
      "Ġprinc": 3952,
      "ĠChurch": 3953,
      "venue": 3954,
      "Ġnormal": 3955,
      "ustain": 3956,
      "Ġallowed": 3957,
      "Ġsurv": 3958,
      "Ġban": 3959,
      "Ġconvers": 3960,
      "ament": 3961,
      "Ġdevice": 3962,
      "Ġemployees": 3963,
      "ĠEven": 3964,
      "vious": 3965,
      "Ġtools": 3966,
      "Ġskin": 3967,
      "Ġprec": 3968,
      "Ġdoctor": 3969,
      "Ġmyself": 3970,
      "ĠChar": 3971,
      "ĠGeneral": 3972,
      "Ġdirectly": 3973,
      "down": 3974,
      "do": 3975,
      "Ġpromot": 3976,
      "Ġexcell": 3977,
      "Ġnumbers": 3978,
      "ĠGoogle": 3979,
      "VID": 3980,
      "Ġclin": 3981,
      "Ġmiddle": 3982,
      "Ġreveal": 3983,
      "opt": 3984,
      "Ġscore": 3985,
      "Ġfaster": 3986,
      "Ġbeach": 3987,
      "ĠMod": 3988,
      "Ġpaid": 3989,
      "ston": 3990,
      "Ġincreasing": 3991,
      "Ġlocation": 3992,
      "gal": 3993,
      "Ġfunction": 3994,
      "Ġphysical": 3995,
      "cks": 3996,
      "Ġdinner": 3997,
      "ĠTra": 3998,
      "Ġattack": 3999,
      "Ġparticularly": 4000,
      "Ġaware": 4001,
      "Ġactivity": 4002,
      "ici": 4003,
      "90": 4004,
      "ĠTex": 4005,
      "Ġclients": 4006,
      "lands": 4007,
      "Ġfile": 4008,
      "ooth": 4009,
      "Ġoccur": 4010,
      "Ġgun": 4011,
      "Ġstarting": 4012,
      "olic": 4013,
      "fly": 4014,
      "ĠAN": 4015,
      "ror": 4016,
      "Ġnearly": 4017,
      "Ġmessage": 4018,
      "istics": 4019,
      "Ġhealthy": 4020,
      "Ġcustomer": 4021,
      "Ġprem": 4022,
      "Ġsen": 4023,
      "Ġstuff": 4024,
      "ĠWhy": 4025,
      "ago": 4026,
      "ĠFacebook": 4027,
      "Ġearlier": 4028,
      "Ġcandid": 4029,
      "Ġeduc": 4030,
      "Ġrules": 4031,
      "Ġfeature": 4032,
      "ategy": 4033,
      "Ġanaly": 4034,
      "Ġforce": 4035,
      "que": 4036,
      "Ġtitle": 4037,
      "Ġduck": 4038,
      "Ġfem": 4039,
      "ĠDirector": 4040,
      "Ġremain": 4041,
      "Ġden": 4042,
      "rian": 4043,
      "ocol": 4044,
      "Ġweight": 4045,
      "Ġstrateg": 4046,
      "ibly": 4047,
      "Ġ=": 4048,
      "Ġtraditional": 4049,
      "ĠPort": 4050,
      "Ġlaws": 4051,
      "Ġsister": 4052,
      "Ġcentury": 4053,
      "ults": 4054,
      "itar": 4055,
      "ĠHall": 4056,
      "ĠUs": 4057,
      "Ġspirit": 4058,
      "Ġdemonstr": 4059,
      "Ġmist": 4060,
      "Ġserved": 4061,
      "icip": 4062,
      "kend": 4063,
      "Ġbeyond": 4064,
      "ĠJew": 4065,
      "uing": 4066,
      "Ġtom": 4067,
      "ĠEv": 4068,
      "Ġlargest": 4069,
      "Ġstayed": 4070,
      "Ġinvestment": 4071,
      "RO": 4072,
      "Ġdaughter": 4073,
      "ograph": 4074,
      "ads": 4075,
      "Re": 4076,
      "Ġassociated": 4077,
      "Ġhelps": 4078,
      "ĠÂ£": 4079,
      "Ġpink": 4080,
      "Ġbusinesses": 4081,
      "Ġsociety": 4082,
      "ĠService": 4083,
      "ĠOffice": 4084,
      "Ġreports": 4085,
      "36": 4086,
      "bl": 4087,
      "iverse": 4088,
      "Ġfederal": 4089,
      "rim": 4090,
      "Ġmeaning": 4091,
      "ĠAfrica": 4092,
      "ulated": 4093,
      "Ġsolution": 4094,
      "ĠIN": 4095
    },
    "merges": [
      [
        "Ġ",
        "t"
      ],
      [
        "h",
        "e"
      ],
      [
        "Ġ",
        "a"
      ],
      [
        "i",
        "n"
      ],
      [
        "Ġt",
        "he"
      ],
      [
        "r",
        "e"
      ],
      [
        "Ġ",
        "s"
      ],
      [
        "Ġ",
        "w"
      ],
      [
        "n",
        "d"
      ],
      [
        "o",
        "n"
      ],
      [
        "e",
        "r"
      ],
      [
        "a",
        "t"
      ],
      [
        "Ġ",
        "b"
      ],
      [
        "e",
        "d"
      ],
      [
        "i",
        "t"
      ],
      [
        "Ġ",
        "o"
      ],
      [
        "Ġ",
        "c"
      ],
      [
        "Ġ",
        "f"
      ],
      [
        "Ġt",
        "o"
      ],
      [
        "i",
        "s"
      ],
      [
        "Ġa",
        "nd"
      ],
      [
        "e",
        "n"
      ],
      [
        "Ġ",
        "p"
      ],
      [
        "o",
        "r"
      ],
      [
        "o",
        "u"
      ],
      [
        "a",
        "n"
      ],
      [
        "e",
        "s"
      ],
      [
        "in",
        "g"
      ],
      [
        "a",
        "r"
      ],
      [
        "Ġ",
        "h"
      ],
      [
        "Ġ",
        "m"
      ],
      [
        "a",
        "l"
      ],
      [
        "Ġ",
        "d"
      ],
      [
        "a",
        "s"
      ],
      [
        "Ġ",
        "in"
      ],
      [
        "Ġo",
        "f"
      ],
      [
        "o",
        "m"
      ],
      [
        "Ġ",
        "l"
      ],
      [
        "Ġ",
        "T"
      ],
      [
        "i",
        "c"
      ],
      [
        "i",
        "l"
      ],
      [
        "Ġt",
        "h"
      ],
      [
        "i",
        "on"
      ],
      [
        "Ġ",
        "n"
      ],
      [
        "l",
        "e"
      ],
      [
        "a",
        "y"
      ],
      [
        "Ġ",
        "S"
      ],
      [
        "i",
        "d"
      ],
      [
        "en",
        "t"
      ],
      [
        "Ġ",
        "g"
      ],
      [
        "e",
        "t"
      ],
      [
        "i",
        "m"
      ],
      [
        "o",
        "t"
      ],
      [
        "Ġ",
        "e"
      ],
      [
        "v",
        "e"
      ],
      [
        "s",
        "t"
      ],
      [
        "Ġ",
        "re"
      ],
      [
        "u",
        "t"
      ],
      [
        "r",
        "o"
      ],
      [
        "Ġ",
        "he"
      ],
      [
        "a",
        "d"
      ],
      [
        "Ġ",
        "I"
      ],
      [
        "a",
        "c"
      ],
      [
        "a",
        "m"
      ],
      [
        "ĠT",
        "he"
      ],
      [
        "Ġw",
        "as"
      ],
      [
        "e",
        "l"
      ],
      [
        "i",
        "g"
      ],
      [
        "Ġ",
        "y"
      ],
      [
        "Ġb",
        "e"
      ],
      [
        "o",
        "w"
      ],
      [
        "Ġ",
        "on"
      ],
      [
        "v",
        "er"
      ],
      [
        "Ġ",
        "A"
      ],
      [
        "i",
        "r"
      ],
      [
        "l",
        "y"
      ],
      [
        "Ġf",
        "or"
      ],
      [
        "Ġ",
        "u"
      ],
      [
        "Ġ",
        "is"
      ],
      [
        "Ġ",
        "C"
      ],
      [
        "it",
        "h"
      ],
      [
        "o",
        "l"
      ],
      [
        "Ġ",
        "it"
      ],
      [
        "u",
        "r"
      ],
      [
        "Ġs",
        "t"
      ],
      [
        "Ġ",
        "M"
      ],
      [
        "Ġw",
        "ith"
      ],
      [
        "e",
        "c"
      ],
      [
        "Ġy",
        "ou"
      ],
      [
        "Ġ",
        "H"
      ],
      [
        "Ġth",
        "at"
      ],
      [
        "s",
        "e"
      ],
      [
        "Ġ",
        "B"
      ],
      [
        "at",
        "ion"
      ],
      [
        "Ġh",
        "a"
      ],
      [
        "'",
        "s"
      ],
      [
        "c",
        "e"
      ],
      [
        "r",
        "i"
      ],
      [
        "p",
        "p"
      ],
      [
        "Ġs",
        "a"
      ],
      [
        "Ġa",
        "l"
      ],
      [
        "o",
        "o"
      ],
      [
        "Ġa",
        "n"
      ],
      [
        "k",
        "e"
      ],
      [
        "t",
        "er"
      ],
      [
        "Ġ",
        "P"
      ],
      [
        "Ġ",
        "\""
      ],
      [
        "u",
        "l"
      ],
      [
        "Ġa",
        "s"
      ],
      [
        "c",
        "h"
      ],
      [
        "Ġw",
        "e"
      ],
      [
        "Ġw",
        "h"
      ],
      [
        "l",
        "d"
      ],
      [
        "he",
        "r"
      ],
      [
        "Ġ",
        "L"
      ],
      [
        "il",
        "l"
      ],
      [
        "u",
        "n"
      ],
      [
        "Ġp",
        "l"
      ],
      [
        "an",
        "t"
      ],
      [
        "Ġ",
        "r"
      ],
      [
        "Ġ",
        "W"
      ],
      [
        "a",
        "g"
      ],
      [
        "Ġa",
        "t"
      ],
      [
        "Ġ",
        "D"
      ],
      [
        "i",
        "f"
      ],
      [
        "c",
        "t"
      ],
      [
        "Ġ",
        "2"
      ],
      [
        "Ġa",
        "re"
      ],
      [
        "er",
        "s"
      ],
      [
        "o",
        "re"
      ],
      [
        "e",
        "m"
      ],
      [
        "Ġ",
        "F"
      ],
      [
        "Ġn",
        "ot"
      ],
      [
        "Ġ",
        "1"
      ],
      [
        "h",
        "t"
      ],
      [
        "e",
        "w"
      ],
      [
        "Ġh",
        "is"
      ],
      [
        "Ġ",
        "("
      ],
      [
        "a",
        "in"
      ],
      [
        "Ġ",
        "R"
      ],
      [
        "u",
        "s"
      ],
      [
        "es",
        "t"
      ],
      [
        "u",
        "m"
      ],
      [
        "r",
        "om"
      ],
      [
        "al",
        "l"
      ],
      [
        "a",
        "b"
      ],
      [
        "Ġs",
        "h"
      ],
      [
        "ĠH",
        "e"
      ],
      [
        "Ġc",
        "om"
      ],
      [
        "es",
        "s"
      ],
      [
        "Ġp",
        "ro"
      ],
      [
        "o",
        "p"
      ],
      [
        "Ġc",
        "on"
      ],
      [
        "e",
        "nd"
      ],
      [
        "ar",
        "t"
      ],
      [
        "is",
        "t"
      ],
      [
        "ou",
        "ld"
      ],
      [
        "at",
        "e"
      ],
      [
        "Ġo",
        "r"
      ],
      [
        "Ġe",
        "x"
      ],
      [
        "ĠThe",
        "y"
      ],
      [
        "ver",
        "y"
      ],
      [
        "Ġsa",
        "id"
      ],
      [
        "a",
        "nd"
      ],
      [
        "t",
        "h"
      ],
      [
        "Ġ",
        "E"
      ],
      [
        "Ġ",
        "N"
      ],
      [
        "Ġhe",
        "r"
      ],
      [
        "e",
        "ar"
      ],
      [
        "Ġd",
        "o"
      ],
      [
        "Ġl",
        "i"
      ],
      [
        "Ġ",
        "v"
      ],
      [
        "it",
        "y"
      ],
      [
        "Ġthe",
        "y"
      ],
      [
        "Ġpl",
        "ay"
      ],
      [
        "Ġ",
        "G"
      ],
      [
        "re",
        "s"
      ],
      [
        "k",
        "ed"
      ],
      [
        "O",
        "n"
      ],
      [
        "Ġd",
        "ay"
      ],
      [
        "T",
        "he"
      ],
      [
        "q",
        "u"
      ],
      [
        "ec",
        "t"
      ],
      [
        "Ġha",
        "ve"
      ],
      [
        "Ġu",
        "p"
      ],
      [
        "Ġf",
        "rom"
      ],
      [
        "re",
        "d"
      ],
      [
        "ar",
        "d"
      ],
      [
        "or",
        "t"
      ],
      [
        "Ġs",
        "o"
      ],
      [
        "n",
        "t"
      ],
      [
        "o",
        "s"
      ],
      [
        "i",
        "ve"
      ],
      [
        "u",
        "st"
      ],
      [
        "Ġ",
        "k"
      ],
      [
        "Ġb",
        "y"
      ],
      [
        "m",
        "ent"
      ],
      [
        "om",
        "e"
      ],
      [
        "Ġ",
        "J"
      ],
      [
        "i",
        "es"
      ],
      [
        "ou",
        "nd"
      ],
      [
        "id",
        "e"
      ],
      [
        "Ġs",
        "e"
      ],
      [
        "ig",
        "ht"
      ],
      [
        "Ġal",
        "l"
      ],
      [
        "Ġs",
        "u"
      ],
      [
        "Ġc",
        "an"
      ],
      [
        "Ġ2",
        "0"
      ],
      [
        "a",
        "p"
      ],
      [
        "Ġh",
        "ad"
      ],
      [
        "u",
        "d"
      ],
      [
        "Ġb",
        "ut"
      ],
      [
        "Ġc",
        "h"
      ],
      [
        "im",
        "e"
      ],
      [
        "ac",
        "k"
      ],
      [
        "Ġt",
        "r"
      ],
      [
        "Ġ",
        "j"
      ],
      [
        "Ġth",
        "is"
      ],
      [
        "ĠS",
        "he"
      ],
      [
        "o",
        "c"
      ],
      [
        "el",
        "l"
      ],
      [
        "ou",
        "t"
      ],
      [
        "Ġw",
        "or"
      ],
      [
        "Ġs",
        "p"
      ],
      [
        "it",
        "t"
      ],
      [
        "il",
        "y"
      ],
      [
        "Ġd",
        "e"
      ],
      [
        "ĠT",
        "im"
      ],
      [
        "Ġb",
        "ig"
      ],
      [
        "as",
        "t"
      ],
      [
        "a",
        "ke"
      ],
      [
        "ou",
        "r"
      ],
      [
        "in",
        "d"
      ],
      [
        "Ġa",
        "b"
      ],
      [
        "i",
        "al"
      ],
      [
        "Ġw",
        "ill"
      ],
      [
        "ou",
        "g"
      ],
      [
        "Ġwe",
        "re"
      ],
      [
        "o",
        "d"
      ],
      [
        "Ġthe",
        "ir"
      ],
      [
        "Ġt",
        "ime"
      ],
      [
        "am",
        "e"
      ],
      [
        "a",
        "k"
      ],
      [
        "Ġw",
        "ant"
      ],
      [
        "o",
        "st"
      ],
      [
        "u",
        "e"
      ],
      [
        "Ġthe",
        "re"
      ],
      [
        "â",
        "Ģ"
      ],
      [
        "Ġha",
        "pp"
      ],
      [
        "he",
        "n"
      ],
      [
        ".",
        "\""
      ],
      [
        "Ġo",
        "ut"
      ],
      [
        "ic",
        "e"
      ],
      [
        "u",
        "re"
      ],
      [
        "on",
        "g"
      ],
      [
        "a",
        "re"
      ],
      [
        "ri",
        "end"
      ],
      [
        "Ġyou",
        "r"
      ],
      [
        "oo",
        "d"
      ],
      [
        "i",
        "v"
      ],
      [
        "'",
        "t"
      ],
      [
        "oo",
        "k"
      ],
      [
        "Ġ",
        "O"
      ],
      [
        "g",
        "e"
      ],
      [
        "Ġs",
        "he"
      ],
      [
        "r",
        "y"
      ],
      [
        "ĠI",
        "t"
      ],
      [
        "Ġf",
        "riend"
      ],
      [
        "Ġ",
        "very"
      ],
      [
        "Ġn",
        "e"
      ],
      [
        "t",
        "her"
      ],
      [
        "Ġc",
        "l"
      ],
      [
        "Ġm",
        "e"
      ],
      [
        "i",
        "a"
      ],
      [
        "Ġ",
        "U"
      ],
      [
        "in",
        "e"
      ],
      [
        "f",
        "f"
      ],
      [
        "Ġh",
        "as"
      ],
      [
        "on",
        "e"
      ],
      [
        "al",
        "ly"
      ],
      [
        "e",
        "p"
      ],
      [
        "Ġl",
        "e"
      ],
      [
        "v",
        "ed"
      ],
      [
        "u",
        "g"
      ],
      [
        "Ġin",
        "t"
      ],
      [
        "Ġm",
        "an"
      ],
      [
        "Ġa",
        "r"
      ],
      [
        "u",
        "c"
      ],
      [
        "Ġg",
        "o"
      ],
      [
        "i",
        "p"
      ],
      [
        "o",
        "g"
      ],
      [
        "ou",
        "s"
      ],
      [
        "ac",
        "t"
      ],
      [
        "ic",
        "h"
      ],
      [
        "ar",
        "k"
      ],
      [
        "re",
        "e"
      ],
      [
        "0",
        "0"
      ],
      [
        "b",
        "er"
      ],
      [
        "ion",
        "s"
      ],
      [
        "Ġa",
        "d"
      ],
      [
        "Ġcom",
        "p"
      ],
      [
        "itt",
        "le"
      ],
      [
        "On",
        "e"
      ],
      [
        "Ġm",
        "ore"
      ],
      [
        "Ġu",
        "s"
      ],
      [
        "Ġs",
        "m"
      ],
      [
        "Ġhe",
        "l"
      ],
      [
        "ĠI",
        "n"
      ],
      [
        "r",
        "a"
      ],
      [
        "Ġ",
        "K"
      ],
      [
        "p",
        "er"
      ],
      [
        "ag",
        "e"
      ],
      [
        "Ġ",
        "en"
      ],
      [
        "Ġl",
        "ittle"
      ],
      [
        "at",
        "ed"
      ],
      [
        "Ġwh",
        "o"
      ],
      [
        "o",
        "y"
      ],
      [
        "Ġthe",
        "m"
      ],
      [
        "Ġk",
        "n"
      ],
      [
        "ac",
        "e"
      ],
      [
        ".",
        "."
      ],
      [
        "Ġhapp",
        "y"
      ],
      [
        "ab",
        "le"
      ],
      [
        "Ġm",
        "om"
      ],
      [
        "Ġhel",
        "p"
      ],
      [
        "Ġo",
        "ther"
      ],
      [
        "Ġsa",
        "w"
      ],
      [
        "an",
        "s"
      ],
      [
        "ĠS",
        "t"
      ],
      [
        "Ġon",
        "e"
      ],
      [
        "i",
        "z"
      ],
      [
        "Ġ",
        "ro"
      ],
      [
        "ar",
        "y"
      ],
      [
        "Ġab",
        "out"
      ],
      [
        "Ġ",
        "im"
      ],
      [
        "Ġn",
        "ew"
      ],
      [
        "p",
        "t"
      ],
      [
        "p",
        "l"
      ],
      [
        "Ġ",
        "Y"
      ],
      [
        "o",
        "nd"
      ],
      [
        "Ġs",
        "c"
      ],
      [
        "ac",
        "h"
      ],
      [
        "Ġa",
        "g"
      ],
      [
        "ĠT",
        "h"
      ],
      [
        "i",
        "e"
      ],
      [
        "he",
        "d"
      ],
      [
        "Ġto",
        "o"
      ],
      [
        "c",
        "c"
      ],
      [
        "Ġ20",
        "1"
      ],
      [
        "Ġp",
        "r"
      ],
      [
        "Ġw",
        "ould"
      ],
      [
        "or",
        "m"
      ],
      [
        "u",
        "b"
      ],
      [
        "ay",
        "s"
      ],
      [
        "it",
        "e"
      ],
      [
        "ing",
        "s"
      ],
      [
        "ow",
        "n"
      ],
      [
        "Ġm",
        "y"
      ],
      [
        "Ġcon",
        "t"
      ],
      [
        "oug",
        "h"
      ],
      [
        "am",
        "ed"
      ],
      [
        "an",
        "ce"
      ],
      [
        "Ġbe",
        "c"
      ],
      [
        "Ġg",
        "r"
      ],
      [
        "s",
        "o"
      ],
      [
        "ir",
        "d"
      ],
      [
        "Ġli",
        "ke"
      ],
      [
        "Ġl",
        "o"
      ],
      [
        "Ġu",
        "n"
      ],
      [
        "Ġd",
        "id"
      ],
      [
        "g",
        "et"
      ],
      [
        "k",
        "s"
      ],
      [
        "i",
        "re"
      ],
      [
        "re",
        "at"
      ],
      [
        "as",
        "s"
      ],
      [
        "Ġc",
        "ould"
      ],
      [
        "il",
        "e"
      ],
      [
        "Ġin",
        "c"
      ],
      [
        "ic",
        "al"
      ],
      [
        "a",
        "v"
      ],
      [
        "o",
        "b"
      ],
      [
        "e",
        "re"
      ],
      [
        "as",
        "e"
      ],
      [
        "is",
        "h"
      ],
      [
        "Ġwh",
        "ich"
      ],
      [
        "Ġn",
        "amed"
      ],
      [
        "Ġre",
        "s"
      ],
      [
        "ig",
        "n"
      ],
      [
        "ation",
        "s"
      ],
      [
        "Ġa",
        "pp"
      ],
      [
        "a",
        "il"
      ],
      [
        "Ġfriend",
        "s"
      ],
      [
        "Ġwant",
        "ed"
      ],
      [
        "Ġs",
        "ome"
      ],
      [
        "l",
        "l"
      ],
      [
        "Ġwh",
        "at"
      ],
      [
        "ĠC",
        "h"
      ],
      [
        "Ġ",
        "V"
      ],
      [
        "ul",
        "t"
      ],
      [
        "Ġo",
        "ur"
      ],
      [
        "Ġof",
        "f"
      ],
      [
        "i",
        "b"
      ],
      [
        "en",
        "ce"
      ],
      [
        "ad",
        "e"
      ],
      [
        "!",
        "\""
      ],
      [
        "Ġh",
        "im"
      ],
      [
        "Ġe",
        "v"
      ],
      [
        "ic",
        "k"
      ],
      [
        "Ġan",
        "y"
      ],
      [
        "Ġw",
        "hen"
      ],
      [
        "ĠT",
        "om"
      ],
      [
        "Ġy",
        "ear"
      ],
      [
        "Ġp",
        "er"
      ],
      [
        "ĠL",
        "ily"
      ],
      [
        "Ġf",
        "un"
      ],
      [
        "Ġp",
        "e"
      ],
      [
        "ent",
        "s"
      ],
      [
        "Ġ",
        "âĢ"
      ],
      [
        "ve",
        "l"
      ],
      [
        "ou",
        "nt"
      ],
      [
        "Ġw",
        "ent"
      ],
      [
        "Ġ",
        "qu"
      ],
      [
        "Ġp",
        "re"
      ],
      [
        "or",
        "d"
      ],
      [
        "Ġal",
        "so"
      ],
      [
        "Ġp",
        "art"
      ],
      [
        "Ġit",
        "s"
      ],
      [
        "res",
        "s"
      ],
      [
        "Ġb",
        "ack"
      ],
      [
        "Ġg",
        "et"
      ],
      [
        "Ġd",
        "is"
      ],
      [
        "u",
        "ct"
      ],
      [
        "Ġth",
        "an"
      ],
      [
        "Ġb",
        "ird"
      ],
      [
        "u",
        "se"
      ],
      [
        "Ġ",
        "3"
      ],
      [
        "at",
        "er"
      ],
      [
        "w",
        "n"
      ],
      [
        "Ġn",
        "o"
      ],
      [
        "f",
        "ul"
      ],
      [
        "or",
        "y"
      ],
      [
        "Ġo",
        "ver"
      ],
      [
        "f",
        "ter"
      ],
      [
        "Ġbe",
        "en"
      ],
      [
        "or",
        "s"
      ],
      [
        "a",
        "x"
      ],
      [
        "On",
        "ce"
      ],
      [
        "h",
        "ing"
      ],
      [
        "Ġup",
        "on"
      ],
      [
        "an",
        "g"
      ],
      [
        "f",
        "orm"
      ],
      [
        "l",
        "ow"
      ],
      [
        "il",
        "d"
      ],
      [
        "Ġint",
        "o"
      ],
      [
        "p",
        "ort"
      ],
      [
        "Ġb",
        "r"
      ],
      [
        "Ġse",
        "e"
      ],
      [
        "Ġm",
        "ake"
      ],
      [
        "nd",
        "er"
      ],
      [
        "m",
        "er"
      ],
      [
        "Ġf",
        "e"
      ],
      [
        "Ġwor",
        "k"
      ],
      [
        "it",
        "ion"
      ],
      [
        "op",
        "le"
      ],
      [
        "Ġto",
        "get"
      ],
      [
        "Ġtoget",
        "her"
      ],
      [
        "en",
        "s"
      ],
      [
        "Ġa",
        "m"
      ],
      [
        "ol",
        "d"
      ],
      [
        "he",
        "re"
      ],
      [
        "Ġre",
        "c"
      ],
      [
        "o",
        "se"
      ],
      [
        "Ġst",
        "art"
      ],
      [
        "Ġf",
        "ound"
      ],
      [
        ",",
        "\""
      ],
      [
        "Ġe",
        "very"
      ],
      [
        "in",
        "t"
      ],
      [
        "Ġj",
        "ust"
      ],
      [
        "ir",
        "st"
      ],
      [
        "Ġ1",
        "9"
      ],
      [
        "Ġh",
        "ow"
      ],
      [
        "Ġs",
        "er"
      ],
      [
        "Ġ",
        "if"
      ],
      [
        "i",
        "an"
      ],
      [
        "Ġc",
        "at"
      ],
      [
        "Ġt",
        "w"
      ],
      [
        "Ġc",
        "ar"
      ],
      [
        "ver",
        "s"
      ],
      [
        "Ġ",
        "-"
      ],
      [
        "Ġt",
        "e"
      ],
      [
        "Ġg",
        "ood"
      ],
      [
        "Ġpe",
        "ople"
      ],
      [
        "Ġto",
        "y"
      ],
      [
        "Ġb",
        "l"
      ],
      [
        "in",
        "k"
      ],
      [
        "ig",
        "h"
      ],
      [
        "Ġkn",
        "ow"
      ],
      [
        "a",
        "use"
      ],
      [
        "Ġl",
        "a"
      ],
      [
        "ic",
        "t"
      ],
      [
        "s",
        "ide"
      ],
      [
        "i",
        "ous"
      ],
      [
        "Ġne",
        "ed"
      ],
      [
        "le",
        "ct"
      ],
      [
        "om",
        "et"
      ],
      [
        "ir",
        "l"
      ],
      [
        "an",
        "c"
      ],
      [
        "el",
        "y"
      ],
      [
        "is",
        "e"
      ],
      [
        "Ġd",
        "ec"
      ],
      [
        "u",
        "ch"
      ],
      [
        "Ġu",
        "nder"
      ],
      [
        "ĠW",
        "e"
      ],
      [
        "ou",
        "se"
      ],
      [
        "n",
        "ing"
      ],
      [
        "T",
        "h"
      ],
      [
        "Ġc",
        "o"
      ],
      [
        "ĠB",
        "ut"
      ],
      [
        "Ġa",
        "w"
      ],
      [
        "Ġb",
        "et"
      ],
      [
        "al",
        "s"
      ],
      [
        "Ġl",
        "ook"
      ],
      [
        "it",
        "ed"
      ],
      [
        "ot",
        "h"
      ],
      [
        "Ġdo",
        "g"
      ],
      [
        "on",
        "s"
      ],
      [
        "Ġm",
        "ade"
      ],
      [
        "Ġag",
        "ain"
      ],
      [
        "Ġman",
        "y"
      ],
      [
        "Ġa",
        "cc"
      ],
      [
        "?",
        "\""
      ],
      [
        "m",
        "y"
      ],
      [
        "Ġa",
        "ct"
      ],
      [
        "f",
        "t"
      ],
      [
        "oug",
        "ht"
      ],
      [
        "ĠS",
        "p"
      ],
      [
        "Ġf",
        "ind"
      ],
      [
        "Ġthe",
        "n"
      ],
      [
        "v",
        "ing"
      ],
      [
        "Ġg",
        "irl"
      ],
      [
        "Ġb",
        "o"
      ],
      [
        "Ġf",
        "irst"
      ],
      [
        "t",
        "y"
      ],
      [
        "Ġplay",
        "ed"
      ],
      [
        "Ġb",
        "all"
      ],
      [
        "g",
        "r"
      ],
      [
        "ĠY",
        "ou"
      ],
      [
        "Ġst",
        "r"
      ],
      [
        "Ġc",
        "ol"
      ],
      [
        "a",
        "red"
      ],
      [
        "l",
        "es"
      ],
      [
        "at",
        "es"
      ],
      [
        "l",
        "ic"
      ],
      [
        "Ġd",
        "own"
      ],
      [
        "is",
        "s"
      ],
      [
        "l",
        "ud"
      ],
      [
        "h",
        "n"
      ],
      [
        "Ġcom",
        "m"
      ],
      [
        "Ġs",
        "omet"
      ],
      [
        "if",
        "f"
      ],
      [
        "o",
        "ve"
      ],
      [
        "w",
        "e"
      ],
      [
        "2",
        "0"
      ],
      [
        "Ġh",
        "ome"
      ],
      [
        "Ġa",
        "fter"
      ],
      [
        "ur",
        "n"
      ],
      [
        "ĠâĢ",
        "ĵ"
      ],
      [
        "p",
        "ect"
      ],
      [
        "Ġd",
        "es"
      ],
      [
        "Ġ",
        "4"
      ],
      [
        ")",
        "."
      ],
      [
        "r",
        "ough"
      ],
      [
        "Ġsh",
        "ow"
      ],
      [
        "ter",
        "n"
      ],
      [
        "Ġin",
        "d"
      ],
      [
        "ĠA",
        "nd"
      ],
      [
        "Ġbec",
        "ause"
      ],
      [
        "Ġtw",
        "o"
      ],
      [
        "Ġl",
        "oo"
      ],
      [
        "Ġb",
        "oy"
      ],
      [
        "a",
        "ve"
      ],
      [
        "am",
        "p"
      ],
      [
        "x",
        "t"
      ],
      [
        "Ġsm",
        "all"
      ],
      [
        "o",
        "ol"
      ],
      [
        "Ġ",
        "5"
      ],
      [
        "Ġon",
        "ly"
      ],
      [
        "Ġ",
        "ke"
      ],
      [
        "ation",
        "al"
      ],
      [
        "ĠU",
        "n"
      ],
      [
        "Ġs",
        "ad"
      ],
      [
        "ot",
        "her"
      ],
      [
        "el",
        "t"
      ],
      [
        "ĠTh",
        "is"
      ],
      [
        "n",
        "g"
      ],
      [
        "Ġar",
        "ound"
      ],
      [
        "it",
        "ies"
      ],
      [
        "ro",
        "w"
      ],
      [
        "an",
        "k"
      ],
      [
        "en",
        "c"
      ],
      [
        "Ġt",
        "ree"
      ],
      [
        "i",
        "ew"
      ],
      [
        "Ġth",
        "rough"
      ],
      [
        "Ġm",
        "ost"
      ],
      [
        "Ġloo",
        "ked"
      ],
      [
        "s",
        "s"
      ],
      [
        "Ġb",
        "u"
      ],
      [
        "Ġlo",
        "ved"
      ],
      [
        "Ġinc",
        "lud"
      ],
      [
        "u",
        "al"
      ],
      [
        "Ġs",
        "ur"
      ],
      [
        "Ġl",
        "ong"
      ],
      [
        "Ġm",
        "ay"
      ],
      [
        "p",
        "r"
      ],
      [
        "Ġ",
        "One"
      ],
      [
        "Ġpro",
        "v"
      ],
      [
        "at",
        "ing"
      ],
      [
        "d",
        "ay"
      ],
      [
        "Ġt",
        "ri"
      ],
      [
        "Ġf",
        "l"
      ],
      [
        "o",
        "v"
      ],
      [
        "Ġp",
        "ut"
      ],
      [
        "Ġe",
        "m"
      ],
      [
        "al",
        "k"
      ],
      [
        "h",
        "y"
      ],
      [
        "j",
        "ect"
      ],
      [
        "Ġsomet",
        "hing"
      ],
      [
        "Ġm",
        "uch"
      ],
      [
        "f",
        "ore"
      ],
      [
        "Ġc",
        "ame"
      ],
      [
        "Ġev",
        "en"
      ],
      [
        "Ġb",
        "est"
      ],
      [
        "ol",
        "og"
      ],
      [
        "Ġw",
        "here"
      ],
      [
        "Ġd",
        "iff"
      ],
      [
        "Ġo",
        "p"
      ],
      [
        "Ġp",
        "o"
      ],
      [
        "Ġad",
        "d"
      ],
      [
        "el",
        "f"
      ],
      [
        "r",
        "it"
      ],
      [
        "Ġyear",
        "s"
      ],
      [
        "Ġre",
        "m"
      ],
      [
        "Ġstart",
        "ed"
      ],
      [
        "Ġl",
        "ear"
      ],
      [
        "Ġu",
        "se"
      ],
      [
        "Ġn",
        "ow"
      ],
      [
        "Ġin",
        "v"
      ],
      [
        "Ġre",
        "l"
      ],
      [
        "Ġw",
        "ay"
      ],
      [
        "on",
        "t"
      ],
      [
        "Ġp",
        "ark"
      ],
      [
        "if",
        "e"
      ],
      [
        "ak",
        "ing"
      ],
      [
        "Ġst",
        "ud"
      ],
      [
        "i",
        "ed"
      ],
      [
        "Ġ",
        "'"
      ],
      [
        "ĠR",
        "e"
      ],
      [
        "Ġw",
        "ell"
      ],
      [
        "Ġc",
        "are"
      ],
      [
        "at",
        "h"
      ],
      [
        "Ġat",
        "t"
      ],
      [
        "Ġsp",
        "ec"
      ],
      [
        "if",
        "ic"
      ],
      [
        "Ġth",
        "ings"
      ],
      [
        "Ġim",
        "p"
      ],
      [
        ")",
        ","
      ],
      [
        "ul",
        "l"
      ],
      [
        "a",
        "ir"
      ],
      [
        "ĠS",
        "ue"
      ],
      [
        "Ġsu",
        "pp"
      ],
      [
        "n",
        "e"
      ],
      [
        "Ġaw",
        "ay"
      ],
      [
        "Ġre",
        "g"
      ],
      [
        "id",
        "ent"
      ],
      [
        "Ġsh",
        "ould"
      ],
      [
        "Ġas",
        "ked"
      ],
      [
        "ĠM",
        "ax"
      ],
      [
        "le",
        "t"
      ],
      [
        "ĠC",
        "om"
      ],
      [
        "en",
        "ed"
      ],
      [
        "Ġb",
        "oth"
      ],
      [
        "um",
        "p"
      ],
      [
        "Ġl",
        "ot"
      ],
      [
        "Ġthe",
        "se"
      ],
      [
        "as",
        "ed"
      ],
      [
        "Ġh",
        "igh"
      ],
      [
        "ic",
        "s"
      ],
      [
        "an",
        "ge"
      ],
      [
        "er",
        "t"
      ],
      [
        "g",
        "an"
      ],
      [
        "Ġth",
        "ought"
      ],
      [
        "Ġe",
        "nd"
      ],
      [
        "Ġa",
        "c"
      ],
      [
        "Ġt",
        "ake"
      ],
      [
        "u",
        "res"
      ],
      [
        "Ġf",
        "elt"
      ],
      [
        "c",
        "om"
      ],
      [
        "er",
        "m"
      ],
      [
        "ou",
        "p"
      ],
      [
        "ĠA",
        "n"
      ],
      [
        "Ġd",
        "on"
      ],
      [
        "he",
        "s"
      ],
      [
        "Ġs",
        "y"
      ],
      [
        "ĠB",
        "en"
      ],
      [
        "Ġcon",
        "s"
      ],
      [
        "Ġf",
        "am"
      ],
      [
        "I",
        "n"
      ],
      [
        "Ġpro",
        "d"
      ],
      [
        "Ġg",
        "reat"
      ],
      [
        "ĠS",
        "am"
      ],
      [
        "h",
        "at"
      ],
      [
        "Ġs",
        "ec"
      ],
      [
        "Ġf",
        "in"
      ],
      [
        "oc",
        "k"
      ],
      [
        "il",
        "ed"
      ],
      [
        "i",
        "x"
      ],
      [
        "an",
        "y"
      ],
      [
        "Ġp",
        "ol"
      ],
      [
        "ic",
        "es"
      ],
      [
        "w",
        "ays"
      ],
      [
        "Ġbe",
        "ing"
      ],
      [
        "Ġr",
        "ight"
      ],
      [
        "uc",
        "k"
      ],
      [
        "ar",
        "m"
      ],
      [
        "Ġe",
        "ach"
      ],
      [
        "u",
        "p"
      ],
      [
        "at",
        "ive"
      ],
      [
        "ment",
        "s"
      ],
      [
        "h",
        "ip"
      ],
      [
        "Ġo",
        "wn"
      ],
      [
        "ur",
        "ing"
      ],
      [
        "Ġli",
        "ked"
      ],
      [
        "Ġre",
        "d"
      ],
      [
        "Ġex",
        "c"
      ],
      [
        "e",
        "e"
      ],
      [
        "Ġs",
        "ays"
      ],
      [
        "Ġb",
        "us"
      ],
      [
        "os",
        "s"
      ],
      [
        "Ġas",
        "s"
      ],
      [
        "al",
        "th"
      ],
      [
        "il",
        "ity"
      ],
      [
        "ro",
        "p"
      ],
      [
        "ĠN",
        "ew"
      ],
      [
        "Ġc",
        "all"
      ],
      [
        "ib",
        "le"
      ],
      [
        "em",
        "ber"
      ],
      [
        "b",
        "le"
      ],
      [
        "vel",
        "op"
      ],
      [
        "ul",
        "ar"
      ],
      [
        "ers",
        "on"
      ],
      [
        "Ġg",
        "ot"
      ],
      [
        "re",
        "n"
      ],
      [
        "n",
        "ed"
      ],
      [
        "or",
        "k"
      ],
      [
        "u",
        "nd"
      ],
      [
        "Ġre",
        "ad"
      ],
      [
        "in",
        "ess"
      ],
      [
        "Ġh",
        "ouse"
      ],
      [
        "t",
        "ing"
      ],
      [
        "Ġr",
        "un"
      ],
      [
        "n",
        "y"
      ],
      [
        "Ġha",
        "nd"
      ],
      [
        "ch",
        "ool"
      ],
      [
        "Ġfe",
        "el"
      ],
      [
        "e",
        "red"
      ],
      [
        "pp",
        "ed"
      ],
      [
        "st",
        "r"
      ],
      [
        "Ġtoo",
        "k"
      ],
      [
        "ĠA",
        "r"
      ],
      [
        "Ġsu",
        "ch"
      ],
      [
        "Ġ20",
        "0"
      ],
      [
        "a",
        "z"
      ],
      [
        "Ġ",
        "6"
      ],
      [
        "Ġ",
        "&"
      ],
      [
        "em",
        "ent"
      ],
      [
        "v",
        "es"
      ],
      [
        "Ġ",
        "ent"
      ],
      [
        "id",
        "ed"
      ],
      [
        "i",
        "ence"
      ],
      [
        "c",
        "k"
      ],
      [
        "w",
        "ard"
      ],
      [
        "en",
        "er"
      ],
      [
        "Ġwor",
        "ld"
      ],
      [
        "Ġs",
        "k"
      ],
      [
        "i",
        "vers"
      ],
      [
        "it",
        "s"
      ],
      [
        "Ġm",
        "on"
      ],
      [
        "Ġal",
        "ways"
      ],
      [
        "Ġf",
        "r"
      ],
      [
        "ĠS",
        "o"
      ],
      [
        "Ġex",
        "per"
      ],
      [
        "Ġ",
        "$"
      ],
      [
        "Ġbe",
        "fore"
      ],
      [
        "Ġw",
        "ater"
      ],
      [
        "Ġsu",
        "b"
      ],
      [
        "Ġdiff",
        "ere"
      ],
      [
        "Ġs",
        "et"
      ],
      [
        "Ġplay",
        "ing"
      ],
      [
        "Ġp",
        "res"
      ],
      [
        "ou",
        "d"
      ],
      [
        "l",
        "and"
      ],
      [
        "n",
        "er"
      ],
      [
        "i",
        "ent"
      ],
      [
        "v",
        "en"
      ],
      [
        "Ġc",
        "le"
      ],
      [
        "i",
        "o"
      ],
      [
        "ri",
        "b"
      ],
      [
        "Ġg",
        "u"
      ],
      [
        "Ġth",
        "ink"
      ],
      [
        "st",
        "em"
      ],
      [
        "ou",
        "n"
      ],
      [
        "Ġb",
        "ook"
      ],
      [
        "e",
        "x"
      ],
      [
        "ol",
        "low"
      ],
      [
        "'",
        "re"
      ],
      [
        "Ġc",
        "r"
      ],
      [
        "b",
        "r"
      ],
      [
        "Ġst",
        "ill"
      ],
      [
        "ow",
        "er"
      ],
      [
        "Ġwh",
        "ile"
      ],
      [
        "ub",
        "lic"
      ],
      [
        "l",
        "ed"
      ],
      [
        "Ġe",
        "ff"
      ],
      [
        "Ġc",
        "he"
      ],
      [
        "Ġc",
        "ount"
      ],
      [
        "a",
        "w"
      ],
      [
        "ire",
        "ct"
      ],
      [
        "Ġl",
        "ist"
      ],
      [
        "Ġdo",
        "es"
      ],
      [
        "Ġus",
        "ed"
      ],
      [
        "Ġar",
        "t"
      ],
      [
        "Ġm",
        "et"
      ],
      [
        "Ġhe",
        "re"
      ],
      [
        "Ġc",
        "ur"
      ],
      [
        "Ġb",
        "el"
      ],
      [
        "Ġp",
        "h"
      ],
      [
        "ĠA",
        "l"
      ],
      [
        "Ġsm",
        "iled"
      ],
      [
        "u",
        "es"
      ],
      [
        "at",
        "ch"
      ],
      [
        "Ġs",
        "ay"
      ],
      [
        "a",
        "h"
      ],
      [
        "1",
        "9"
      ],
      [
        "Ġl",
        "oc"
      ],
      [
        "'",
        "m"
      ],
      [
        "Ġ1",
        "0"
      ],
      [
        "Ġ",
        "7"
      ],
      [
        "r",
        "ic"
      ],
      [
        "Ġser",
        "v"
      ],
      [
        "Ġdis",
        "c"
      ],
      [
        "Ġr",
        "an"
      ],
      [
        "Ġtr",
        "ans"
      ],
      [
        "ar",
        "s"
      ],
      [
        "form",
        "ation"
      ],
      [
        "ar",
        "ch"
      ],
      [
        "Ġl",
        "et"
      ],
      [
        "is",
        "ed"
      ],
      [
        "Ġbo",
        "x"
      ],
      [
        "ter",
        "s"
      ],
      [
        "at",
        "her"
      ],
      [
        "ĠP",
        "ro"
      ],
      [
        "ĠA",
        "s"
      ],
      [
        "i",
        "et"
      ],
      [
        "Ġg",
        "l"
      ],
      [
        "Ġth",
        "ose"
      ],
      [
        "m",
        "an"
      ],
      [
        "Ġd",
        "r"
      ],
      [
        "al",
        "e"
      ],
      [
        "Ġo",
        "ld"
      ],
      [
        "Ġ",
        "ide"
      ],
      [
        "ak",
        "es"
      ],
      [
        "in",
        "s"
      ],
      [
        "Ġo",
        "b"
      ],
      [
        "Ġs",
        "w"
      ],
      [
        "Ġde",
        "velop"
      ],
      [
        "Ġc",
        "re"
      ],
      [
        "Ġm",
        "od"
      ],
      [
        "as",
        "on"
      ],
      [
        "Ġro",
        "om"
      ],
      [
        "g",
        "ed"
      ],
      [
        "W",
        "e"
      ],
      [
        "in",
        "ce"
      ],
      [
        "mer",
        "ic"
      ],
      [
        "I",
        "t"
      ],
      [
        "Ġad",
        "v"
      ],
      [
        "p",
        "h"
      ],
      [
        "Ġre",
        "al"
      ],
      [
        "ion",
        "al"
      ],
      [
        "Ġbet",
        "ter"
      ],
      [
        "Ġs",
        "un"
      ],
      [
        "Ġw",
        "r"
      ],
      [
        "ĠT",
        "r"
      ],
      [
        "Ġle",
        "ad"
      ],
      [
        "Ġf",
        "ollow"
      ],
      [
        "i",
        "er"
      ],
      [
        "i",
        "el"
      ],
      [
        "Ġ",
        "Ċ"
      ],
      [
        "is",
        "hed"
      ],
      [
        "Ġre",
        "p"
      ],
      [
        "ĠS",
        "h"
      ],
      [
        "gr",
        "am"
      ],
      [
        "Ġm",
        "ed"
      ],
      [
        "Ġla",
        "ug"
      ],
      [
        "c",
        "ess"
      ],
      [
        "Ġ",
        "8"
      ],
      [
        "Ġpl",
        "ace"
      ],
      [
        "Ġm",
        "in"
      ],
      [
        "n",
        "a"
      ],
      [
        "Ġp",
        "erson"
      ],
      [
        "e",
        "f"
      ],
      [
        "v",
        "iew"
      ],
      [
        "ĠSp",
        "ot"
      ],
      [
        "Ġgo",
        "ing"
      ],
      [
        "Ġn",
        "um"
      ],
      [
        "Ġlo",
        "ve"
      ],
      [
        "we",
        "en"
      ],
      [
        "Ġs",
        "ign"
      ],
      [
        "..",
        "."
      ],
      [
        "Ġcom",
        "e"
      ],
      [
        "Ġre",
        "qu"
      ],
      [
        "Ġdiffere",
        "nt"
      ],
      [
        "e",
        "ver"
      ],
      [
        "Ġv",
        "is"
      ],
      [
        "Ġtr",
        "y"
      ],
      [
        "Ġch",
        "ild"
      ],
      [
        "le",
        "ase"
      ],
      [
        "ec",
        "hn"
      ],
      [
        "Ġin",
        "ter"
      ],
      [
        "in",
        "es"
      ],
      [
        "i",
        "red"
      ],
      [
        "Ġex",
        "p"
      ],
      [
        "Ġpre",
        "t"
      ],
      [
        "Ġne",
        "ver"
      ],
      [
        "Ġfam",
        "ily"
      ],
      [
        "Ġl",
        "ife"
      ],
      [
        "t",
        "s"
      ],
      [
        "as",
        "h"
      ],
      [
        "Ġc",
        "our"
      ],
      [
        "Ġl",
        "ast"
      ],
      [
        "Ġprod",
        "uct"
      ],
      [
        "ver",
        "n"
      ],
      [
        "Ġsy",
        "stem"
      ],
      [
        "u",
        "ally"
      ],
      [
        "or",
        "n"
      ],
      [
        "am",
        "es"
      ],
      [
        "Ġde",
        "f"
      ],
      [
        "Ġim",
        "port"
      ],
      [
        "ark",
        "et"
      ],
      [
        "im",
        "es"
      ],
      [
        "re",
        "ad"
      ],
      [
        "Ġs",
        "l"
      ],
      [
        "Ġli",
        "ved"
      ],
      [
        "1",
        "0"
      ],
      [
        "at",
        "a"
      ],
      [
        "Ġ",
        "9"
      ],
      [
        "ĠJ",
        "o"
      ],
      [
        "Ġbet",
        "ween"
      ],
      [
        "Ġd",
        "et"
      ],
      [
        "iz",
        "ed"
      ],
      [
        "ĠC",
        "l"
      ],
      [
        "ce",
        "pt"
      ],
      [
        "ut",
        "ion"
      ],
      [
        "Ġsupp",
        "ort"
      ],
      [
        "olog",
        "y"
      ],
      [
        "Ġre",
        "f"
      ],
      [
        "Ġre",
        "t"
      ],
      [
        "Ġcomm",
        "un"
      ],
      [
        "ut",
        "h"
      ],
      [
        "d",
        "er"
      ],
      [
        "Ġsc",
        "ared"
      ],
      [
        "Ġth",
        "ree"
      ],
      [
        "Ġ",
        "0"
      ],
      [
        "Ġpl",
        "an"
      ],
      [
        "is",
        "m"
      ],
      [
        "Ġtoy",
        "s"
      ],
      [
        "Ġh",
        "ard"
      ],
      [
        "ĠL",
        "e"
      ],
      [
        "Ġ",
        "ed"
      ],
      [
        "Ġg",
        "ame"
      ],
      [
        "it",
        "al"
      ],
      [
        "Ġbec",
        "ame"
      ],
      [
        "ĠA",
        "meric"
      ],
      [
        "Ġwe",
        "e"
      ],
      [
        "Ġbus",
        "iness"
      ],
      [
        "Ġa",
        "v"
      ],
      [
        "ag",
        "es"
      ],
      [
        "Ġn",
        "ear"
      ],
      [
        "re",
        "en"
      ],
      [
        "Ġto",
        "ld"
      ],
      [
        "n",
        "ess"
      ],
      [
        "Ġch",
        "ar"
      ],
      [
        "Ġtri",
        "ed"
      ],
      [
        "Ġne",
        "xt"
      ],
      [
        "Th",
        "is"
      ],
      [
        "ivers",
        "ity"
      ],
      [
        "ro",
        "ss"
      ],
      [
        "00",
        "0"
      ],
      [
        "Ġspec",
        "ial"
      ],
      [
        "Ġout",
        "side"
      ],
      [
        "Ġre",
        "ally"
      ],
      [
        "Ġk",
        "ind"
      ],
      [
        "Ġin",
        "s"
      ],
      [
        "ant",
        "s"
      ],
      [
        "Ġfor",
        "m"
      ],
      [
        "Ġex",
        "pl"
      ],
      [
        "Ġs",
        "im"
      ],
      [
        "Ġex",
        "t"
      ],
      [
        "l",
        "ine"
      ],
      [
        "Ġcon",
        "f"
      ],
      [
        "Ġpo",
        "int"
      ],
      [
        "ot",
        "e"
      ],
      [
        "Ġin",
        "formation"
      ],
      [
        "y",
        "p"
      ],
      [
        ".",
        ","
      ],
      [
        "Ġs",
        "ame"
      ],
      [
        "r",
        "ap"
      ],
      [
        "Ġf",
        "ood"
      ],
      [
        "Ġte",
        "am"
      ],
      [
        "us",
        "s"
      ],
      [
        "Ġin",
        "st"
      ],
      [
        "ĠS",
        "c"
      ],
      [
        "ĠF",
        "or"
      ],
      [
        "b",
        "e"
      ],
      [
        "ot",
        "t"
      ],
      [
        "Ġkn",
        "ew"
      ],
      [
        "Ġd",
        "el"
      ],
      [
        "re",
        "t"
      ],
      [
        "s",
        "elf"
      ],
      [
        "ut",
        "e"
      ],
      [
        "\\",
        "\\"
      ],
      [
        "Ġt",
        "urn"
      ],
      [
        "Ġe",
        "ar"
      ],
      [
        "Ġdes",
        "ign"
      ],
      [
        "Ġto",
        "p"
      ],
      [
        "g",
        "y"
      ],
      [
        "Ġke",
        "ep"
      ],
      [
        "Ġdid",
        "n"
      ],
      [
        "Ġsa",
        "f"
      ],
      [
        "b",
        "y"
      ],
      [
        "th",
        "ing"
      ],
      [
        "ist",
        "s"
      ],
      [
        "ere",
        "st"
      ],
      [
        "iel",
        "d"
      ],
      [
        "Ġp",
        "ur"
      ],
      [
        "er",
        "v"
      ],
      [
        "Ġcont",
        "in"
      ],
      [
        "ain",
        "t"
      ],
      [
        "ĠI",
        "f"
      ],
      [
        "Ġs",
        "chool"
      ],
      [
        "g",
        "er"
      ],
      [
        "Ġp",
        "at"
      ],
      [
        "Ġop",
        "en"
      ],
      [
        "Ġb",
        "ro"
      ],
      [
        "A",
        "s"
      ],
      [
        "Ġm",
        "us"
      ],
      [
        "Ġf",
        "ore"
      ],
      [
        "Ġbu",
        "ild"
      ],
      [
        "c",
        "es"
      ],
      [
        "et",
        "s"
      ],
      [
        "iv",
        "es"
      ],
      [
        "Ġdec",
        "ided"
      ],
      [
        "ĠM",
        "ia"
      ],
      [
        "T",
        "im"
      ],
      [
        "ĠB",
        "l"
      ],
      [
        "uc",
        "y"
      ],
      [
        "t",
        "on"
      ],
      [
        "Ġg",
        "ener"
      ],
      [
        "Ġu",
        "nt"
      ],
      [
        "Ġin",
        "f"
      ],
      [
        "ĠA",
        "d"
      ],
      [
        "B",
        "ut"
      ],
      [
        "'",
        "ve"
      ],
      [
        "Ġw",
        "a"
      ],
      [
        "Ġl",
        "ar"
      ],
      [
        "ĠI",
        "nd"
      ],
      [
        "ĠG",
        "r"
      ],
      [
        "Ġhe",
        "ad"
      ],
      [
        "Ġd",
        "ist"
      ],
      [
        "Ġlear",
        "ned"
      ],
      [
        "ect",
        "ion"
      ],
      [
        "Ġpro",
        "gram"
      ],
      [
        "y",
        "s"
      ],
      [
        "Ġd",
        "uring"
      ],
      [
        "o",
        "ot"
      ],
      [
        "Ġd",
        "irect"
      ],
      [
        "b",
        "ers"
      ],
      [
        "Ġimport",
        "ant"
      ],
      [
        "Ġre",
        "port"
      ],
      [
        "Ġst",
        "ory"
      ],
      [
        "Ġc",
        "ent"
      ],
      [
        "a",
        "ut"
      ],
      [
        "Ġg",
        "ive"
      ],
      [
        "Ġf",
        "il"
      ],
      [
        "c",
        "on"
      ],
      [
        "Ġc",
        "ap"
      ],
      [
        "Ġhe",
        "alth"
      ],
      [
        "Ġm",
        "ust"
      ],
      [
        "l",
        "ess"
      ],
      [
        "iz",
        "e"
      ],
      [
        "âĢ",
        "¦"
      ],
      [
        "ĠI",
        "s"
      ],
      [
        "ĠW",
        "h"
      ],
      [
        "Y",
        "ou"
      ],
      [
        "Ġgr",
        "oup"
      ],
      [
        "Ġan",
        "other"
      ],
      [
        "Ġpret",
        "ty"
      ],
      [
        "Ġan",
        "im"
      ],
      [
        "ĠH",
        "is"
      ],
      [
        "w",
        "w"
      ],
      [
        "an",
        "e"
      ],
      [
        "ur",
        "al"
      ],
      [
        "ol",
        "l"
      ],
      [
        "Ġ",
        "Z"
      ],
      [
        "ill",
        "ion"
      ],
      [
        "re",
        "nt"
      ],
      [
        "el",
        "s"
      ],
      [
        "Ġc",
        "or"
      ],
      [
        "Ġv",
        "al"
      ],
      [
        "at",
        "ure"
      ],
      [
        "ĠThe",
        "re"
      ],
      [
        "in",
        "ed"
      ],
      [
        "Ġin",
        "side"
      ],
      [
        "The",
        "y"
      ],
      [
        "Ġp",
        "ost"
      ],
      [
        "Ġf",
        "act"
      ],
      [
        "Ġ1",
        "8"
      ],
      [
        "Ġor",
        "gan"
      ],
      [
        "Ġsh",
        "are"
      ],
      [
        "ĠD",
        "e"
      ],
      [
        "i",
        "ke"
      ],
      [
        "ĠA",
        "ll"
      ],
      [
        "Ġsur",
        "pr"
      ],
      [
        "Ġe",
        "ver"
      ],
      [
        "ĠF",
        "r"
      ],
      [
        "Ġde",
        "p"
      ],
      [
        "..",
        ".."
      ],
      [
        "Ġm",
        "em"
      ],
      [
        "Ġinclud",
        "ing"
      ],
      [
        "is",
        "ion"
      ],
      [
        "Ġd",
        "ri"
      ],
      [
        "Ġpart",
        "ic"
      ],
      [
        "st",
        "and"
      ],
      [
        "ou",
        "th"
      ],
      [
        "Ġunt",
        "il"
      ],
      [
        "Ġpro",
        "cess"
      ],
      [
        "Ġs",
        "ol"
      ],
      [
        "Ġcon",
        "c"
      ],
      [
        "Ġp",
        "ri"
      ],
      [
        "d",
        "en"
      ],
      [
        "Ġint",
        "erest"
      ],
      [
        "ĠC",
        "an"
      ],
      [
        "a",
        "j"
      ],
      [
        "id",
        "s"
      ],
      [
        "Ġm",
        "arket"
      ],
      [
        "Ġso",
        "c"
      ],
      [
        "b",
        "s"
      ],
      [
        "Ġf",
        "ew"
      ],
      [
        "ĠW",
        "hen"
      ],
      [
        "r",
        "al"
      ],
      [
        "er",
        "n"
      ],
      [
        "Ġle",
        "g"
      ],
      [
        "od",
        "y"
      ],
      [
        "Ġres",
        "p"
      ],
      [
        "Ġp",
        "ublic"
      ],
      [
        "Ġt",
        "echn"
      ],
      [
        "L",
        "ily"
      ],
      [
        "Ġbe",
        "h"
      ],
      [
        "ĠâĢ",
        "Ķ"
      ],
      [
        "r",
        "act"
      ],
      [
        "at",
        "t"
      ],
      [
        "Ġp",
        "ass"
      ],
      [
        "m",
        "s"
      ],
      [
        "Ġj",
        "ump"
      ],
      [
        "er",
        "ing"
      ],
      [
        "ĠB",
        "ob"
      ],
      [
        "Ġis",
        "s"
      ],
      [
        "Ġs",
        "ing"
      ],
      [
        "Ġg",
        "row"
      ],
      [
        "Ġide",
        "a"
      ],
      [
        "Ġn",
        "ice"
      ],
      [
        "ent",
        "ion"
      ],
      [
        "Ġg",
        "ave"
      ],
      [
        "i",
        "k"
      ],
      [
        "Ġ",
        "."
      ],
      [
        "Ġres",
        "ult"
      ],
      [
        "Ġpro",
        "f"
      ],
      [
        "Ġst",
        "and"
      ],
      [
        "l",
        "ing"
      ],
      [
        "in",
        "y"
      ],
      [
        "u",
        "ff"
      ],
      [
        "in",
        "al"
      ],
      [
        "en",
        "se"
      ],
      [
        "ain",
        "ing"
      ],
      [
        "vern",
        "ment"
      ],
      [
        "ĠB",
        "e"
      ],
      [
        "Ġla",
        "w"
      ],
      [
        "u",
        "ary"
      ],
      [
        "Ġcall",
        "ed"
      ],
      [
        "Ġw",
        "alk"
      ],
      [
        "ĠP",
        "l"
      ],
      [
        "ĠA",
        "t"
      ],
      [
        "in",
        "a"
      ],
      [
        "c",
        "ed"
      ],
      [
        "Ġd",
        "ata"
      ],
      [
        "p",
        "s"
      ],
      [
        "Ġ",
        "["
      ],
      [
        "Ġf",
        "ast"
      ],
      [
        "Ġmon",
        "th"
      ],
      [
        "ĠL",
        "ucy"
      ],
      [
        "Ġm",
        "ight"
      ],
      [
        "Ġe",
        "as"
      ],
      [
        "Ġnum",
        "ber"
      ],
      [
        "id",
        "es"
      ],
      [
        "Ġ",
        "Q"
      ],
      [
        "Ġw",
        "om"
      ],
      [
        "Ġw",
        "ind"
      ],
      [
        "Ġv",
        "ar"
      ],
      [
        "ĠCom",
        "m"
      ],
      [
        "Ġf",
        "ull"
      ],
      [
        "al",
        "ked"
      ],
      [
        "ĠH",
        "ow"
      ],
      [
        "ic",
        "ally"
      ],
      [
        "Ġre",
        "st"
      ],
      [
        "âĢ",
        "Ķ"
      ],
      [
        "one",
        "y"
      ],
      [
        "Ġwith",
        "out"
      ],
      [
        "re",
        "am"
      ],
      [
        "'",
        "ll"
      ],
      [
        "Ġexc",
        "ited"
      ],
      [
        "Ġp",
        "rom"
      ],
      [
        "Ġf",
        "low"
      ],
      [
        "Ġl",
        "ess"
      ],
      [
        "Ġp",
        "ower"
      ],
      [
        "Ġper",
        "form"
      ],
      [
        "Ġstr",
        "ong"
      ],
      [
        "Ġcomp",
        "any"
      ],
      [
        "ĠB",
        "r"
      ],
      [
        "Ġpr",
        "ot"
      ],
      [
        "Ġpro",
        "ject"
      ],
      [
        "Ġm",
        "ag"
      ],
      [
        "ial",
        "ly"
      ],
      [
        "a",
        "ug"
      ],
      [
        "Ġinv",
        "est"
      ],
      [
        "pl",
        "oy"
      ],
      [
        "Ġinc",
        "re"
      ],
      [
        "Ġt",
        "re"
      ],
      [
        "Ġlaug",
        "hed"
      ],
      [
        "pect",
        "ed"
      ],
      [
        "Ġagain",
        "st"
      ],
      [
        "ĠE",
        "x"
      ],
      [
        "Ġc",
        "ond"
      ],
      [
        "Ġm",
        "aking"
      ],
      [
        "ain",
        "s"
      ],
      [
        "o",
        "x"
      ],
      [
        "/",
        "/"
      ],
      [
        "W",
        "hat"
      ],
      [
        "ĠUn",
        "iversity"
      ],
      [
        "ar",
        "a"
      ],
      [
        "Ġw",
        "in"
      ],
      [
        "Ġcl",
        "os"
      ],
      [
        "Ġd",
        "ad"
      ],
      [
        "Y",
        "es"
      ],
      [
        "g",
        "est"
      ],
      [
        "Ġ1",
        "2"
      ],
      [
        "Ġf",
        "ree"
      ],
      [
        "Ġp",
        "oss"
      ],
      [
        "Ġsec",
        "ond"
      ],
      [
        "Ġe",
        "at"
      ],
      [
        "Ġeff",
        "ect"
      ],
      [
        "ĠM",
        "om"
      ],
      [
        "ail",
        "able"
      ],
      [
        "Ġo",
        "pp"
      ],
      [
        "Ġj",
        "o"
      ],
      [
        "Ġm",
        "o"
      ],
      [
        "c",
        "o"
      ],
      [
        "Ġf",
        "ar"
      ],
      [
        "ĠTh",
        "at"
      ],
      [
        "Ġall",
        "ow"
      ],
      [
        "i",
        "ver"
      ],
      [
        "ĠM",
        "ay"
      ],
      [
        "Ġe",
        "lect"
      ],
      [
        "Ġqu",
        "est"
      ],
      [
        "Ġus",
        "ing"
      ],
      [
        "c",
        "hed"
      ],
      [
        "re",
        "w"
      ],
      [
        "Ġha",
        "ving"
      ],
      [
        "Ġh",
        "ug"
      ],
      [
        "Ġp",
        "op"
      ],
      [
        "Ġh",
        "um"
      ],
      [
        "2",
        "1"
      ],
      [
        "Ġre",
        "ce"
      ],
      [
        "Ġs",
        "ince"
      ],
      [
        "t",
        "he"
      ],
      [
        "ri",
        "es"
      ],
      [
        "ĠF",
        "l"
      ],
      [
        "r",
        "ist"
      ],
      [
        "s",
        "c"
      ],
      [
        "iss",
        "ion"
      ],
      [
        "ain",
        "ed"
      ],
      [
        "ar",
        "ing"
      ],
      [
        "t",
        "e"
      ],
      [
        "ĠC",
        "on"
      ],
      [
        "ro",
        "l"
      ],
      [
        "a",
        "ff"
      ],
      [
        "as",
        "es"
      ],
      [
        "ĠC",
        "ol"
      ],
      [
        "Ġcl",
        "ass"
      ],
      [
        "ust",
        "om"
      ],
      [
        "Ġre",
        "se"
      ],
      [
        "Ġhis",
        "t"
      ],
      [
        ":",
        "//"
      ],
      [
        "Ġf",
        "le"
      ],
      [
        "ĠU",
        "S"
      ],
      [
        "ra",
        "w"
      ],
      [
        "al",
        "ity"
      ],
      [
        "ĠP",
        "h"
      ],
      [
        "Ġh",
        "op"
      ],
      [
        "ĠH",
        "er"
      ],
      [
        "ard",
        "s"
      ],
      [
        "enc",
        "y"
      ],
      [
        "id",
        "er"
      ],
      [
        "Ġe",
        "l"
      ],
      [
        "Ġbel",
        "ie"
      ],
      [
        "ĠR",
        "es"
      ],
      [
        "Ġs",
        "it"
      ],
      [
        "st",
        "er"
      ],
      [
        "H",
        "e"
      ],
      [
        "Ġf",
        "ish"
      ],
      [
        "at",
        "ely"
      ],
      [
        "Ġt",
        "alk"
      ],
      [
        "Ġo",
        "per"
      ],
      [
        "Ġb",
        "ad"
      ],
      [
        "or",
        "ies"
      ],
      [
        "Ġcle",
        "an"
      ],
      [
        "Ġl",
        "ight"
      ],
      [
        "T",
        "om"
      ],
      [
        "Ġbe",
        "aut"
      ],
      [
        "Ġ",
        "On"
      ],
      [
        "j",
        "oy"
      ],
      [
        "Ġcomp",
        "let"
      ],
      [
        "n",
        "ce"
      ],
      [
        "Ġm",
        "ove"
      ],
      [
        "ri",
        "ed"
      ],
      [
        "E",
        "R"
      ],
      [
        "ur",
        "y"
      ],
      [
        "Ġst",
        "ate"
      ],
      [
        "Ġapp",
        "ro"
      ],
      [
        "Ġs",
        "n"
      ],
      [
        "Ġsp",
        "e"
      ],
      [
        "Ġme",
        "an"
      ],
      [
        "Ġlook",
        "ing"
      ],
      [
        "ĠP",
        "r"
      ],
      [
        "le",
        "y"
      ],
      [
        "Ġgr",
        "ound"
      ],
      [
        "Ġman",
        "ag"
      ],
      [
        "i",
        "qu"
      ],
      [
        "Ġan",
        "n"
      ],
      [
        "or",
        "th"
      ],
      [
        "Ġth",
        "ing"
      ],
      [
        "cc",
        "ess"
      ],
      [
        "Ġother",
        "s"
      ],
      [
        "Ġp",
        "ay"
      ],
      [
        "Ġchild",
        "ren"
      ],
      [
        "or",
        "ry"
      ],
      [
        "i",
        "or"
      ],
      [
        "at",
        "or"
      ],
      [
        "Ġf",
        "ac"
      ],
      [
        "Ġcare",
        "ful"
      ],
      [
        "Ġav",
        "ailable"
      ],
      [
        "Ġ",
        "est"
      ],
      [
        "Ġhe",
        "ard"
      ],
      [
        "Ġpro",
        "ble"
      ],
      [
        "1",
        "1"
      ],
      [
        "Ġle",
        "vel"
      ],
      [
        "ent",
        "ly"
      ],
      [
        "Ġhapp",
        "ened"
      ],
      [
        "at",
        "s"
      ],
      [
        "ĠM",
        "ar"
      ],
      [
        "5",
        "0"
      ],
      [
        "Ġro",
        "ck"
      ],
      [
        "Ġsu",
        "re"
      ],
      [
        "ur",
        "t"
      ],
      [
        "Ġd",
        "em"
      ],
      [
        "Ġt",
        "est"
      ],
      [
        "are",
        "nt"
      ],
      [
        "Ġday",
        "s"
      ],
      [
        "Ġse",
        "em"
      ],
      [
        "Ġmus",
        "ic"
      ],
      [
        "Ġp",
        "os"
      ],
      [
        "Ġst",
        "ay"
      ],
      [
        "S",
        "t"
      ],
      [
        "Ġm",
        "ar"
      ],
      [
        "Ġl",
        "and"
      ],
      [
        "Ġcl",
        "im"
      ],
      [
        "e",
        "ad"
      ],
      [
        "m",
        "ore"
      ],
      [
        "Ġb",
        "re"
      ],
      [
        "Ġpre",
        "v"
      ],
      [
        "Ġst",
        "at"
      ],
      [
        "Ġcur",
        "rent"
      ],
      [
        "Ġt",
        "ell"
      ],
      [
        "Ġexper",
        "ience"
      ],
      [
        "ĠC",
        "ent"
      ],
      [
        "Ġn",
        "ight"
      ],
      [
        "ic",
        "y"
      ],
      [
        "l",
        "o"
      ],
      [
        "m",
        "ed"
      ],
      [
        "Ġab",
        "le"
      ],
      [
        "ĠJo",
        "hn"
      ],
      [
        "ne",
        "y"
      ],
      [
        "Ġc",
        "ost"
      ],
      [
        "if",
        "ul"
      ],
      [
        "Ġj",
        "ob"
      ],
      [
        "uth",
        "or"
      ],
      [
        "i",
        "um"
      ],
      [
        "Ġle",
        "ft"
      ],
      [
        "Ġto",
        "day"
      ],
      [
        "Ġ",
        "Ġ"
      ],
      [
        "Ġ",
        "et"
      ],
      [
        "Ġwh",
        "y"
      ],
      [
        "ĠO",
        "r"
      ],
      [
        "ear",
        "ch"
      ],
      [
        "Ġen",
        "joy"
      ],
      [
        "ir",
        "on"
      ],
      [
        "Ġrec",
        "ord"
      ],
      [
        "oc",
        "i"
      ],
      [
        "con",
        "om"
      ],
      [
        "in",
        "c"
      ],
      [
        "Ġb",
        "as"
      ],
      [
        "Ġf",
        "our"
      ],
      [
        "ort",
        "un"
      ],
      [
        "p",
        "or"
      ],
      [
        "as",
        "ter"
      ],
      [
        "Ġt",
        "yp"
      ],
      [
        "t",
        "o"
      ],
      [
        "Ġn",
        "ame"
      ],
      [
        "a",
        "pp"
      ],
      [
        "ap",
        "er"
      ],
      [
        "Ġen",
        "g"
      ],
      [
        "un",
        "g"
      ],
      [
        "Ġa",
        "ir"
      ],
      [
        "Ġm",
        "or"
      ],
      [
        "ec",
        "h"
      ],
      [
        "Ġme",
        "et"
      ],
      [
        "Ġg",
        "iv"
      ],
      [
        "a",
        "f"
      ],
      [
        "at",
        "ter"
      ],
      [
        "o",
        "ice"
      ],
      [
        "Ġunder",
        "stand"
      ],
      [
        "ert",
        "ain"
      ],
      [
        "Ġpres",
        "ent"
      ],
      [
        "Ġso",
        "ft"
      ],
      [
        "uct",
        "ion"
      ],
      [
        "i",
        "ents"
      ],
      [
        "Ġch",
        "ange"
      ],
      [
        "tern",
        "ational"
      ],
      [
        "Ġp",
        "ast"
      ],
      [
        "p",
        "le"
      ],
      [
        "ist",
        "r"
      ],
      [
        "ĠT",
        "o"
      ],
      [
        "ĠF",
        "rom"
      ],
      [
        "iz",
        "ation"
      ],
      [
        "W",
        "hen"
      ],
      [
        "it",
        "ing"
      ],
      [
        "Ġc",
        "ase"
      ],
      [
        "Ġsaf",
        "e"
      ],
      [
        "Ġanim",
        "als"
      ],
      [
        "Ġo",
        "pt"
      ],
      [
        "1",
        "2"
      ],
      [
        "Ġwork",
        "ing"
      ],
      [
        "Ġwee",
        "k"
      ],
      [
        "Ġwith",
        "in"
      ],
      [
        "en",
        "g"
      ],
      [
        "Ġf",
        "av"
      ],
      [
        "Ġt",
        "reat"
      ],
      [
        "un",
        "e"
      ],
      [
        "ic",
        "le"
      ],
      [
        "u",
        "red"
      ],
      [
        "ĠE",
        "d"
      ],
      [
        "Ġwor",
        "d"
      ],
      [
        "ic",
        "ked"
      ],
      [
        "Ġe",
        "qu"
      ],
      [
        "Ġb",
        "en"
      ],
      [
        "o",
        "or"
      ],
      [
        "o",
        "le"
      ],
      [
        "ĠM",
        "an"
      ],
      [
        "Ġpr",
        "act"
      ],
      [
        "Ġ",
        "|"
      ],
      [
        "ar",
        "r"
      ],
      [
        "3",
        "0"
      ],
      [
        "ĠThe",
        "n"
      ],
      [
        "Ġc",
        "ustom"
      ],
      [
        "Ġs",
        "ound"
      ],
      [
        "Ġserv",
        "ice"
      ],
      [
        "m",
        "in"
      ],
      [
        "Ġevery",
        "one"
      ],
      [
        "t",
        "en"
      ],
      [
        "Ġs",
        "orry"
      ],
      [
        "Ġ19",
        "9"
      ],
      [
        "Ġa",
        "ff"
      ],
      [
        "Ġcount",
        "ry"
      ],
      [
        "Ġw",
        "atch"
      ],
      [
        "ac",
        "y"
      ],
      [
        "Ġp",
        "ict"
      ],
      [
        "Ġv",
        "iew"
      ],
      [
        "ĠW",
        "hat"
      ],
      [
        "Ġch",
        "ang"
      ],
      [
        "o",
        "on"
      ],
      [
        "Ġs",
        "qu"
      ],
      [
        "Ġw",
        "alked"
      ],
      [
        "Ġ1",
        "5"
      ],
      [
        "Ġ1",
        "1"
      ],
      [
        "ĠE",
        "ng"
      ],
      [
        "l",
        "ish"
      ],
      [
        "is",
        "ter"
      ],
      [
        "a",
        "im"
      ],
      [
        "Ġp",
        "ot"
      ],
      [
        "Ġh",
        "old"
      ],
      [
        "Ġbeaut",
        "iful"
      ],
      [
        "ab",
        "ility"
      ],
      [
        "Ġ",
        "ve"
      ],
      [
        "Ġf",
        "ly"
      ],
      [
        "og",
        "rap"
      ],
      [
        "m",
        "e"
      ],
      [
        "if",
        "ied"
      ],
      [
        "iet",
        "y"
      ],
      [
        "Ġor",
        "der"
      ],
      [
        "g",
        "in"
      ],
      [
        "Ġprov",
        "ide"
      ],
      [
        "Ġto",
        "wn"
      ],
      [
        "Ġst",
        "ore"
      ],
      [
        "re",
        "l"
      ],
      [
        "Ġ",
        "Â"
      ],
      [
        "i",
        "am"
      ],
      [
        "Ġsu",
        "ccess"
      ],
      [
        "Ġw",
        "he"
      ],
      [
        "Ġe",
        "y"
      ],
      [
        "o",
        "ber"
      ],
      [
        "iv",
        "id"
      ],
      [
        "Ġgo",
        "vernment"
      ],
      [
        "Ġstud",
        "ents"
      ],
      [
        "it",
        "ions"
      ],
      [
        "c",
        "ent"
      ],
      [
        "Ġbe",
        "ar"
      ],
      [
        "if",
        "t"
      ],
      [
        "r",
        "on"
      ],
      [
        "\"",
        "."
      ],
      [
        "o",
        "k"
      ],
      [
        "2",
        "2"
      ],
      [
        "ard",
        "en"
      ],
      [
        "Ġoff",
        "ic"
      ],
      [
        "us",
        "ed"
      ],
      [
        "t",
        "t"
      ],
      [
        "i",
        "ec"
      ],
      [
        "in",
        "ation"
      ],
      [
        "Ġacc",
        "ess"
      ],
      [
        "Ġcour",
        "se"
      ],
      [
        "w",
        "ork"
      ],
      [
        "ĠE",
        "very"
      ],
      [
        "Ġd",
        "one"
      ],
      [
        "s",
        "on"
      ],
      [
        "ĠS",
        "e"
      ],
      [
        "Ġc",
        "reat"
      ],
      [
        "Ġlot",
        "s"
      ],
      [
        "Ġare",
        "a"
      ],
      [
        "is",
        "ing"
      ],
      [
        "ab",
        "ly"
      ],
      [
        "Ġsk",
        "y"
      ],
      [
        "1",
        "8"
      ],
      [
        "Ġb",
        "it"
      ],
      [
        "ĠD",
        "o"
      ],
      [
        "us",
        "h"
      ],
      [
        "ĠJ",
        "an"
      ],
      [
        "aj",
        "or"
      ],
      [
        "Ġact",
        "iv"
      ],
      [
        "âĢ",
        "ĵ"
      ],
      [
        "u",
        "ly"
      ],
      [
        "Ġcommun",
        "ity"
      ],
      [
        "A",
        "n"
      ],
      [
        "ĠCh",
        "rist"
      ],
      [
        "Ġ",
        "z"
      ],
      [
        "Ġloc",
        "al"
      ],
      [
        "Ġt",
        "erm"
      ],
      [
        "Ġdo",
        "or"
      ],
      [
        "Ġserv",
        "ices"
      ],
      [
        "Ġind",
        "ust"
      ],
      [
        "ab",
        "b"
      ],
      [
        "u",
        "ed"
      ],
      [
        "ĠN",
        "o"
      ],
      [
        "Ġm",
        "oney"
      ],
      [
        "ĠW",
        "ith"
      ],
      [
        "ap",
        "e"
      ],
      [
        "Ġpro",
        "per"
      ],
      [
        "our",
        "s"
      ],
      [
        "w",
        "ay"
      ],
      [
        "Ġan",
        "t"
      ],
      [
        "Ġw",
        "rit"
      ],
      [
        "p",
        "os"
      ],
      [
        "ro",
        "d"
      ],
      [
        "Ġm",
        "illion"
      ],
      [
        "Ġadd",
        "ition"
      ],
      [
        "os",
        "p"
      ],
      [
        "Ġal",
        "ong"
      ],
      [
        "ĠAmeric",
        "an"
      ],
      [
        "I",
        "N"
      ],
      [
        "Ġf",
        "ace"
      ],
      [
        "Ġm",
        "il"
      ],
      [
        "od",
        "e"
      ],
      [
        "Ġem",
        "ploy"
      ],
      [
        "Ġrese",
        "arch"
      ],
      [
        "Ġdo",
        "ing"
      ],
      [
        "ĠD",
        "ec"
      ],
      [
        "ent",
        "ial"
      ],
      [
        "Ġac",
        "ross"
      ],
      [
        "ur",
        "s"
      ],
      [
        "ord",
        "ing"
      ],
      [
        "st",
        "it"
      ],
      [
        "m",
        "a"
      ],
      [
        "o",
        "f"
      ],
      [
        "Ġk",
        "ids"
      ],
      [
        "re",
        "ed"
      ],
      [
        "er",
        "y"
      ],
      [
        "Ġcol",
        "lect"
      ],
      [
        "or",
        "ld"
      ],
      [
        "it",
        "ive"
      ],
      [
        "Ġli",
        "k"
      ],
      [
        "ĠR",
        "ep"
      ],
      [
        "Ġyou",
        "ng"
      ],
      [
        "Ġ201",
        "8"
      ],
      [
        "Ġso",
        "on"
      ],
      [
        "I",
        "f"
      ],
      [
        "ĠUn",
        "ited"
      ],
      [
        "Ġm",
        "akes"
      ],
      [
        "es",
        "p"
      ],
      [
        "Ġev",
        "ent"
      ],
      [
        "ot",
        "s"
      ],
      [
        "Ġb",
        "ed"
      ],
      [
        "Ġs",
        "ong"
      ],
      [
        "Ġb",
        "ug"
      ],
      [
        "ep",
        "t"
      ],
      [
        "Ġlear",
        "n"
      ],
      [
        "Ġs",
        "at"
      ],
      [
        "Ġbu",
        "y"
      ],
      [
        "Ġm",
        "ess"
      ],
      [
        "o",
        "pped"
      ],
      [
        "le",
        "ment"
      ],
      [
        "ro",
        "g"
      ],
      [
        "ut",
        "ure"
      ],
      [
        "Ġ201",
        "9"
      ],
      [
        "Ġimp",
        "ro"
      ],
      [
        "u",
        "ce"
      ],
      [
        "O",
        "N"
      ],
      [
        "Ġph",
        "ot"
      ],
      [
        "ĠC",
        "ar"
      ],
      [
        "ĠM",
        "ed"
      ],
      [
        "Ġop",
        "ened"
      ],
      [
        "end",
        "ed"
      ],
      [
        "Ġl",
        "ost"
      ],
      [
        "amp",
        "le"
      ],
      [
        "ĠF",
        "e"
      ],
      [
        "ir",
        "c"
      ],
      [
        "Th",
        "ank"
      ],
      [
        "1",
        "5"
      ],
      [
        "Ġsoc",
        "ial"
      ],
      [
        "ĠA",
        "my"
      ],
      [
        "Ġse",
        "en"
      ],
      [
        "Ġf",
        "und"
      ],
      [
        "Ġvis",
        "it"
      ],
      [
        "Ġs",
        "al"
      ],
      [
        "v",
        "iron"
      ],
      [
        "Ġbec",
        "ome"
      ],
      [
        "N",
        "o"
      ],
      [
        "Ġpr",
        "oud"
      ],
      [
        "if",
        "y"
      ],
      [
        "Ġen",
        "ough"
      ],
      [
        "ĠM",
        "r"
      ],
      [
        "Ġ3",
        "0"
      ],
      [
        "d",
        "y"
      ],
      [
        "Ġs",
        "ide"
      ],
      [
        "Ġbl",
        "ue"
      ],
      [
        "Ġapp",
        "lic"
      ],
      [
        "Ġh",
        "ot"
      ],
      [
        "er",
        "r"
      ],
      [
        "Ġpart",
        "y"
      ],
      [
        "ĠC",
        "o"
      ],
      [
        "id",
        "ing"
      ],
      [
        "ĠA",
        "m"
      ],
      [
        "s",
        "h"
      ],
      [
        "u",
        "it"
      ],
      [
        "om",
        "m"
      ],
      [
        "Ġstud",
        "y"
      ],
      [
        "u",
        "rop"
      ],
      [
        "Ġf",
        "ur"
      ],
      [
        "i",
        "ans"
      ],
      [
        "c",
        "l"
      ],
      [
        "ro",
        "om"
      ],
      [
        "is",
        "k"
      ],
      [
        "on",
        "y"
      ],
      [
        "Ġb",
        "ar"
      ],
      [
        "Ġany",
        "more"
      ],
      [
        "Ġn",
        "et"
      ],
      [
        "Ġw",
        "on"
      ],
      [
        "Ġh",
        "ig"
      ],
      [
        "o",
        "int"
      ],
      [
        "Ġ",
        "i"
      ],
      [
        "f",
        "ect"
      ],
      [
        "Ġnew",
        "s"
      ],
      [
        "l",
        "ished"
      ],
      [
        "it",
        "c"
      ],
      [
        "Ġchar",
        "ac"
      ],
      [
        "at",
        "ic"
      ],
      [
        "Ġpol",
        "it"
      ],
      [
        "al",
        "f"
      ],
      [
        "Ġ1",
        "6"
      ],
      [
        "Ġli",
        "ve"
      ],
      [
        "ac",
        "es"
      ],
      [
        "enc",
        "es"
      ],
      [
        "uc",
        "ation"
      ],
      [
        "Ġor",
        "ig"
      ],
      [
        "Ġmem",
        "bers"
      ],
      [
        "end",
        "ing"
      ],
      [
        "E",
        "S"
      ],
      [
        "Ġt",
        "imes"
      ],
      [
        "ill",
        "ed"
      ],
      [
        "Ġlar",
        "ge"
      ],
      [
        "Ġn",
        "on"
      ],
      [
        "Ġc",
        "amp"
      ],
      [
        "Ġf",
        "oc"
      ],
      [
        "ill",
        "s"
      ],
      [
        "iv",
        "ed"
      ],
      [
        "Ġof",
        "ten"
      ],
      [
        "A",
        "T"
      ],
      [
        "1",
        "6"
      ],
      [
        "Ġde",
        "v"
      ],
      [
        "Ġg",
        "arden"
      ],
      [
        "Ġst",
        "re"
      ],
      [
        "b",
        "all"
      ],
      [
        "A",
        "R"
      ],
      [
        "Ġc",
        "ity"
      ],
      [
        "e",
        "le"
      ],
      [
        "Ġprof",
        "ess"
      ],
      [
        "Ġm",
        "ajor"
      ],
      [
        "Ġqu",
        "ick"
      ],
      [
        "ort",
        "s"
      ],
      [
        "read",
        "y"
      ],
      [
        "ur",
        "ity"
      ],
      [
        "Ġb",
        "ased"
      ],
      [
        "ro",
        "wn"
      ],
      [
        "ul",
        "ation"
      ],
      [
        "Ġse",
        "ason"
      ],
      [
        "art",
        "ment"
      ],
      [
        "ward",
        "s"
      ],
      [
        "Ġlist",
        "en"
      ],
      [
        "Ġwom",
        "en"
      ],
      [
        "Ġbeh",
        "ind"
      ],
      [
        "L",
        "et"
      ],
      [
        "A",
        "N"
      ],
      [
        "Ġv",
        "ide"
      ],
      [
        "hy",
        "s"
      ],
      [
        "on",
        "es"
      ],
      [
        "Ġdevelop",
        "ment"
      ],
      [
        "Ġke",
        "y"
      ],
      [
        "Ġhum",
        "an"
      ],
      [
        "Ġl",
        "ine"
      ],
      [
        "res",
        "ent"
      ],
      [
        "Ġe",
        "conom"
      ],
      [
        "Ġo",
        "cc"
      ],
      [
        "Ġhelp",
        "ed"
      ],
      [
        "en",
        "e"
      ],
      [
        "Ġ1",
        "4"
      ],
      [
        "ate",
        "g"
      ],
      [
        "Ġind",
        "ivid"
      ],
      [
        "Ġw",
        "ar"
      ],
      [
        "C",
        "h"
      ],
      [
        "Ġas",
        "k"
      ],
      [
        "Ġan",
        "al"
      ],
      [
        "Ġwor",
        "ked"
      ],
      [
        "Ġf",
        "ire"
      ],
      [
        "Ġfle",
        "w"
      ],
      [
        "Ġon",
        "line"
      ],
      [
        "ĠF",
        "in"
      ],
      [
        "s",
        "el"
      ],
      [
        "Ġse",
        "ver"
      ],
      [
        "Ġan",
        "g"
      ],
      [
        "Ġp",
        "iec"
      ],
      [
        "ĠS",
        "y"
      ],
      [
        "o",
        "ard"
      ],
      [
        "urop",
        "e"
      ],
      [
        "anc",
        "es"
      ],
      [
        "ĠD",
        "r"
      ],
      [
        "Ġtr",
        "a"
      ],
      [
        "Ġp",
        "ar"
      ],
      [
        "Ġtr",
        "ad"
      ],
      [
        "ĠN",
        "ow"
      ],
      [
        "Ġf",
        "ield"
      ],
      [
        "Ġl",
        "ater"
      ],
      [
        "in",
        "ing"
      ],
      [
        "Ġ1",
        "7"
      ],
      [
        "Ġfav",
        "or"
      ],
      [
        "\\\\",
        "\\\\"
      ],
      [
        "Ġinclud",
        "e"
      ],
      [
        "ĠCom",
        "p"
      ],
      [
        "viron",
        "ment"
      ],
      [
        "Ġfil",
        "m"
      ],
      [
        "Ġf",
        "ell"
      ],
      [
        "Ġf",
        "all"
      ],
      [
        "Ġret",
        "urn"
      ],
      [
        "M",
        "om"
      ],
      [
        "Ġneed",
        "ed"
      ],
      [
        "Ġcon",
        "n"
      ],
      [
        "Ġth",
        "ough"
      ],
      [
        "Ġre",
        "pl"
      ],
      [
        "1",
        "7"
      ],
      [
        "Ġal",
        "ready"
      ],
      [
        "Ġa",
        "ut"
      ],
      [
        "i",
        "pp"
      ],
      [
        "Ġ201",
        "7"
      ],
      [
        "Ġsurpr",
        "ised"
      ],
      [
        "Ġsh",
        "ort"
      ],
      [
        "Ġg",
        "ames"
      ],
      [
        "Ġp",
        "icked"
      ],
      [
        "le",
        "x"
      ],
      [
        "Ġst",
        "op"
      ],
      [
        "am",
        "a"
      ],
      [
        "ut",
        "es"
      ],
      [
        "ĠE",
        "m"
      ],
      [
        "den",
        "ly"
      ],
      [
        "Ġcle",
        "ar"
      ],
      [
        "1",
        "4"
      ],
      [
        "Ġbr",
        "ing"
      ],
      [
        "Ġcont",
        "rol"
      ],
      [
        "iqu",
        "e"
      ],
      [
        "ap",
        "s"
      ],
      [
        "W",
        "h"
      ],
      [
        "ĠA",
        "ss"
      ],
      [
        "ĠY",
        "ork"
      ],
      [
        "Ġf",
        "uture"
      ],
      [
        "is",
        "on"
      ],
      [
        "an",
        "n"
      ],
      [
        "Ġwe",
        "bs"
      ],
      [
        "Ġ",
        "/"
      ],
      [
        "Ġbe",
        "gan"
      ],
      [
        "ow",
        "s"
      ],
      [
        "Ġ",
        "ident"
      ],
      [
        "Ġfe",
        "at"
      ],
      [
        "um",
        "ent"
      ],
      [
        "Ġsu",
        "g"
      ],
      [
        "ĠL",
        "et"
      ],
      [
        "Ġc",
        "ut"
      ],
      [
        "ater",
        "ial"
      ],
      [
        "Ġear",
        "ly"
      ],
      [
        "ĠA",
        "ct"
      ],
      [
        "Ġme",
        "ans"
      ],
      [
        "Ġhand",
        "s"
      ],
      [
        "ĠP",
        "ol"
      ],
      [
        "Ġshow",
        "ed"
      ],
      [
        "Ġw",
        "ond"
      ],
      [
        "Ġ1",
        "3"
      ],
      [
        "Ġc",
        "ake"
      ],
      [
        "Ġget",
        "ting"
      ],
      [
        "Ġsever",
        "al"
      ],
      [
        "s",
        "y"
      ],
      [
        "Th",
        "at"
      ],
      [
        "_",
        "_"
      ],
      [
        "Ġun",
        "ex"
      ],
      [
        "ight",
        "s"
      ],
      [
        "Ġa",
        "uthor"
      ],
      [
        "Ġcl",
        "ose"
      ],
      [
        "Ġm",
        "ult"
      ],
      [
        "a",
        "i"
      ],
      [
        "Ġhist",
        "ory"
      ],
      [
        "ore",
        "d"
      ],
      [
        "ĠM",
        "y"
      ],
      [
        "ail",
        "s"
      ],
      [
        "ĠSt",
        "ate"
      ],
      [
        "er",
        "al"
      ],
      [
        "Ġg",
        "reen"
      ],
      [
        "Ġhe",
        "ld"
      ],
      [
        "it",
        "her"
      ],
      [
        "our",
        "n"
      ],
      [
        "Ġclim",
        "b"
      ],
      [
        "ĠA",
        "fter"
      ],
      [
        "Ġcom",
        "es"
      ],
      [
        "id",
        "ence"
      ],
      [
        "f",
        "or"
      ],
      [
        "ĠA",
        "pp"
      ],
      [
        "Ġinv",
        "ol"
      ],
      [
        "Ġl",
        "im"
      ],
      [
        "or",
        "ing"
      ],
      [
        "Ġl",
        "oud"
      ],
      [
        "Ġc",
        "ook"
      ],
      [
        "Ġre",
        "le"
      ],
      [
        "Ġ201",
        "6"
      ],
      [
        "Ġposs",
        "ible"
      ],
      [
        "1",
        "3"
      ],
      [
        "Ġc",
        "ult"
      ],
      [
        "O",
        "R"
      ],
      [
        "un",
        "ch"
      ],
      [
        "Ġunex",
        "pected"
      ],
      [
        "et",
        "er"
      ],
      [
        "en",
        "n"
      ],
      [
        "Ġacc",
        "ount"
      ],
      [
        "m",
        "ost"
      ],
      [
        "pt",
        "ion"
      ],
      [
        "Ġn",
        "ec"
      ],
      [
        "i",
        "od"
      ],
      [
        "Ġcom",
        "ing"
      ],
      [
        "Ġre",
        "view"
      ],
      [
        "Ġw",
        "arm"
      ],
      [
        "'",
        "d"
      ],
      [
        "ir",
        "t"
      ],
      [
        "Ġneed",
        "s"
      ],
      [
        "ob",
        "al"
      ],
      [
        "Ġopp",
        "ortun"
      ],
      [
        "e",
        "al"
      ],
      [
        "Ġc",
        "ertain"
      ],
      [
        "Ġm",
        "en"
      ],
      [
        "ĠE",
        "urope"
      ],
      [
        "ĠAn",
        "na"
      ],
      [
        "Ġle",
        "ast"
      ],
      [
        "ere",
        "nce"
      ],
      [
        "n",
        "ot"
      ],
      [
        "ĠM",
        "in"
      ],
      [
        "ĠN",
        "ational"
      ],
      [
        "A",
        "t"
      ],
      [
        "d",
        "le"
      ],
      [
        "Ġfore",
        "st"
      ],
      [
        "ak",
        "en"
      ],
      [
        "Ġ20",
        "20"
      ],
      [
        "Ġs",
        "ite"
      ],
      [
        "and",
        "s"
      ],
      [
        "Ġs",
        "le"
      ],
      [
        "Ġpartic",
        "ular"
      ],
      [
        "Ġp",
        "lease"
      ],
      [
        "Ġm",
        "iss"
      ],
      [
        "Ġsh",
        "iny"
      ],
      [
        "ĠG",
        "o"
      ],
      [
        "Ġc",
        "ry"
      ],
      [
        "av",
        "es"
      ],
      [
        "Ġm",
        "ov"
      ],
      [
        "Ġkn",
        "own"
      ],
      [
        "Ġd",
        "oll"
      ],
      [
        "ĠW",
        "orld"
      ],
      [
        "k",
        "ay"
      ],
      [
        "ĠP",
        "res"
      ],
      [
        "or",
        "g"
      ],
      [
        "ĠS",
        "u"
      ],
      [
        "ĠC",
        "ity"
      ],
      [
        "Ġfollow",
        "ing"
      ],
      [
        "ĠE",
        "n"
      ],
      [
        "Ġp",
        "arent"
      ],
      [
        "b",
        "ook"
      ],
      [
        "Ġtry",
        "ing"
      ],
      [
        "Ġcomp",
        "et"
      ],
      [
        "Ġt",
        "able"
      ],
      [
        "i",
        "ol"
      ],
      [
        "H",
        "ow"
      ],
      [
        "ĠSt",
        "ates"
      ],
      [
        "Ġbre",
        "ak"
      ],
      [
        "ut",
        "ions"
      ],
      [
        "ĠN",
        "e"
      ],
      [
        "z",
        "y"
      ],
      [
        "ĠS",
        "chool"
      ],
      [
        "Ġben",
        "ef"
      ],
      [
        "ĠC",
        "ount"
      ],
      [
        "S",
        "o"
      ],
      [
        "our",
        "ce"
      ],
      [
        "Ġl",
        "ow"
      ],
      [
        "Ġcl",
        "aim"
      ],
      [
        "ĠA",
        "pr"
      ],
      [
        "Ġhe",
        "art"
      ],
      [
        "Ġpri",
        "v"
      ],
      [
        "Ġp",
        "aper"
      ],
      [
        "uc",
        "ed"
      ],
      [
        "le",
        "ge"
      ],
      [
        "is",
        "es"
      ],
      [
        "Ġany",
        "thing"
      ],
      [
        "Ġm",
        "ind"
      ],
      [
        "Ġh",
        "urt"
      ],
      [
        "Ġevery",
        "thing"
      ],
      [
        "ĠG",
        "u"
      ],
      [
        "Ġwor",
        "ks"
      ],
      [
        "n",
        "ers"
      ],
      [
        "og",
        "n"
      ],
      [
        "Ġt",
        "ax"
      ],
      [
        "Ġm",
        "ain"
      ],
      [
        "ĠO",
        "ct"
      ],
      [
        "h",
        "od"
      ],
      [
        "ur",
        "ch"
      ],
      [
        "Ġv",
        "ol"
      ],
      [
        "Ġd",
        "raw"
      ],
      [
        "Ġcould",
        "n"
      ],
      [
        "ac",
        "hed"
      ],
      [
        "Ġper",
        "fect"
      ],
      [
        "Ġcom",
        "b"
      ],
      [
        "m",
        "b"
      ],
      [
        "Ġam",
        "ong"
      ],
      [
        "Ġt",
        "em"
      ],
      [
        "Ġb",
        "ody"
      ],
      [
        "Ġf",
        "ive"
      ],
      [
        "Ġme",
        "as"
      ],
      [
        "Ġ",
        "X"
      ],
      [
        "The",
        "re"
      ],
      [
        "ĠG",
        "od"
      ],
      [
        "ab",
        "or"
      ],
      [
        "Ġser",
        "ies"
      ],
      [
        "u",
        "le"
      ],
      [
        "Ġbuild",
        "ing"
      ],
      [
        "Ġde",
        "al"
      ],
      [
        "il",
        "t"
      ],
      [
        "Ġdisc",
        "uss"
      ],
      [
        "o",
        "ver"
      ],
      [
        "our",
        "ces"
      ],
      [
        "w",
        "er"
      ],
      [
        "Ġex",
        "ample"
      ],
      [
        "an",
        "ies"
      ],
      [
        "w",
        "are"
      ],
      [
        "Ġgiv",
        "en"
      ],
      [
        "p",
        "ar"
      ],
      [
        "Ġoff",
        "er"
      ],
      [
        "Ġsome",
        "one"
      ],
      [
        "Ġperson",
        "al"
      ],
      [
        "Ġf",
        "ix"
      ],
      [
        "C",
        "an"
      ],
      [
        "Ġcre",
        "ate"
      ],
      [
        "ra",
        "ft"
      ],
      [
        "Ġch",
        "all"
      ],
      [
        "Ġon",
        "ce"
      ],
      [
        "Ġ201",
        "5"
      ],
      [
        "ĠA",
        "ust"
      ],
      [
        "Ġp",
        "ull"
      ],
      [
        "c",
        "ome"
      ],
      [
        "ĠS",
        "ec"
      ],
      [
        "Ġh",
        "tt"
      ],
      [
        "ĠC",
        "al"
      ],
      [
        "Ġbl",
        "ack"
      ],
      [
        "Ġbelie",
        "ve"
      ],
      [
        "Ġst",
        "ep"
      ],
      [
        "ĠA",
        "f"
      ],
      [
        "Ġm",
        "aterial"
      ],
      [
        "Ġde",
        "ep"
      ],
      [
        "ĠJ",
        "ack"
      ],
      [
        "Ġindust",
        "ry"
      ],
      [
        "ĠO",
        "ff"
      ],
      [
        "Ġs",
        "um"
      ],
      [
        "Ġr",
        "ain"
      ],
      [
        "2",
        "00"
      ],
      [
        "a",
        "u"
      ],
      [
        "ver",
        "age"
      ],
      [
        "r",
        "u"
      ],
      [
        "A",
        "S"
      ],
      [
        "um",
        "my"
      ],
      [
        "Ġr",
        "ace"
      ],
      [
        "is",
        "c"
      ],
      [
        "ic",
        "ult"
      ],
      [
        "ĠM",
        "arch"
      ],
      [
        "itt",
        "en"
      ],
      [
        "Ġrun",
        "ning"
      ],
      [
        "Ġp",
        "ub"
      ],
      [
        "Ġproduct",
        "s"
      ],
      [
        "il",
        "ities"
      ],
      [
        "Ġthan",
        "ked"
      ],
      [
        "Ġproble",
        "m"
      ],
      [
        "-",
        "-"
      ],
      [
        "Ġp",
        "ress"
      ],
      [
        "ĠS",
        "outh"
      ],
      [
        "Ġjump",
        "ed"
      ],
      [
        "Ġbook",
        "s"
      ],
      [
        "ĠA",
        "ug"
      ],
      [
        "Ġr",
        "a"
      ],
      [
        "he",
        "l"
      ],
      [
        "ent",
        "al"
      ],
      [
        "ĠW",
        "ill"
      ],
      [
        "Ġsp",
        "ace"
      ],
      [
        "Ġdes",
        "c"
      ],
      [
        "ĠD",
        "ep"
      ],
      [
        "Ġs",
        "we"
      ],
      [
        "ĠA",
        "b"
      ],
      [
        "Ġper",
        "cent"
      ],
      [
        "Ġmom",
        "ent"
      ],
      [
        "Ġ",
        "vers"
      ],
      [
        "g",
        "es"
      ],
      [
        "y",
        "le"
      ],
      [
        "I",
        "S"
      ],
      [
        "Ġmonth",
        "s"
      ],
      [
        "Ġen",
        "er"
      ],
      [
        "ĠI",
        "m"
      ],
      [
        "Ġspec",
        "ific"
      ],
      [
        "ĠM",
        "c"
      ],
      [
        "Ġdoes",
        "n"
      ],
      [
        "Ġm",
        "ot"
      ],
      [
        "Ġeas",
        "y"
      ],
      [
        "Ġc",
        "a"
      ],
      [
        "g",
        "o"
      ],
      [
        "Ġey",
        "es"
      ],
      [
        "Ġf",
        "ight"
      ],
      [
        "Ġke",
        "pt"
      ],
      [
        "Ġqu",
        "ality"
      ],
      [
        "Ġwebs",
        "ite"
      ],
      [
        "ĠJan",
        "uary"
      ],
      [
        "aug",
        "ht"
      ],
      [
        "her",
        "s"
      ],
      [
        "Ġli",
        "ving"
      ],
      [
        "ct",
        "ion"
      ],
      [
        "Ã",
        "©"
      ],
      [
        "Ġre",
        "ason"
      ],
      [
        "il",
        "ar"
      ],
      [
        "Ġapp",
        "ear"
      ],
      [
        "ie",
        "f"
      ],
      [
        "Ġc",
        "ell"
      ],
      [
        "A",
        "fter"
      ],
      [
        "g",
        "le"
      ],
      [
        "ect",
        "ed"
      ],
      [
        "Ġhug",
        "ged"
      ],
      [
        "Ġcol",
        "or"
      ],
      [
        "Ġy",
        "et"
      ],
      [
        "A",
        "nd"
      ],
      [
        "F",
        "or"
      ],
      [
        "Ġmed",
        "ia"
      ],
      [
        "anc",
        "ial"
      ],
      [
        "itc",
        "hen"
      ],
      [
        "ack",
        "s"
      ],
      [
        "Ġt",
        "aking"
      ],
      [
        "a",
        "ur"
      ],
      [
        "ĠThe",
        "se"
      ],
      [
        "E",
        "N"
      ],
      [
        "Ġper",
        "iod"
      ],
      [
        "Ġ2",
        "5"
      ],
      [
        "z",
        "e"
      ],
      [
        "oun",
        "c"
      ],
      [
        "Ġ",
        "ri"
      ],
      [
        "Ġact",
        "ually"
      ],
      [
        "2",
        "3"
      ],
      [
        "ious",
        "ly"
      ],
      [
        "Ġm",
        "id"
      ],
      [
        "ĠHow",
        "ever"
      ],
      [
        "ĠC",
        "ont"
      ],
      [
        "Ġst",
        "opped"
      ],
      [
        "Ġwho",
        "le"
      ],
      [
        "Ġquest",
        "ion"
      ],
      [
        "v",
        "ent"
      ],
      [
        "anc",
        "ed"
      ],
      [
        "ec",
        "ut"
      ],
      [
        "Ġrel",
        "ations"
      ],
      [
        "Ġto",
        "t"
      ],
      [
        "Ġse",
        "lect"
      ],
      [
        "ĠApr",
        "il"
      ],
      [
        "Ġen",
        "c"
      ],
      [
        "p",
        "e"
      ],
      [
        "Ġfavor",
        "ite"
      ],
      [
        "Ġc",
        "rit"
      ],
      [
        "ĠM",
        "e"
      ],
      [
        "Ġwh",
        "ite"
      ],
      [
        "ourn",
        "al"
      ],
      [
        "o",
        "om"
      ],
      [
        "I",
        "D"
      ],
      [
        "itt",
        "y"
      ],
      [
        "Ġbo",
        "at"
      ],
      [
        "ra",
        "ve"
      ],
      [
        "Ġe",
        "le"
      ],
      [
        "ens",
        "ive"
      ],
      [
        "Ġread",
        "y"
      ],
      [
        "Ġvide",
        "o"
      ],
      [
        "ĠJ",
        "une"
      ],
      [
        "Ġsign",
        "ific"
      ],
      [
        "ĠG",
        "e"
      ],
      [
        "Ġst",
        "e"
      ],
      [
        "Ġp",
        "ick"
      ],
      [
        "Ġresp",
        "ons"
      ],
      [
        "lo",
        "ad"
      ],
      [
        "d",
        "ed"
      ],
      [
        "Ġd",
        "ark"
      ],
      [
        "Ġst",
        "ick"
      ],
      [
        "ĠP",
        "art"
      ],
      [
        "Ġc",
        "irc"
      ],
      [
        "ĠS",
        "ept"
      ],
      [
        "Ġ2",
        "4"
      ],
      [
        "Ġwhe",
        "ther"
      ],
      [
        "in",
        "o"
      ],
      [
        "g",
        "ing"
      ],
      [
        "Ġsu",
        "per"
      ],
      [
        "Ġd",
        "ue"
      ],
      [
        "it",
        "ch"
      ],
      [
        "Ġrequ",
        "ire"
      ],
      [
        "il",
        "ly"
      ],
      [
        "as",
        "ing"
      ],
      [
        "Ġmag",
        "ic"
      ],
      [
        "il",
        "le"
      ],
      [
        "Ġfur",
        "ther"
      ],
      [
        "Ġval",
        "ue"
      ],
      [
        "Ġc",
        "al"
      ],
      [
        "Ġs",
        "elf"
      ],
      [
        "Ġ19",
        "8"
      ],
      [
        "Ġre",
        "ach"
      ],
      [
        "c",
        "le"
      ],
      [
        "r",
        "ing"
      ],
      [
        "at",
        "ors"
      ],
      [
        "w",
        "here"
      ],
      [
        "ĠN",
        "orth"
      ],
      [
        "sel",
        "ves"
      ],
      [
        "Ġn",
        "od"
      ],
      [
        "os",
        "ed"
      ],
      [
        "iv",
        "al"
      ],
      [
        "Ġhop",
        "e"
      ],
      [
        "l",
        "er"
      ],
      [
        "Ġan",
        "s"
      ],
      [
        "Ġcomp",
        "anies"
      ],
      [
        "Ġel",
        "se"
      ],
      [
        "m",
        "ber"
      ],
      [
        "Ġp",
        "ort"
      ],
      [
        "Ġsh",
        "ared"
      ],
      [
        "Ġen",
        "vironment"
      ],
      [
        "Ġ201",
        "4"
      ],
      [
        "a",
        "id"
      ],
      [
        "y",
        "n"
      ],
      [
        "Ġf",
        "oot"
      ],
      [
        "u",
        "ation"
      ],
      [
        "Ġh",
        "ours"
      ],
      [
        "ib",
        "ility"
      ],
      [
        "ww",
        "w"
      ],
      [
        "f",
        "er"
      ],
      [
        "ang",
        "er"
      ],
      [
        "Ġw",
        "ood"
      ],
      [
        "Ġw",
        "all"
      ],
      [
        "ĠS",
        "erv"
      ],
      [
        "Ġturn",
        "ed"
      ],
      [
        "Ġro",
        "ad"
      ],
      [
        "Ġd",
        "ig"
      ],
      [
        "2",
        "5"
      ],
      [
        "Ġfl",
        "oor"
      ],
      [
        "id",
        "ay"
      ],
      [
        "o",
        "ke"
      ],
      [
        "ir",
        "m"
      ],
      [
        "as",
        "k"
      ],
      [
        "an",
        "a"
      ],
      [
        "Ġp",
        "ain"
      ],
      [
        "itt",
        "ed"
      ],
      [
        "Ġam",
        "az"
      ],
      [
        "Ġtechn",
        "ology"
      ],
      [
        "ang",
        "u"
      ],
      [
        "Ġadd",
        "ress"
      ],
      [
        "Ġf",
        "air"
      ],
      [
        "av",
        "y"
      ],
      [
        "un",
        "ny"
      ],
      [
        "ud",
        "denly"
      ],
      [
        "Ġiss",
        "ues"
      ],
      [
        "Ġc",
        "and"
      ],
      [
        "e",
        "es"
      ],
      [
        "ĠP",
        "e"
      ],
      [
        "ĠJ",
        "uly"
      ],
      [
        "ĠNew",
        "s"
      ],
      [
        "Ġfoc",
        "us"
      ],
      [
        "Ġro",
        "ll"
      ],
      [
        "Ġbe",
        "gin"
      ],
      [
        "ec",
        "ially"
      ],
      [
        "A",
        "L"
      ],
      [
        "th",
        "ough"
      ],
      [
        "Ġword",
        "s"
      ],
      [
        "Ġener",
        "gy"
      ],
      [
        "Ġto",
        "uch"
      ],
      [
        "l",
        "u"
      ],
      [
        "ove",
        "mber"
      ],
      [
        "Ġhig",
        "her"
      ],
      [
        "f",
        "act"
      ],
      [
        "Ġ1",
        "00"
      ],
      [
        "itt",
        "ing"
      ],
      [
        "Ġfr",
        "ont"
      ],
      [
        "ab",
        "y"
      ],
      [
        "ĠPres",
        "ident"
      ],
      [
        "um",
        "e"
      ],
      [
        "ro",
        "ll"
      ],
      [
        "I",
        "C"
      ],
      [
        "ad",
        "y"
      ],
      [
        "ĠN",
        "ot"
      ],
      [
        "Ġs",
        "low"
      ],
      [
        "Ġh",
        "alf"
      ],
      [
        "Ġag",
        "o"
      ],
      [
        "Ġsing",
        "le"
      ],
      [
        "ĠB",
        "ar"
      ],
      [
        "Ġsle",
        "ep"
      ],
      [
        "Ġf",
        "rog"
      ],
      [
        "A",
        "l"
      ],
      [
        "Ġcat",
        "ch"
      ],
      [
        "um",
        "b"
      ],
      [
        "art",
        "h"
      ],
      [
        "Ġrep",
        "resent"
      ],
      [
        "ele",
        "br"
      ],
      [
        "Ġt",
        "aken"
      ],
      [
        "ke",
        "y"
      ],
      [
        "Ġa",
        "ud"
      ],
      [
        "Ġd",
        "ress"
      ],
      [
        "Ġto",
        "ol"
      ],
      [
        "Ġro",
        "le"
      ],
      [
        "Ġen",
        "s"
      ],
      [
        "Ġde",
        "b"
      ],
      [
        "ad",
        "a"
      ],
      [
        "h",
        "am"
      ],
      [
        "Ġr",
        "ad"
      ],
      [
        "y",
        "ear"
      ],
      [
        "Ġk",
        "itchen"
      ],
      [
        "Ġhapp",
        "ily"
      ],
      [
        "Ġab",
        "ove"
      ],
      [
        "Ġdo",
        "c"
      ],
      [
        "D",
        "on"
      ],
      [
        "Ġdet",
        "erm"
      ],
      [
        "Ġal",
        "most"
      ],
      [
        "ive",
        "ly"
      ],
      [
        "u",
        "ge"
      ],
      [
        "Ġlook",
        "s"
      ],
      [
        "Ġtra",
        "vel"
      ],
      [
        "Ġsug",
        "gest"
      ],
      [
        "Ġw",
        "at"
      ],
      [
        "\"",
        ","
      ],
      [
        "at",
        "ural"
      ],
      [
        "v",
        "al"
      ],
      [
        "om",
        "es"
      ],
      [
        "ĠT",
        "w"
      ],
      [
        "Ġresult",
        "s"
      ],
      [
        "ĠW",
        "ar"
      ],
      [
        "ĠJ",
        "ust"
      ],
      [
        "I",
        "T"
      ],
      [
        "Ġh",
        "on"
      ],
      [
        "Ġc",
        "old"
      ],
      [
        "Ġimp",
        "act"
      ],
      [
        "Ġcont",
        "act"
      ],
      [
        "ver",
        "t"
      ],
      [
        "id",
        "ge"
      ],
      [
        "Ġv",
        "oice"
      ],
      [
        "al",
        "d"
      ],
      [
        "Ġde",
        "ath"
      ],
      [
        "ĠE",
        "l"
      ],
      [
        "Ġtr",
        "uck"
      ],
      [
        "ĠT",
        "e"
      ],
      [
        "ac",
        "ed"
      ],
      [
        "Ġpartic",
        "ip"
      ],
      [
        "Ġann",
        "oun"
      ],
      [
        "Ġcharac",
        "ter"
      ],
      [
        "Ġp",
        "hys"
      ],
      [
        "et",
        "h"
      ],
      [
        "f",
        "ort"
      ],
      [
        "Ġa",
        "ge"
      ],
      [
        "ĠAr",
        "t"
      ],
      [
        "Ġpro",
        "b"
      ],
      [
        "Ġp",
        "age"
      ],
      [
        "ĠG",
        "l"
      ],
      [
        "B",
        "y"
      ],
      [
        "Ġsignific",
        "ant"
      ],
      [
        "ol",
        "ution"
      ],
      [
        "ĠHe",
        "alth"
      ],
      [
        "Ġam",
        "ount"
      ],
      [
        "Ġhim",
        "self"
      ],
      [
        "Ġb",
        "ag"
      ],
      [
        "re",
        "g"
      ],
      [
        "Ġ",
        "esp"
      ],
      [
        "Ġhe",
        "ar"
      ],
      [
        "oc",
        "r"
      ],
      [
        "ĠA",
        "g"
      ],
      [
        "re",
        "m"
      ],
      [
        "Ġcomm",
        "on"
      ],
      [
        "ĠSt",
        "ud"
      ],
      [
        "it",
        "or"
      ],
      [
        "Ġex",
        "am"
      ],
      [
        "Ġres",
        "pect"
      ],
      [
        "ĠDec",
        "ember"
      ],
      [
        "....",
        "...."
      ],
      [
        "Ġin",
        "it"
      ],
      [
        "Ġco",
        "ol"
      ],
      [
        "Ġpict",
        "ure"
      ],
      [
        "Ġh",
        "it"
      ],
      [
        "ĠAmeric",
        "a"
      ],
      [
        "g",
        "ress"
      ],
      [
        "ĠC",
        "or"
      ],
      [
        "Ġquick",
        "ly"
      ],
      [
        "ch",
        "ie"
      ],
      [
        "Ġs",
        "ent"
      ],
      [
        "Ġmet",
        "hod"
      ],
      [
        "ĠP",
        "ark"
      ],
      [
        "Ġd",
        "i"
      ],
      [
        "Ġflow",
        "ers"
      ],
      [
        "Ġ201",
        "3"
      ],
      [
        "Ġcol",
        "l"
      ],
      [
        "Ġang",
        "ry"
      ],
      [
        "Ġth",
        "ird"
      ],
      [
        "k",
        "en"
      ],
      [
        "ĠSept",
        "ember"
      ],
      [
        "ĠOct",
        "ober"
      ],
      [
        "c",
        "hes"
      ],
      [
        "an",
        "ks"
      ],
      [
        "Ġ",
        "#"
      ],
      [
        "in",
        "ks"
      ],
      [
        "ĠC",
        "O"
      ],
      [
        "ap",
        "t"
      ],
      [
        "led",
        "ge"
      ],
      [
        "Ġcont",
        "ent"
      ],
      [
        "Ġ20",
        "21"
      ],
      [
        "es",
        "e"
      ],
      [
        "Ġ5",
        "0"
      ],
      [
        "Ġche",
        "ck"
      ],
      [
        "Ġno",
        "ise"
      ],
      [
        "Ġimpro",
        "ve"
      ],
      [
        "Ġsh",
        "o"
      ],
      [
        "r",
        "ay"
      ],
      [
        "h",
        "ib"
      ],
      [
        "Ġhapp",
        "en"
      ],
      [
        "Ġe",
        "ither"
      ],
      [
        "ict",
        "ion"
      ],
      [
        "Ġoff",
        "ice"
      ],
      [
        "ĠM",
        "us"
      ],
      [
        "!",
        "!"
      ],
      [
        "oo",
        "se"
      ],
      [
        "Ġst",
        "aff"
      ],
      [
        "ĠD",
        "av"
      ],
      [
        "ĠS",
        "m"
      ],
      [
        "min",
        "istr"
      ],
      [
        "c",
        "y"
      ],
      [
        "Ġs",
        "ix"
      ],
      [
        "ep",
        "end"
      ],
      [
        "p",
        "ro"
      ],
      [
        "a",
        "ul"
      ],
      [
        "Ġr",
        "ound"
      ],
      [
        "pl",
        "ay"
      ],
      [
        "ĠN",
        "ovember"
      ],
      [
        "ag",
        "ed"
      ],
      [
        "Ġdiff",
        "icult"
      ],
      [
        "ĠS",
        "oc"
      ],
      [
        "Ġex",
        "ist"
      ],
      [
        "Ġ",
        "ice"
      ],
      [
        "Ġwa",
        "it"
      ],
      [
        "Ġshow",
        "s"
      ],
      [
        "Ġt",
        "ast"
      ],
      [
        "uff",
        "y"
      ],
      [
        "ĠCount",
        "y"
      ],
      [
        "Ġfeel",
        "ing"
      ],
      [
        "Ġsa",
        "nd"
      ],
      [
        "A",
        "C"
      ],
      [
        "ĠR",
        "ec"
      ],
      [
        "Ġcons",
        "ider"
      ],
      [
        "Ġn",
        "ational"
      ],
      [
        "Ġbel",
        "ow"
      ],
      [
        "E",
        "D"
      ],
      [
        "Ġest",
        "ab"
      ],
      [
        "ĠAug",
        "ust"
      ],
      [
        "Ġm",
        "ix"
      ],
      [
        "ell",
        "ing"
      ],
      [
        "Ġadv",
        "ent"
      ],
      [
        "Ġmod",
        "el"
      ],
      [
        "ĠW",
        "est"
      ],
      [
        "n",
        "es"
      ],
      [
        "Ġr",
        "ange"
      ],
      [
        "oc",
        "ks"
      ],
      [
        "Ġperform",
        "ance"
      ],
      [
        "pp",
        "ing"
      ],
      [
        "op",
        "e"
      ],
      [
        "Ġm",
        "other"
      ],
      [
        "Ġt",
        "akes"
      ],
      [
        "Ġare",
        "as"
      ],
      [
        "S",
        "he"
      ],
      [
        "Ġrec",
        "ogn"
      ],
      [
        "ĠC",
        "our"
      ],
      [
        "Ġm",
        "ouse"
      ],
      [
        "Ġv",
        "iol"
      ],
      [
        "l",
        "in"
      ],
      [
        "ĠAf",
        "ric"
      ],
      [
        "Ġb",
        "ott"
      ],
      [
        "Ġwond",
        "er"
      ],
      [
        "Ġacc",
        "ording"
      ],
      [
        "Ġl",
        "ate"
      ],
      [
        "Ġass",
        "oci"
      ],
      [
        "Ġvar",
        "ious"
      ],
      [
        "Ġmanag",
        "ement"
      ],
      [
        "Ġh",
        "ole"
      ],
      [
        "ĠH",
        "ouse"
      ],
      [
        "The",
        "n"
      ],
      [
        "ific",
        "ation"
      ],
      [
        "ud",
        "e"
      ],
      [
        "Ġle",
        "ave"
      ],
      [
        "ĠRe",
        "g"
      ],
      [
        "Ġesp",
        "ecially"
      ],
      [
        "Ġent",
        "ire"
      ],
      [
        "6",
        "0"
      ],
      [
        "Ġorig",
        "inal"
      ],
      [
        "ĠQ",
        "u"
      ],
      [
        "Ġpr",
        "ice"
      ],
      [
        "br",
        "uary"
      ],
      [
        "L",
        "ook"
      ],
      [
        "n",
        "ov"
      ],
      [
        "Ġfor",
        "ward"
      ],
      [
        "et",
        "y"
      ],
      [
        "Ġp",
        "ers"
      ],
      [
        "ic",
        "ation"
      ],
      [
        "at",
        "ory"
      ],
      [
        "ĠB",
        "y"
      ],
      [
        "ad",
        "es"
      ],
      [
        "Ġparent",
        "s"
      ],
      [
        "Ġquest",
        "ions"
      ],
      [
        "olog",
        "ical"
      ],
      [
        "str",
        "uct"
      ],
      [
        "Ġwr",
        "ong"
      ],
      [
        "ĠCent",
        "er"
      ],
      [
        "Ġtr",
        "ue"
      ],
      [
        "4",
        "0"
      ],
      [
        "W",
        "hy"
      ],
      [
        "ul",
        "es"
      ],
      [
        "Ġm",
        "atter"
      ],
      [
        "ys",
        "is"
      ],
      [
        "Ġh",
        "at"
      ],
      [
        "il",
        "es"
      ],
      [
        "Ġsomet",
        "imes"
      ],
      [
        "Ġfun",
        "ny"
      ],
      [
        "Ġm",
        "aint"
      ],
      [
        "ĠD",
        "on"
      ],
      [
        "Ġed",
        "ucation"
      ],
      [
        "Ġsub",
        "ject"
      ],
      [
        "Ġr",
        "isk"
      ],
      [
        "Ġl",
        "it"
      ],
      [
        "Ġcan",
        "not"
      ],
      [
        "Ġh",
        "ost"
      ],
      [
        "Ġpop",
        "ular"
      ],
      [
        "Ġ201",
        "2"
      ],
      [
        "Ġg",
        "en"
      ],
      [
        "i",
        "res"
      ],
      [
        "Ġact",
        "ion"
      ],
      [
        "Ġpolit",
        "ical"
      ],
      [
        "ĠAust",
        "ral"
      ],
      [
        "Ġlik",
        "ely"
      ],
      [
        "Ġcont",
        "rib"
      ],
      [
        "Ġsm",
        "ile"
      ],
      [
        "Ġmin",
        "utes"
      ],
      [
        "Ġy",
        "ell"
      ],
      [
        "Ġrelations",
        "hip"
      ],
      [
        "Ġadd",
        "ed"
      ],
      [
        "he",
        "ad"
      ],
      [
        "t",
        "ime"
      ],
      [
        "Ġb",
        "rave"
      ],
      [
        "ĠR",
        "uss"
      ],
      [
        "e",
        "v"
      ],
      [
        "Ġat",
        "e"
      ],
      [
        "Ġex",
        "pect"
      ],
      [
        "ht",
        "t"
      ],
      [
        "ad",
        "em"
      ],
      [
        "Ġfor",
        "mer"
      ],
      [
        "Ġcontin",
        "ue"
      ],
      [
        "Ġac",
        "cept"
      ],
      [
        "Ġte",
        "ac"
      ],
      [
        "er",
        "a"
      ],
      [
        "Ġrec",
        "omm"
      ],
      [
        "ist",
        "ic"
      ],
      [
        "ic",
        "ro"
      ],
      [
        "ĠS",
        "ally"
      ],
      [
        "Ġ",
        "ess"
      ],
      [
        "Ġbird",
        "s"
      ],
      [
        "Ġs",
        "earch"
      ],
      [
        "Ġstr",
        "uct"
      ],
      [
        "Ġcar",
        "s"
      ],
      [
        "ĠB",
        "rit"
      ],
      [
        "ar",
        "l"
      ],
      [
        "Ġnot",
        "hing"
      ],
      [
        "ĠO",
        "ur"
      ],
      [
        "Ġiss",
        "ue"
      ],
      [
        "Ġoffic",
        "ial"
      ],
      [
        "Ġar",
        "ri"
      ],
      [
        "Ġev",
        "ents"
      ],
      [
        "Ġc",
        "red"
      ],
      [
        "ir",
        "th"
      ],
      [
        "i",
        "ant"
      ],
      [
        "Ġbr",
        "ought"
      ],
      [
        "Ġcomp",
        "ut"
      ],
      [
        "Ġrece",
        "ived"
      ],
      [
        "ĠP",
        "er"
      ],
      [
        "Ġlead",
        "ers"
      ],
      [
        "l",
        "us"
      ],
      [
        "Ġpos",
        "ition"
      ],
      [
        "it",
        "es"
      ],
      [
        "u",
        "el"
      ],
      [
        "ĠU",
        "K"
      ],
      [
        "Ġnec",
        "ess"
      ],
      [
        "Ġy",
        "ummy"
      ],
      [
        "ounc",
        "il"
      ],
      [
        "Ġg",
        "one"
      ],
      [
        "ic",
        "ks"
      ],
      [
        "Ġm",
        "ember"
[...]
