{
  "version": "1.0",
  "truncation": null,
  "padding": null,
  "added_tokens": [
    {
      "id": 0,
      "content": "<pad>",
      "single_word": false,
      "lstrip": false,
      "rstrip": false,
      "normalized": false,
      "special": true
    },
    {
      "id": 1,
      "content": "<unk>",
      "single_word": false,
      "lstrip": false,
      "rstrip": false,
      "normalized": false,
      "special": true
    },
    {
      "id": 2,
      "content": "<bos>",
      "single_word": false,
      "lstrip": false,
      "rstrip": false,
      "normalized": false,
      "special": true
    },
    {
      "id": 3,
      "content": "<eos>",
      "single_word": false,
      "lstrip": false,
      "rstrip": false,
      "normalized": false,
      "special": true
    },
    {
      "id": 4,
      "content": "<|system|>",
      "single_word": false,
      "lstrip": false,
      "rstrip": false,
      "normalized": false,
      "special": true
    },
    {
      "id": 5,
      "content": "<|user|>",
      "single_word": false,
      "lstrip": false,
      "rstrip": false,
      "normalized": false,
      "special": true
    },
    {
      "id": 6,
      "content": "<|assistant|>",
      "single_word": false,
      "lstrip": false,
      "rstrip": false,
      "normalized": false,
      "special": true
    },
    {
      "id": 7,
      "content": "<|reserved_0|>",
      "single_word": false,
      "lstrip": false,
      "rstrip": false,
      "normalized": false,
      "special": true
    },
    {
      "id": 8,
      "content": "<|reserved_1|>",
      "single_word": false,
      "lstrip": false,
      "rstrip": false,
      "normalized": false,
      "special": true
    },
    {
      "id": 9,
      "content": "<|reserved_2|>",
      "single_word": false,
      "lstrip": false,
      "rstrip": false,
      "normalized": false,
      "special": true
    },
    {
      "id": 10,
      "content": "<|reserved_3|>",
      "single_word": false,
      "lstrip": false,
      "rstrip": false,
      "normalized": false,
      "special": true
    },
    {
      "id": 11,
      "content": "<|reserved_4|>",
      "single_word": false,
      "lstrip": false,
      "rstrip": false,
      "normalized": false,
      "special": true
    },
    {
      "id": 12,
      "content": "<|reserved_5|>",
      "single_word": false,
      "lstrip": false,
      "rstrip": false,
      "normalized": false,
      "special": true
    },
    {
      "id": 13,
      "content": "<|reserved_6|>",
      "single_word": false,
      "lstrip": false,
      "rstrip": false,
      "normalized": false,
      "special": true
    },
    {
      "id": 14,
      "content": "<|reserved_7|>",
      "single_word": false,
      "lstrip": false,
      "rstrip": false,
      "normalized": false,
      "special": true
    },
    {
      "id": 15,
      "content": "<|reserved_8|>",
      "single_word": false,
      "lstrip": false,
      "rstrip": false,
      "normalized": false,
      "special": true
    },
    {
      "id": 16,
      "content": "<|reserved_9|>",
      "single_word": false,
      "lstrip": false,
      "rstrip": false,
      "normalized": false,
      "special": true
    }
  ],
  "normalizer": null,
  "pre_tokenizer": {
    "type": "ByteLevel",
    "add_prefix_space": false,
    "trim_offsets": true,
    "use_regex": true
  },
  "post_processor": null,
  "decoder": {
    "type": "ByteLevel",
    "add_prefix_space": true,
    "trim_offsets": true,
    "use_regex": true
  },
  "model": {
    "type": "BPE",
    "dropout": null,
    "unk_token": "<unk>",
    "continuing_subword_prefix": null,
    "end_of_word_suffix": null,
    "fuse_unk": false,
    "byte_fallback": false,
    "ignore_merges": false,
    "vocab": {
      "<pad>": 0,
      "<unk>": 1,
      "<bos>": 2,
      "<eos>": 3,
      "<|system|>": 4,
      "<|user|>": 5,
      "<|assistant|>": 6,
      "<|reserved_0|>": 7,
      "<|reserved_1|>": 8,
      "<|reserved_2|>": 9,
      "<|reserved_3|>": 10,
      "<|reserved_4|>": 11,
      "<|reserved_5|>": 12,
      "<|reserved_6|>": 13,
      "<|reserved_7|>": 14,
      "<|reserved_8|>": 15,
      "<|reserved_9|>": 16,
      "!": 17,
      "\"": 18,
      "#": 19,
      "$": 20,
      "%": 21,
      "&": 22,
      "'": 23,
      "(": 24,
      ")": 25,
      "*": 26,
      "+": 27,
      ",": 28,
      "-": 29,
      ".": 30,
      "/": 31,
      "0": 32,
      "1": 33,
      "2": 34,
      "3": 35,
      "4": 36,
      "5": 37,
      "6": 38,
      "7": 39,
      "8": 40,
      "9": 41,
      ":": 42,
      ";": 43,
      "<": 44,
      "=": 45,
      ">": 46,
      "?": 47,
      "@": 48,
      "A": 49,
      "B": 50,
      "C": 51,
      "D": 52,
      "E": 53,
      "F": 54,
      "G": 55,
      "H": 56,
      "I": 57,
      "J": 58,
      "K": 59,
      "L": 60,
      "M": 61,
      "N": 62,
      "O": 63,
      "P": 64,
      "Q": 65,
      "R": 66,
      "S": 67,
      "T": 68,
      "U": 69,
      "V": 70,
      "W": 71,
      "X": 72,
      "Y": 73,
      "Z": 74,
      "[": 75,
      "\\": 76,
      "]": 77,
      "^": 78,
      "_": 79,
      "`": 80,
      "a": 81,
      "b": 82,
      "c": 83,
      "d": 84,
      "e": 85,
      "f": 86,
      "g": 87,
      "h": 88,
      "i": 89,
      "j": 90,
      "k": 91,
      "l": 92,
      "m": 93,
      "n": 94,
      "o": 95,
      "p": 96,
      "q": 97,
      "r": 98,
      "s": 99,
      "t": 100,
      "u": 101,
      "v": 102,
      "w": 103,
      "x": 104,
      "y": 105,
      "z": 106,
      "{": 107,
      "|": 108,
      "}": 109,
      "~": 110,
      "Ċ": 111,
      "č": 112,
      "Ġ": 113,
      "Ġt": 114,
      "he": 115,
      "Ġa": 116,
      "in": 117,
      "Ġthe": 118,
      "re": 119,
      "Ġs": 120,
      "on": 121,
      "Ġw": 122,
      "er": 123,
      "nd": 124,
      "at": 125,
      "Ġo": 126,
      "it": 127,
      "ed": 128,
      "Ġc": 129,
      "Ġb": 130,
      "en": 131,
      "Ġf": 132,
      "is": 133,
      "or": 134,
      "Ġto": 135,
      "Ġp": 136,
      "ing": 137,
      "es": 138,
      "ou": 139,
      "an": 140,
      "ar": 141,
      "Ġand": 142,
      "Ġm": 143,
      "al": 144,
      "Ġh": 145,
      "Ġin": 146,
      "as": 147,
      "Ġd": 148,
      "Ġof": 149,
      "le": 150,
      "ic": 151,
      "Ġth": 152,
      "om": 153,
      "Ġl": 154,
      "ion": 155,
      "il": 156,
      "Ġn": 157,
      "ĠT": 158,
      "Ġg": 159,
      "ent": 160,
      "id": 161,
      "Ġe": 162,
      "Ġre": 163,
      "ve": 164,
      "st": 165,
      "ot": 166,
      "ay": 167,
      "Ġbe": 168,
      "ly": 169,
      "ut": 170,
      "ĠS": 171,
      "ac": 172,
      "im": 173,
      "ad": 174,
      "Ġhe": 175,
      "ro": 176,
      "ĠI": 177,
      "Ġon": 178,
      "et": 179,
      "am": 180,
      "Ġthat": 181,
      "ow": 182,
      "ig": 183,
      "ver": 184,
      "Ġwas": 185,
      "Ġis": 186,
      "Ġfor": 187,
      "Ġit": 188,
      "se": 189,
      "ĠA": 190,
      "Ġu": 191,
      "ol": 192,
      "Ġst": 193,
      "ir": 194,
      "ur": 195,
      "Ġy": 196,
      "ec": 197,
      "el": 198,
      "ĠC": 199,
      "ith": 200,
      "ĠM": 201,
      "ĠThe": 202,
      "Ġwith": 203,
      "Ġwh": 204,
      "ĠB": 205,
      "ter": 206,
      "ĠH": 207,
      "ce": 208,
      "ation": 209,
      "Ġas": 210,
      "ld": 211,
      "Ġan": 212,
      "Ġal": 213,
      "Ġha": 214,
      "ke": 215,
      "Ġwe": 216,
      "Ġyou": 217,
      "ill": 218,
      "ul": 219,
      "Ġr": 220,
      "ch": 221,
      "pp": 222,
      "ri": 223,
      "her": 224,
      "ers": 225,
      "ĠP": 226,
      "Ġsa": 227,
      "ts": 228,
      "Ġat": 229,
      "ĠW": 230,
      "oo": 231,
      "Ġcon": 232,
      "un": 233,
      "ag": 234,
      "ore": 235,
      "em": 236,
      "if": 237,
      "Ġ1": 238,
      "ĠL": 239,
      "ct": 240,
      "Ġare": 241,
      "ain": 242,
      "ĠD": 243,
      "Ġ\"": 244,
      "um": 245,
      "us": 246,
      "ate": 247,
      "rom": 248,
      "igh": 249,
      "Ġcom": 250,
      "Ġnot": 251,
      "ould": 252,
      "Ġne": 253,
      "ĠR": 254,
      "Ġhis": 255,
      "est": 256,
      "op": 257,
      "ĠF": 258,
      "Ġ2": 259,
      "th": 260,
      "Ġex": 261,
      "res": 262,
      "ant": 263,
      "Ġsh": 264,
      "Ġ,": 265,
      "Ġ(": 266,
      "and": 267,
      "Ġpl": 268,
      "nt": 269,
      "'s": 270,
      "Ġpro": 271,
      "ab": 272,
      "Ġhave": 273,
      "ĠN": 274,
      "Ġse": 275,
      "Ġv": 276,
      "Ġby": 277,
      "ess": 278,
      "Ġfrom": 279,
      "ĠG": 280,
      "Ġsaid": 281,
      "os": 282,
      "Ġor": 283,
      "ive": 284,
      "ack": 285,
      "Ġle": 286,
      "ity": 287,
      "red": 288,
      "art": 289,
      "ist": 290,
      "Ġsu": 291,
      "all": 292,
      "oc": 293,
      "qu": 294,
      "Ġthey": 295,
      "ĠJ": 296,
      "The": 297,
      "ĠE": 298,
      "Ġde": 299,
      "ard": 300,
      "ome": 301,
      "Ġ.": 302,
      "Ġher": 303,
      "ment": 304,
      "ust": 305,
      "ĠO": 306,
      "Ġch": 307,
      "rou": 308,
      "gh": 309,
      "ort": 310,
      "Ġthis": 311,
      "ap": 312,
      "ies": 313,
      "out": 314,
      "Ġbut": 315,
      "Ġk": 316,
      "Ġab": 317,
      "ight": 318,
      "Ġj": 319,
      "ally": 320,
      "ĠHe": 321,
      "Ġsp": 322,
      "Ġdo": 323,
      "Ġup": 324,
      "00": 325,
      "Ġli": 326,
      "Ġhad": 327,
      "ide": 328,
      "Ġtr": 329,
      "ud": 330,
      "ak": 331,
      "Ġso": 332,
      "very": 333,
      "Ġwor": 334,
      "ast": 335,
      "Ġhas": 336,
      "end": 337,
      "ear": 338,
      "čĊ": 339,
      "Ġwere": 340,
      "ect": 341,
      ".\"": 342,
      "ell": 343,
      "ost": 344,
      "Ġwhe": 345,
      "ame": 346,
      "our": 347,
      "Ġtheir": 348,
      "Ġall": 349,
      "od": 350,
      "Ġout": 351,
      "Ġcan": 352,
      "ime": 353,
      "Ġgo": 354,
      "ie": 355,
      "ge": 356,
      "ong": 357,
      "iv": 358,
      "Ġshe": 359,
      "ked": 360,
      "ich": 361,
      "Ġwill": 362,
      "Ġwho": 363,
      "ĠU": 364,
      "Ġint": 365,
      "ice": 366,
      "ake": 367,
      "one": 368,
      "ther": 369,
      "ial": 370,
      "ĠShe": 371,
      "ep": 372,
      "ily": 373,
      "ans": 374,
      "ff": 375,
      "ure": 376,
      "ĠThey": 377,
      "Ġplay": 378,
      "ous": 379,
      "ind": 380,
      "Ġme": 381,
      "pl": 382,
      "ne": 383,
      "are": 384,
      "Ġcl": 385,
      "Ġmore": 386,
      "ry": 387,
      "ra": 388,
      "ine": 389,
      "Ġwould": 390,
      "Ġad": 391,
      "ber": 392,
      "ays": 393,
      "ions": 394,
      "Ġone": 395,
      "ks": 396,
      "Ġtime": 397,
      "Ġag": 398,
      "au": 399,
      "Ġthere": 400,
      "Ġabout": 401,
      "ated": 402,
      "age": 403,
      "ia": 404,
      "ĠK": 405,
      "ue": 406,
      "Ġus": 407,
      "ood": 408,
      "itt": 409,
      "Ġman": 410,
      "act": 411,
      "Ġthem": 412,
      "ub": 413,
      "pt": 414,
      "cc": 415,
      "Ġits": 416,
      "Ġlike": 417,
      "Ġwhich": 418,
      "Ġim": 419,
      "iz": 420,
      "ip": 421,
      "ĠIt": 422,
      "Ġen": 423,
      "Ġcont": 424,
      "Ġoff": 425,
      "ĠTh": 426,
      "ary": 427,
      "ĠSt": 428,
      "Ġcomp": 429,
      "Ġsome": 430,
      "Ġ20": 431,
      "so": 432,
      "ace": 433,
      "Ġother": 434,
      "per": 435,
      "og": 436,
      "Ġsc": 437,
      "uc": 438,
      "Ġun": 439,
      "Ġbeen": 440,
      "ign": 441,
      "ile": 442,
      "Ġev": 443,
      "ite": 444,
      "ass": 445,
      "Ġpe": 446,
      "Ġyear": 447,
      "ĠY": 448,
      "own": 449,
      "Ġnew": 450,
      "ĠIn": 451,
      "Ġinc": 452,
      "av": 453,
      "ough": 454,
      "Ġhim": 455,
      "Ġday": 456,
      "king": 457,
      "Ġbec": 458,
      "Ġfe": 459,
      "ere": 460,
      "able": 461,
      "ound": 462,
      "Ġper": 463,
      "ire": 464,
      "'t": 465,
      "ord": 466,
      "Ġwhat": 467,
      "Ġres": 468,
      "Ġover": 469,
      "Ġwant": 470,
      "hed": 471,
      "fter": 472,
      "Ġthan": 473,
      "Ġwhen": 474,
      "ved": 475,
      "mer": 476,
      "ach": 477,
      "ree": 478,
      "Ġar": 479,
      "Ġpr": 480,
      "Ġcould": 481,
      "Ġalso": 482,
      "ond": 483,
      "ll": 484,
      "ose": 485,
      "Ġdis": 486,
      "ress": 487,
      "ations": 488,
      "Ġvery": 489,
      "ical": 490,
      "ence": 491,
      "Ġyour": 492,
      "ings": 493,
      "ople": 494,
      "Ġno": 495,
      "Ġapp": 496,
      "Ġro": 497,
      "ance": 498,
      "Ġqu": 499,
      "Ġtw": 500,
      "Ġ201": 501,
      "ade": 502,
      "ail": 503,
      "ib": 504,
      "Ġget": 505,
      "orm": 506,
      "Ġany": 507,
      "Ġ19": 508,
      "Ġloo": 509,
      "ase": 510,
      "ĠCh": 511,
      "Ġdid": 512,
      "Ġmy": 513,
      "hing": 514,
      "reat": 515,
      "ens": 516,
      "Ġinto": 517,
      "oy": 518,
      "ark": 519,
      "Ġjust": 520,
      "ove": 521,
      "irst": 522,
      "round": 523,
      "Ġkn": 524,
      "Ġpeople": 525,
      "Ġsm": 526,
      "Ġhapp": 527,
      "Ġ3": 528,
      "ian": 529,
      "ru": 530,
      "oin": 531,
      "Ġback": 532,
      "Ġpart": 533,
      "Ġif": 534,
      "ick": 535,
      "ount": 536,
      "low": 537,
      "Ġpre": 538,
      "wn": 539,
      "Ġrec": 540,
      "ĠV": 541,
      "ang": 542,
      "Ġtoo": 543,
      "ory": 544,
      "ors": 545,
      "ob": 546,
      "vel": 547,
      "ont": 548,
      "ult": 549,
      "Ġdec": 550,
      "ents": 551,
      "old": 552,
      "ause": 553,
      "Ġrep": 554,
      "Ġte": 555,
      "Ġpol": 556,
      "Ġmom": 557,
      "ish": 558,
      "my": 559,
      "ition": 560,
      "Ġbig": 561,
      "Ġ=": 562,
      "ons": 563,
      "Ġfirst": 564,
      "ious": 565,
      "Ġhow": 566,
      "nder": 567,
      "ater": 568,
      "ittle": 569,
      "ction": 570,
      "Ġimp": 571,
      "Ġafter": 572,
      "ild": 573,
      "Ġagain": 574,
      "lic": 575,
      "Ġour": 576,
      "Ġtwo": 577,
      "Ġ'": 578,
      "ful": 579,
      "ates": 580,
      "nce": 581,
      "ĠLily": 582,
      "amp": 583,
      "Ġbl": 584,
      "Ġlittle": 585,
      "Ġsee": 586,
      "vers": 587,
      "urn": 588,
      "Ġ-": 589,
      "Ġbet": 590,
      "uch": 591,
      "riend": 592,
      "Ġmake": 593,
      "Ġ@": 594,
      "Ġacc": 595,
      "Ġonly": 596,
      "ict": 597,
      "Ġatt": 598,
      "aw": 599,
      "ft": 600,
      ",\"": 601,
      "Ġhel": 602,
      "ĠBut": 603,
      "ident": 604,
      "ited": 605,
      "Ġam": 606,
      "Ġser": 607,
      "Ġbr": 608,
      "ew": 609,
      "Ġcomm": 610,
      "rough": 611,
      "we": 612,
      "Ġfriend": 613,
      "Ġevery": 614,
      "Ġthen": 615,
      "ink": 616,
      "Ġunder": 617,
      "Ġhelp": 618,
      "form": 619,
      "sel": 620,
      "omet": 621,
      "get": 622,
      "Ġknow": 623,
      "Ġbecause": 624,
      "rit": 625,
      "Ġmost": 626,
      "anc": 627,
      "iss": 628,
      "Ġact": 629,
      "other": 630,
      "Ġ4": 631,
      "ys": 632,
      "Ġdes": 633,
      "ning": 634,
      "als": 635,
      "ving": 636,
      "Ġmade": 637,
      "ise": 638,
      "Ġneed": 639,
      "iff": 640,
      "hen": 641,
      "Ġeven": 642,
      "Ġco": 643,
      "lud": 644,
      "fore": 645,
      "Ġyears": 646,
      "Ġnow": 647,
      "ĠWe": 648,
      "les": 649,
      "side": 650,
      "Ġstart": 651,
      "man": 652,
      "Ġsaw": 653,
      "ug": 654,
      "way": 655,
      "Ġwork": 656,
      "tern": 657,
      "Ġdown": 658,
      "Ġ5": 659,
      "Ġaround": 660,
      "Ġsec": 661,
      "Ġmany": 662,
      "Ġshow": 663,
      "Ġrem": 664,
      "Ġhappy": 665,
      "Ġcar": 666,
      "ĠAnd": 667,
      "Ġgr": 668,
      "Ġind": 669,
      "Ġcall": 670,
      "Ġsays": 671,
      "Ġexp": 672,
      "Ġinv": 673,
      "Ġwhere": 674,
      "Ġgood": 675,
      "ump": 676,
      "oth": 677,
      "ied": 678,
      "day": 679,
      "ook": 680,
      "Ġmuch": 681,
      "ty": 682,
      "ĠUn": 683,
      "Ġcol": 684,
      "hn": 685,
      "Th": 686,
      "ĠYou": 687,
      "ublic": 688,
      "Ġsomet": 689,
      "xt": 690,
      "Ġbeing": 691,
      "Ġadd": 692,
      "Ġke": 693,
      "row": 694,
      "Ġ$": 695,
      "Ġway": 696,
      "Ġem": 697,
      "Ġbu": 698,
      "enc": 699,
      "Ġend": 700,
      "Ġsupp": 701,
      "irl": 702,
      "ng": 703,
      "Ġdiff": 704,
      "aking": 705,
      "ax": 706,
      "Ġ200": 707,
      "ath": 708,
      "Ġfl": 709,
      "Ġsay": 710,
      "ting": 711,
      "ating": 712,
      "ased": 713,
      "Ġlong": 714,
      "Ġfound": 715,
      "Ġrel": 716,
      "uring": 717,
      "ual": 718,
      "Ġthese": 719,
      "Ġinclud": 720,
      "Ġthrough": 721,
      "ĠWh": 722,
      "ave": 723,
      "oss": 724,
      "ational": 725,
      "Ġshould": 726,
      "vern": 727,
      "In": 728,
      "ward": 729,
      "ared": 730,
      "ĠTim": 731,
      "Ġwanted": 732,
      "Ġthough": 733,
      "Ġfun": 734,
      "Ġcons": 735,
      "ves": 736,
      "ĠThis": 737,
      "Ġbefore": 738,
      "rib": 739,
      "ss": 740,
      "Ġfin": 741,
      "Ġmay": 742,
      "lect": 743,
      "iew": 744,
      "Ġreg": 745,
      "ason": 746,
      "Ġown": 747,
      "Ġwell": 748,
      "Ġdef": 749,
      "meric": 750,
      "Ġstr": 751,
      "ouse": 752,
      "Ġpres": 753,
      "Ġac": 754,
      "ix": 755,
      "!\"": 756,
      "-@": 757,
      "Ġ@-@": 758,
      "Ġuse": 759,
      "Ġtake": 760,
      "Ġwent": 761,
      "Ġsur": 762,
      "Ġsy": 763,
      "ĠTr": 764,
      "ull": 765,
      "Ġmon": 766,
      "Ġ[": 767,
      "arly": 768,
      "ters": 769,
      "te": 770,
      "ics": 771,
      "Ġspec": 772,
      "Ġop": 773,
      "up": 774,
      "Ġgirl": 775,
      "Ġdoes": 776,
      "rop": 777,
      "ange": 778,
      "ock": 779,
      "ird": 780,
      "ities": 781,
      "Ġput": 782,
      "Ġsomething": 783,
      "Ġrun": 784,
      "du": 785,
      "Ġlast": 786,
      "gan": 787,
      "ven": 788,
      "Ġthose": 789,
      "ative": 790,
      "ble": 791,
      "Ġph": 792,
      "Ġwhile": 793,
      "ĠAmeric": 794,
      "ton": 795,
      "Ġass": 796,
      "atch": 797,
      "Ġfind": 798,
      "ince": 799,
      "Ġupon": 800,
      "oun": 801,
      "Ġcount": 802,
      "Ġgame": 803,
      "Ġstill": 804,
      "ower": 805,
      "Ġgoing": 806,
      "arn": 807,
      "self": 808,
      "..": 809,
      "und": 810,
      "Once": 811,
      "ific": 812,
      "Ġsuch": 813,
      "ool": 814,
      ").": 815,
      "ues": 816,
      "ife": 817,
      "hes": 818,
      "ĠNew": 819,
      "amed": 820,
      "Ġcr": 821,
      "ms": 822,
      "ible": 823,
      "ener": 824,
      "Ġlo": 825,
      "gr": 826,
      "ren": 827,
      "ollow": 828,
      "Ġ6": 829,
      "Ġworld": 830,
      "vernment": 831,
      "Ġwr": 832,
      "Ġhome": 833,
      "Ġhand": 834,
      "Ġset": 835,
      "its": 836,
      "air": 837,
      "oint": 838,
      "Ġ)": 839,
      "ually": 840,
      "land": 841,
      "Ġthink": 842,
      "ered": 843,
      "tain": 844,
      "Ġteam": 845,
      "olog": 846,
      "ures": 847,
      "Ġthings": 848,
      "ĠOne": 849,
      "led": 850,
      "ank": 851,
      "--": 852,
      "li": 853,
      "Ġhigh": 854,
      "Ġent": 855,
      "Ġsub": 856,
      "ject": 857,
      "az": 858,
      "Ġstud": 859,
      "Ġright": 860,
      "ars": 861,
      "erson": 862,
      "ox": 863,
      "Ġmin": 864,
      "ists": 865,
      "Ġagainst": 866,
      "Ġfriends": 867,
      "Ġlot": 868,
      "Ġchar": 869,
      "Ġgot": 870,
      "ween": 871,
      "ĠBen": 872,
      "Ġgu": 873,
      "Ġthree": 874,
      "Ġdiffere": 875,
      "ah": 876,
      "ady": 877,
      "Ġaway": 878,
      "ement": 879,
      "Ġeff": 880,
      "roup": 881,
      "ames": 882,
      "ility": 883,
      "pr": 884,
      "Ġboth": 885,
      "Ġcare": 886,
      "pped": 887,
      "000": 888,
      "Ġreal": 889,
      "Ġlead": 890,
      "ov": 891,
      "Ġasked": 892,
      "Ġfam": 893,
      "Ġob": 894,
      "Ġwee": 895,
      "ĠAn": 896,
      "Ġfeel": 897,
      "elt": 898,
      "Ġtold": 899,
      "Ġinst": 900,
      "Ġnum": 901,
      "Ġbetween": 902,
      "ote": 903,
      "Ġinter": 904,
      "Ġexpl": 905,
      "ged": 906,
      "),": 907,
      "com": 908,
      "Ġbel": 909,
      "stem": 910,
      "Ġused": 911,
      "arch": 912,
      "hip": 913,
      "illion": 914,
      "Ġsame": 915,
      "Ġconf": 916,
      "ember": 917,
      "Ġresp": 918,
      "Ġgovernment": 919,
      "Ġdisc": 920,
      "ided": 921,
      "Ġexc": 922,
      "ĠRe": 923,
      "ried": 924,
      "ism": 925,
      "ather": 926,
      "Ġsign": 927,
      "ments": 928,
      "ork": 929,
      "Ġsim": 930,
      "ever": 931,
      "ats": 932,
      "Ġeach": 933,
      "orn": 934,
      "Ġed": 935,
      "Ġgreat": 936,
      "uck": 937,
      "ways": 938,
      "ĠAl": 939,
      "Ġoffic": 940,
      "Ġref": 941,
      "io": 942,
      "ution": 943,
      "Ġcur": 944,
      "Ġfollow": 945,
      "Ġ7": 946,
      "?\"": 947,
      "velop": 948,
      "Ġnever": 949,
      "ĠAs": 950,
      "Ġter": 951,
      "ĠAr": 952,
      "Ġopen": 953,
      "ĠLe": 954,
      "ants": 955,
      "Ġprov": 956,
      "ale": 957,
      "Ġret": 958,
      "iel": 959,
      ".[": 960,
      "oot": 961,
      "Ġfr": 962,
      "Ġcle": 963,
      "ins": 964,
      "iled": 965,
      "uss": 966,
      "Ġlaw": 967,
      "imes": 968,
      "ĠSp": 969,
      "Ġcre": 970,
      "Ġtrans": 971,
      "Ġreally": 972,
      "vent": 973,
      "Ġhere": 974,
      "ĠTom": 975,
      "ying": 976,
      "ĠJo": 977,
      "duc": 978,
      "akes": 979,
      "Ġcour": 980,
      "Ġche": 981,
      "Ġmod": 982,
      "Ġ10": 983,
      "Ġcame": 984,
      "ets": 985,
      "Ġmed": 986,
      "Ġgroup": 987,
      "Ġnamed": 988,
      "Ġstarted": 989,
      "any": 990,
      "ric": 991,
      "ient": 992,
      "ĠCom": 993,
      "Ġbest": 994,
      "Ġduring": 995,
      "ern": 996,
      "Ġext": 997,
      "ized": 998,
      "cent": 999,
      "Ġcap": 1000,
      "ef": 1001,
      "Ġfelt": 1002,
      "Ġ8": 1003,
      "Ġreport": 1004,
      "ph": 1005,
      "Ġsystem": 1006,
      "Ġtoget": 1007,
      "Ġtogether": 1008,
      "Ġ<": 1009,
      "ular": 1010,
      "ĠSh": 1011,
      "ines": 1012,
      "It": 1013,
      "ished": 1014,
      "ĠIs": 1015,
      "att": 1016,
      "Ġlook": 1017,
      "Ġcent": 1018,
      "Ġalways": 1019,
      "Ġpublic": 1020,
      "alth": 1021,
      "Ġtook": 1022,
      "ision": 1023,
      "irect": 1024,
      "Ġcome": 1025,
      "der": 1026,
      "Ġfar": 1027,
      "Ġcontin": 1028,
      "Ġlar": 1029,
      "unk": 1030,
      "ash": 1031,
      "ĠCl": 1032,
      "cept": 1033,
      "gg": 1034,
      "Ġturn": 1035,
      "Wh": 1036,
      "Ġhead": 1037,
      "Ġold": 1038,
      "iet": 1039,
      "Ġwom": 1040,
      "Ġtal": 1041,
      "med": 1042,
      "Ġ9": 1043,
      "ee": 1044,
      "Ġexper": 1045,
      "ience": 1046,
      "Ġdifferent": 1047,
      "Ġdet": 1048,
      "Ġloc": 1049,
      "orts": 1050,
      "Ġnext": 1051,
      "yp": 1052,
      "con": 1053,
      "ense": 1054,
      "Ġsupport": 1055,
      "Ġdevelop": 1056,
      "Ġwar": 1057,
      "Ġsmall": 1058,
      "uth": 1059,
      "Ġbetter": 1060,
      "thing": 1061,
      "chool": 1062,
      "ices": 1063,
      "ross": 1064,
      "Ġhard": 1065,
      "Ġfew": 1066,
      "aj": 1067,
      "Ġanother": 1068,
      "ivers": 1069,
      "Ġlooked": 1070,
      "Ġboy": 1071,
      "Ġmet": 1072,
      "ired": 1073,
      "min": 1074,
      "Ġstate": 1075,
      "Ġplan": 1076,
      "ised": 1077,
      "ces": 1078,
      "Ġcalled": 1079,
      "Ġran": 1080,
      "Ġleg": 1081,
      "ner": 1082,
      "Ġperson": 1083,
      "Ġunt": 1084,
      "Ġchild": 1085,
      "Ġsl": 1086,
      "Ġbelie": 1087,
      "Ġmonth": 1088,
      "Ġrele": 1089,
      "Ġgener": 1090,
      "Ġsince": 1091,
      "ted": 1092,
      "Ġsk": 1093,
      "ĠSo": 1094,
      "ages": 1095,
      "ording": 1096,
      "Ġdep": 1097,
      "ced": 1098,
      "Ġdon": 1099,
      "But": 1100,
      "Ġpass": 1101,
      "Ġbus": 1102,
      "bers": 1103,
      "Ġide": 1104,
      "ger": 1105,
      "na": 1106,
      "ially": 1107,
      "Ġiss": 1108,
      "ute": 1109,
      "ically": 1110,
      "Ġgl": 1111,
      "Ġsw": 1112,
      "Ġlet": 1113,
      "Ġpolit": 1114,
      "ĠIf": 1115,
      "Ġinf": 1116,
      "ling": 1117,
      "Ġsecond": 1118,
      "ĠFr": 1119,
      "ier": 1120,
      "ĠTrump": 1121,
      "Ġprot": 1122,
      "We": 1123,
      "Ġfil": 1124,
      "Ġgiv": 1125,
      "Ġwal": 1126,
      "Ġfact": 1127,
      "Ġrequ": 1128,
      "Ġlist": 1129,
      "ield": 1130,
      "ret": 1131,
      "Ġloved": 1132,
      "Ġlife": 1133,
      "Ġimport": 1134,
      "Ġpower": 1135,
      "Ġplace": 1136,
      "Ġmight": 1137,
      "Ġthought": 1138,
      "Ġuntil": 1139,
      "sp": 1140,
      "Ġart": 1141,
      "ny": 1142,
      "Ġopp": 1143,
      "Ġdr": 1144,
      "Ġpar": 1145,
      "Ġsoc": 1146,
      "Ġkeep": 1147,
      "ness": 1148,
      "augh": 1149,
      "osed": 1150,
      "ody": 1151,
      "Ġdist": 1152,
      "Ġbuild": 1153,
      "here": 1154,
      "erest": 1155,
      "ize": 1156,
      "Ġ0": 1157,
      "ck": 1158,
      "Ġtop": 1159,
      "Ġplaying": 1160,
      "view": 1161,
      "Ġcamp": 1162,
      "ĠFor": 1163,
      "Ġmem": 1164,
      "Ġread": 1165,
      "Ġpoint": 1166,
      "ĠIm": 1167,
      "ex": 1168,
      "Ġposs": 1169,
      "Ġ18": 1170,
      "Ġwater": 1171,
      "ects": 1172,
      "ights": 1173,
      "Ġbeh": 1174,
      "Ġel": 1175,
      "Ġinvest": 1176,
      "ata": 1177,
      "Ġcommun": 1178,
      "Ġmar": 1179,
      "Ġdem": 1180,
      "Ġrest": 1181,
      "iness": 1182,
      "Ġconc": 1183,
      "ple": 1184,
      "Ġless": 1185,
      "ral": 1186,
      "Ġallow": 1187,
      "be": 1188,
      "ten": 1189,
      "Ġnumber": 1190,
      "ital": 1191,
      "Ġfour": 1192,
      "ok": 1193,
      "Ġcomple": 1194,
      "oney": 1195,
      "Ġbre": 1196,
      "Ġincluding": 1197,
      "ĠUS": 1198,
      "Ġseem": 1199,
      "Ġkind": 1200,
      "Ġspe": 1201,
      "Ġsmiled": 1202,
      "Ġdirect": 1203,
      "20": 1204,
      "den": 1205,
      "by": 1206,
      "less": 1207,
      "Ġdont": 1208,
      "Ġquest": 1209,
      "Ġstat": 1210,
      "Ġwithout": 1211,
      "Ġleft": 1212,
      "cess": 1213,
      "ected": 1214,
      "Ġbro": 1215,
      "Ġfamily": 1216,
      "Ġmil": 1217,
      "Ġpost": 1218,
      "rent": 1219,
      "Ġincre": 1220,
      "Ġhum": 1221,
      "Ġstand": 1222,
      "Ġpri": 1223,
      "ĠBl": 1224,
      "Ġbird": 1225,
      "He": 1226,
      "ately": 1227,
      "Ġpop": 1228,
      "vice": 1229,
      "ĠTimmy": 1230,
      "ane": 1231,
      "Ġseason": 1232,
      "Ġav": 1233,
      "One": 1234,
      "Ġcontro": 1235,
      "ĠRep": 1236,
      "Ġprom": 1237,
      "new": 1238,
      "This": 1239,
      "Ġmillion": 1240,
      "ĠSc": 1241,
      "Ġmove": 1242,
      "Ġlater": 1243,
      "gram": 1244,
      "Ġfore": 1245,
      "reen": 1246,
      "aim": 1247,
      "ama": 1248,
      "Ġproble": 1249,
      "Ġspecial": 1250,
      "gy": 1251,
      "outh": 1252,
      "son": 1253,
      "ĠAt": 1254,
      "br": 1255,
      "Ġpercent": 1256,
      "ead": 1257,
      "Ġmark": 1258,
      "Ġwin": 1259,
      "ĠZ": 1260,
      "Ġdecided": 1261,
      "Ġmain": 1262,
      "inal": 1263,
      "ode": 1264,
      "oll": 1265,
      "orth": 1266,
      "Ġpartic": 1267,
      "Ġdel": 1268,
      "Ġball": 1269,
      "Ġinterest": 1270,
      "Ġoutside": 1271,
      "ĠInd": 1272,
      "ĠJohn": 1273,
      "ĠWhen": 1274,
      "Ġlearn": 1275,
      "Ġschool": 1276,
      "Ġdri": 1277,
      "conom": 1278,
      "Ġhappen": 1279,
      "ains": 1280,
      "Ġcountry": 1281,
      "esp": 1282,
      "Ġimportant": 1283,
      "ched": 1284,
      "Ġinform": 1285,
      "ĠThat": 1286,
      "ĠThere": 1287,
      "ajor": 1288,
      "Ġmo": 1289,
      "Ġstory": 1290,
      "echn": 1291,
      "Ġann": 1292,
      "Ġweek": 1293,
      "ĠCan": 1294,
      "Ġattack": 1295,
      "iver": 1296,
      "ries": 1297,
      "ably": 1298,
      "ĠHow": 1299,
      "ature": 1300,
      "used": 1301,
      "Ġhouse": 1302,
      "ĠAmerican": 1303,
      "ider": 1304,
      "Ġele": 1305,
      "Ġhop": 1306,
      "Ġform": 1307,
      "'re": 1308,
      "ained": 1309,
      "Ġpark": 1310,
      "Ġpos": 1311,
      "ently": 1312,
      "Ġsing": 1313,
      "Ġsad": 1314,
      "Ġval": 1315,
      "Ġvis": 1316,
      "Ġcase": 1317,
      "ued": 1318,
      "vious": 1319,
      "Ġtell": 1320,
      "Ġrece": 1321,
      "Ġthing": 1322,
      "Ġcor": 1323,
      "ina": 1324,
      "Ġlove": 1325,
      "Ġwhy": 1326,
      "ĠUnited": 1327,
      "__": 1328,
      "Ġmaking": 1329,
      "Ġusing": 1330,
      "line": 1331,
      "ott": 1332,
      "rap": 1333,
      "Ġgive": 1334,
      "Ġable": 1335,
      "stand": 1336,
      "ional": 1337,
      "ency": 1338,
      "Ġdidn": 1339,
      "Ġdesign": 1340,
      "Ġclass": 1341,
      "Ġpur": 1342,
      "Ġmat": 1343,
      "rem": 1344,
      "Ġever": 1345,
      "Ġpay": 1346,
      "Ġhist": 1347,
      "ians": 1348,
      "Ġeas": 1349,
      "ury": 1350,
      "Ġpolice": 1351,
      "Ġbo": 1352,
      "Ġreturn": 1353,
      "Ġprodu": 1354,
      "Ġmoney": 1355,
      "Ġpret": 1356,
      "Ġprogram": 1357,
      "Ġsaf": 1358,
      "ocr": 1359,
      "10": 1360,
      "ertain": 1361,
      "ĠBr": 1362,
      "Ġadv": 1363,
      "int": 1364,
      "Ġmean": 1365,
      "els": 1366,
      "ruct": 1367,
      "Ġrecord": 1368,
      "Ġroom": 1369,
      "Ġdog": 1370,
      "Ġorgan": 1371,
      "Ġplayed": 1372,
      "Ġeconom": 1373,
      "aff": 1374,
      "Ġname": 1375,
      "ration": 1376,
      "Ġfree": 1377,
      "ract": 1378,
      "ured": 1379,
      "ĠQ": 1380,
      "Ġve": 1381,
      "ards": 1382,
      "Ġsol": 1383,
      "ology": 1384,
      "Ġpat": 1385,
      "Ġlevel": 1386,
      "Ġgrow": 1387,
      "Ġair": 1388,
      "ĠMay": 1389,
      "They": 1390,
      "erv": 1391,
      "Ġstre": 1392,
      "ĠPro": 1393,
      "Ġoper": 1394,
      "'m": 1395,
      "ĠMar": 1396,
      "Ġchange": 1397,
      "ready": 1398,
      "ives": 1399,
      "As": 1400,
      "Ġpo": 1401,
      "ccess": 1402,
      "Ġjob": 1403,
      "app": 1404,
      "atic": 1405,
      "Ġest": 1406,
      "Ġmus": 1407,
      "Ġ199": 1408,
      "Ġmust": 1409,
      "Ġmajor": 1410,
      "Ġprocess": 1411,
      "iversity": 1412,
      "ike": 1413,
      "Ġlarge": 1414,
      "Ġbit": 1415,
      "Ġbas": 1416,
      "Ġappro": 1417,
      "Ġcity": 1418,
      "ech": 1419,
      "ĠAd": 1420,
      "ator": 1421,
      "Ġhaving": 1422,
      "ik": 1423,
      "Ġdays": 1424,
      "Ġhealth": 1425,
      "Ġ:": 1426,
      "ĠPh": 1427,
      "Ġenough": 1428,
      "Ġfac": 1429,
      "Ġchang": 1430,
      "ploy": 1431,
      "ĠAll": 1432,
      "Ġsit": 1433,
      "Ġ12": 1434,
      "ĠChr": 1435,
      "Ġalready": 1436,
      "ĠBe": 1437,
      "Ġfull": 1438,
      "Ġmiss": 1439,
      "sc": 1440,
      "ney": 1441,
      "ural": 1442,
      "Ġdata": 1443,
      "aring": 1444,
      "Ġ15": 1445,
      "Ġpast": 1446,
      "Ġprof": 1447,
      "Ġconst": 1448,
      "ention": 1449,
      "ĠSam": 1450,
      "Ġvar": 1451,
      "ister": 1452,
      "ĠIts": 1453,
      "Ġkill": 1454,
      "ley": 1455,
      "Ġcurrent": 1456,
      "Ġclaim": 1457,
      "Ġtechn": 1458,
      "aign": 1459,
      "Ġstrong": 1460,
      "Ġbusiness": 1461,
      "rew": 1462,
      "Ġofficial": 1463,
      "ĠOb": 1464,
      "Ġbad": 1465,
      "ior": 1466,
      "gin": 1467,
      "to": 1468,
      "Ġsure": 1469,
      "Ġgave": 1470,
      "Ġseen": 1471,
      "ster": 1472,
      "Ġanim": 1473,
      "Ġrese": 1474,
      "Ġknew": 1475,
      "Ġcost": 1476,
      "Ġcompany": 1477,
      "Ġgames": 1478,
      "ush": 1479,
      "Ġnight": 1480,
      "Ġelect": 1481,
      "Ġline": 1482,
      "Ġtyp": 1483,
      "Ġword": 1484,
      "Ġwomen": 1485,
      "ĠOn": 1486,
      "Ġland": 1487,
      "Ġidea": 1488,
      "ony": 1489,
      "Ġperform": 1490,
      "raw": 1491,
      "Ġmen": 1492,
      "Ġview": 1493,
      "co": 1494,
      "Ġinformation": 1495,
      "Ġinside": 1496,
      "Ġdoing": 1497,
      "Ġcharac": 1498,
      "Ġaff": 1499,
      "uthor": 1500,
      "ait": 1501,
      "ering": 1502,
      "alf": 1503,
      "ĠHis": 1504,
      "the": 1505,
      "Ġedit": 1506,
      "Ġpresident": 1507,
      "Ġins": 1508,
      "Ġsever": 1509,
      "Ġtest": 1510,
      "Ġvide": 1511,
      "aining": 1512,
      "Ġnear": 1513,
      "ases": 1514,
      "Ġprop": 1515,
      "St": 1516,
      "ean": 1517,
      "Ġchildren": 1518,
      "Ġalong": 1519,
      "acy": 1520,
      "Ġ/": 1521,
      "Ġexcited": 1522,
      "ample": 1523,
      "Lily": 1524,
      "Ġdone": 1525,
      "Ġcampaign": 1526,
      "eb": 1527,
      "Ġproduc": 1528,
      "ĠComm": 1529,
      "icy": 1530,
      "ror": 1531,
      "Ġbecome": 1532,
      "ĠPl": 1533,
      "Ġleast": 1534,
      "Ġearly": 1535,
      "Ġliked": 1536,
      "Ġtry": 1537,
      "ides": 1538,
      "Ġworking": 1539,
      "uff": 1540,
      "ĠHer": 1541,
      "Ġoften": 1542,
      "ron": 1543,
      "ots": 1544,
      "Ġtax": 1545,
      "tt": 1546,
      "bs": 1547,
      "ection": 1548,
      "ison": 1549,
      "ising": 1550,
      "Ġtried": 1551,
      "ined": 1552,
      "Ġhold": 1553,
      "Ġseveral": 1554,
      "Ġevent": 1555,
      "Ġ--": 1556,
      "You": 1557,
      "ĠEu": 1558,
      "ption": 1559,
      "Ġbecame": 1560,
      "Ġbook": 1561,
      "Ġhug": 1562,
      "Ġside": 1563,
      "aut": 1564,
      "ories": 1565,
      "aps": 1566,
      "Ġpolitical": 1567,
      "inc": 1568,
      "ara": 1569,
      "ality": 1570,
      "urity": 1571,
      "ges": 1572,
      "Ġsuccess": 1573,
      "Ġyoung": 1574,
      "une": 1575,
      "ium": 1576,
      "Ġintern": 1577,
      "most": 1578,
      "ified": 1579,
      "Ġheard": 1580,
      "Ġformer": 1581,
      "ĠOr": 1582,
      "ĠPres": 1583,
      "ann": 1584,
      "Ġla": 1585,
      "Ġrepl": 1586,
      "Ġorder": 1587,
      "ĠCon": 1588,
      "aken": 1589,
      "Ġcrit": 1590,
      "Ġ11": 1591,
      "ones": 1592,
      "oice": 1593,
      "ĠPr": 1594,
      "Ġfood": 1595,
      "Ġtimes": 1596,
      "eder": 1597,
      "Ġear": 1598,
      "Ġappear": 1599,
      "Ġfive": 1600,
      "Ġocc": 1601,
      "Ġlooking": 1602,
      "Ġhuman": 1603,
      "oud": 1604,
      "Ġred": 1605,
      "ĠStates": 1606,
      "Ġorig": 1607,
      "ended": 1608,
      "Ġdeb": 1609,
      "ball": 1610,
      "iol": 1611,
      "Ġunderstand": 1612,
      "Ġdeal": 1613,
      "ored": 1614,
      "Ġmeet": 1615,
      "Ġquick": 1616,
      "Ġothers": 1617,
      "Ġknown": 1618,
      "ither": 1619,
      "Ġfund": 1620,
      "ĠMom": 1621,
      "Ġfav": 1622,
      "ids": 1623,
      "ĠRepublic": 1624,
      "ĠMc": 1625,
      "Ġpot": 1626,
      "ĠMr": 1627,
      "50": 1628,
      "ĠNo": 1629,
      "ware": 1630,
      "Ġeng": 1631,
      "ĠCol": 1632,
      "ived": 1633,
      "Ġclose": 1634,
      "Ġmor": 1635,
      "Ġpress": 1636,
      "Ġground": 1637,
      "Ġactually": 1638,
      "Ġnews": 1639,
      "wards": 1640,
      "Ġwrit": 1641,
      "Ġey": 1642,
      "ĠSy": 1643,
      "Ġacross": 1644,
      "19": 1645,
      "ober": 1646,
      "Ġ]": 1647,
      "let": 1648,
      "ective": 1649,
      "Ġvers": 1650,
      "Ġbegan": 1651,
      "ĠEurop": 1652,
      "Ġface": 1653,
      "Ġsound": 1654,
      "Ġhour": 1655,
      "Ġmarket": 1656,
      "Ġtre": 1657,
      "reed": 1658,
      "Ġant": 1659,
      "Ġequ": 1660,
      "Ġaccording": 1661,
      "Ġtri": 1662,
      "Ġben": 1663,
      "Ġsn": 1664,
      "Ġmakes": 1665,
      "ĠYork": 1666,
      "ung": 1667,
      "Ġmembers": 1668,
      "ubl": 1669,
      "raft": 1670,
      "ization": 1671,
      "Ġmilit": 1672,
      "Ġresult": 1673,
      "Ġbox": 1674,
      "aged": 1675,
      "sh": 1676,
      "aster": 1677,
      "Ġvot": 1678,
      "Ġshort": 1679,
      "ald": 1680,
      "Ġfight": 1681,
      "Ġcourse": 1682,
      "idence": 1683,
      "Ġplayers": 1684,
      "Ġarg": 1685,
      "Ġfilm": 1686,
      "Ġcreat": 1687,
      "ĠAfter": 1688,
      "Ġcut": 1689,
      "Ġstay": 1690,
      "ĠDem": 1691,
      "lo": 1692,
      "Ġz": 1693,
      "for": 1694,
      "Ġgetting": 1695,
      "Ġsocial": 1696,
      "ev": 1697,
      "Ġcontrol": 1698,
      "icle": 1699,
      "Ġsoon": 1700,
      "Ġdesc": 1701,
      "uture": 1702,
      "Ġ16": 1703,
      "Ġseries": 1704,
      "Ġscared": 1705,
      "Ġdad": 1706,
      "Ġtree": 1707,
      "orld": 1708,
      "urs": 1709,
      "year": 1710,
      "Ġwithin": 1711,
      "elf": 1712,
      "ream": 1713,
      "----": 1714,
      "Ġmid": 1715,
      "ĠRuss": 1716,
      "rown": 1717,
      "Ġwind": 1718,
      "Ġbehind": 1719,
      "Ġinvol": 1720,
      "ape": 1721,
      "Ġpretty": 1722,
      "Ġmonths": 1723,
      "Ġhig": 1724,
      "ĠTw": 1725,
      "Ġonce": 1726,
      "ulation": 1727,
      "Ġtoday": 1728,
      "ending": 1729,
      "que": 1730,
      "af": 1731,
      "Ġfur": 1732,
      "Ġsugg": 1733,
      "ĠWhat": 1734,
      "aper": 1735,
      "por": 1736,
      "work": 1737,
      "Ġquestion": 1738,
      "cl": 1739,
      "Ġshare": 1740,
      "ĠCar": 1741,
      "Ġamong": 1742,
      "Ġfire": 1743,
      "11": 1744,
      "ept": 1745,
      "ague": 1746,
      "Ġmess": 1747,
      "ĠJack": 1748,
      "enn": 1749,
      "itive": 1750,
      "ert": 1751,
      "though": 1752,
      "ĠEvery": 1753,
      "Ġbelieve": 1754,
      "wh": 1755,
      "ĠPresident": 1756,
      "bed": 1757,
      "Ġlocal": 1758,
      "Ġproblem": 1759,
      "Ġwhether": 1760,
      "Ġlight": 1761,
      "Ġcertain": 1762,
      "Ġwatch": 1763,
      "ĠFl": 1764,
      "Ġexample": 1765,
      "ances": 1766,
      "Ġanything": 1767,
      "Ġnon": 1768,
      "ument": 1769,
      "Ġmag": 1770,
      "Ġtrying": 1771,
      "Ġlikely": 1772,
      "Ġactiv": 1773,
      "ensive": 1774,
      "Ġfail": 1775,
      "Ġ&": 1776,
      "ential": 1777,
      "Ġmedia": 1778,
      "Ġpossible": 1779,
      "Ġavail": 1780,
      "oci": 1781,
      "Ġvideo": 1782,
      "ĠGr": 1783,
      "eal": 1784,
      "Ġgiven": 1785,
      "Ġra": 1786,
      "ission": 1787,
      "artment": 1788,
      "Ġ30": 1789,
      "Ġmeans": 1790,
      "ma": 1791,
      "Ġfollowing": 1792,
      "Ġsent": 1793,
      "itions": 1794,
      "When": 1795,
      "ached": 1796,
      "Ġauthor": 1797,
      "Ġclim": 1798,
      "Ġsurpr": 1799,
      "If": 1800,
      "orry": 1801,
      "Ġinvestig": 1802,
      "Ġsex": 1803,
      "vert": 1804,
      "ER": 1805,
      "Ġviol": 1806,
      "Ġfall": 1807,
      "ĠBrit": 1808,
      "ĠGer": 1809,
      "ming": 1810,
      "ĠEng": 1811,
      "gress": 1812,
      "ortun": 1813,
      "ĠUniversity": 1814,
      "What": 1815,
      "Ġdeath": 1816,
      "ĠChrist": 1817,
      "iec": 1818,
      "ators": 1819,
      "oon": 1820,
      "Ġstop": 1821,
      "Ġcoming": 1822,
      "uly": 1823,
      "ĠMax": 1824,
      "iety": 1825,
      "Ġpic": 1826,
      "ands": 1827,
      "ament": 1828,
      "ĠSe": 1829,
      "Ġ17": 1830,
      "Ġhur": 1831,
      "iron": 1832,
      "unch": 1833,
      "Ġfuture": 1834,
      "Ġlow": 1835,
      "irc": 1836,
      "Ġhimself": 1837,
      "Ġlim": 1838,
      "Ġwon": 1839,
      "Ġpriv": 1840,
      "Ġyet": 1841,
      "Ġnice": 1842,
      "Ġbased": 1843,
      "rest": 1844,
      "arr": 1845,
      "Ġparty": 1846,
      "Ġreported": 1847,
      "Ġproject": 1848,
      "verage": 1849,
      "ĠMin": 1850,
      "Ġnet": 1851,
      "Ġpoin": 1852,
      "Ġcommunity": 1853,
      "Ġblack": 1854,
      "Ġmusic": 1855,
      "ĠAm": 1856,
      "Ġsour": 1857,
      "12": 1858,
      "ivid": 1859,
      "Ġpain": 1860,
      "Ġtoys": 1861,
      "ests": 1862,
      "Ġca": 1863,
      "ps": 1864,
      "itter": 1865,
      "Ġpract": 1866,
      "use": 1867,
      "Ġalmost": 1868,
      "itc": 1869,
      "Ġreason": 1870,
      "Ġsong": 1871,
      "ination": 1872,
      "Ġarea": 1873,
      "Ġsix": 1874,
      "ief": 1875,
      "Ġident": 1876,
      "And": 1877,
      "aren": 1878,
      "Ġsun": 1879,
      "utes": 1880,
      "Ġ13": 1881,
      "ĠCent": 1882,
      "Ġcond": 1883,
      "ene": 1884,
      "Ġcareful": 1885,
      "Ġcomes": 1886,
      "Ġhistory": 1887,
      "ashing": 1888,
      "ĠState": 1889,
      "Ġsafe": 1890,
      "Ġpresent": 1891,
      "Ġlive": 1892,
      "oke": 1893,
      "selves": 1894,
      "ilar": 1895,
      "Ġhalf": 1896,
      "ederal": 1897,
      "Ġavailable": 1898,
      "ĠX": 1899,
      "Ġprob": 1900,
      "Ġeveryone": 1901,
      "Ġ2016": 1902,
      "Ġsomeone": 1903,
      "read": 1904,
      "Ġtrad": 1905,
      "back": 1906,
      "An": 1907,
      "gest": 1908,
      "iam": 1909,
      "ults": 1910,
      "Ġnational": 1911,
      "ĠHouse": 1912,
      "osp": 1913,
      "Ġelse": 1914,
      "denly": 1915,
      "ĠDemocr": 1916,
      "leg": 1917,
      "Ġ14": 1918,
      "dle": 1919,
      "port": 1920,
      "Ġindust": 1921,
      "Ġcompet": 1922,
      "Ġflow": 1923,
      "hers": 1924,
      "par": 1925,
      "Ġsingle": 1926,
      "ai": 1927,
      "itional": 1928,
      "Ġimpro": 1929,
      "Ġadded": 1930,
      "Ġemploy": 1931,
      "Ġrepres": 1932,
      "ograp": 1933,
      "Ġthin": 1934,
      "Ġ;": 1935,
      "Ġtaken": 1936,
      "Ġmommy": 1937,
      "vices": 1938,
      "Ġrul": 1939,
      "Ġ2015": 1940,
      "Ġcomplete": 1941,
      "Ġbar": 1942,
      "ery": 1943,
      "Ġfle": 1944,
      "Ġlost": 1945,
      "Ġcolle": 1946,
      "not": 1947,
      "ĠAust": 1948,
      "ĠNorth": 1949,
      "Ġclear": 1950,
      "Ġbreak": 1951,
      "Ġi": 1952,
      "Ġcat": 1953,
      "Ġcand": 1954,
      "Ġfoc": 1955,
      "ĠFrom": 1956,
      "iny": 1957,
      "Ġcoun": 1958,
      "ĠEx": 1959,
      "Ġfield": 1960,
      "joy": 1961,
      "Ġ198": 1962,
      "bit": 1963,
      "Ġfoot": 1964,
      "Ġissue": 1965,
      "Ġdescrib": 1966,
      "ĠCanad": 1967,
      "roud": 1968,
      "ĠWorld": 1969,
      "uge": 1970,
      "lease": 1971,
      "erence": 1972,
      "Ġheld": 1973,
      "Ġrunning": 1974,
      "Ġjoin": 1975,
      "Ġbring": 1976,
      "Ġpubl": 1977,
      "Ġboo": 1978,
      "Ġsal": 1979,
      "Ġtaking": 1980,
      "ĠThen": 1981,
      "ĠDo": 1982,
      "Ġprevious": 1983,
      "Ġlearned": 1984,
      "Ġdoll": 1985,
      "ĠPol": 1986,
      "Ġtot": 1987,
      "Ġreleased": 1988,
      "ails": 1989,
      "ability": 1990,
      "Ġsaying": 1991,
      "Ġago": 1992,
      "aces": 1993,
      "Ġvict": 1994,
      "Ġexperience": 1995,
      "pping": 1996,
      "ĠWar": 1997,
      "Ġneeded": 1998,
      "where": 1999,
      "Ġer": 2000,
      "Ġsorry": 2001,
      "Ġwrote": 2002,
      "There": 2003,
      "'ve": 2004,
      "Ġaccess": 2005,
      "ĠMan": 2006,
      "ĠObama": 2007,
      "ĠSen": 2008,
      "Ġcompan": 2009,
      "Ġindivid": 2010,
      "Ġstar": 2011,
      "Ġmilitary": 2012,
      "Ġwait": 2013,
      "Ġdidnt": 2014,
      "Ġcomb": 2015,
      "empt": 2016,
      "ler": 2017,
      "Ġpict": 2018,
      ".,": 2019,
      "Ġbeaut": 2020,
      "ele": 2021,
      "aced": 2022,
      "So": 2023,
      "Ġwhite": 2024,
      "On": 2025,
      "icult": 2026,
      "hy": 2027,
      "ĠWith": 2028,
      "Ġ2014": 2029,
      "Ġeverything": 2030,
      "Ġcou": 2031,
      "AT": 2032,
      "30": 2033,
      "Ġproud": 2034,
      "Ġmind": 2035,
      "Ġfast": 2036,
      "ging": 2037,
      "Ġclos": 2038,
      "Ġfeat": 2039,
      "Ġkey": 2040,
      "Ġrecent": 2041,
      "ustom": 2042,
      "Ġep": 2043,
      "ilt": 2044,
      "Ġsqu": 2045,
      "aid": 2046,
      "opped": 2047,
      "minist": 2048,
      "ĠAf": 2049,
      "Ġnothing": 2050,
      "ĠJan": 2051,
      "Ġtreat": 2052,
      "Ġanal": 2053,
      "Ġentire": 2054,
      "That": 2055,
      "Ġproper": 2056,
      "Ġaut": 2057,
      "Ġsum": 2058,
      "ĠHowever": 2059,
      "Ġrather": 2060,
      "Ġpiec": 2061,
      "rug": 2062,
      "allen": 2063,
      "Ġfront": 2064,
      "Ġthird": 2065,
      "Ġphot": 2066,
      "go": 2067,
      "Ġfavor": 2068,
      "For": 2069,
      "of": 2070,
      "Ġcourt": 2071,
      "Ġstore": 2072,
      "Ġlate": 2073,
      "Ġris": 2074,
      "Ġ#": 2075,
      "Ġlisten": 2076,
      "Ġdeep": 2077,
      "off": 2078,
      "Ġtoy": 2079,
      "Ġbill": 2080,
      "attle": 2081,
      "Ġtra": 2082,
      "Ġplayer": 2083,
      "yn": 2084,
      "Ġdiscuss": 2085,
      "Ġang": 2086,
      "ĠEm": 2087,
      "ĠGe": 2088,
      "Ġhowever": 2089,
      "Ġbody": 2090,
      "Ġmult": 2091,
      "Ġhit": 2092,
      "ĠSec": 2093,
      "Ġstudy": 2094,
      "ĠDe": 2095,
      "Ġcult": 2096,
      "olution": 2097,
      "ourn": 2098,
      "Ġnec": 2099,
      "Ġthreat": 2100,
      "Ġenc": 2101,
      "Ġjump": 2102,
      "ences": 2103,
      "ĠTo": 2104,
      "sw": 2105,
      "Ġenjoy": 2106,
      "ows": 2107,
      "Ġhands": 2108,
      "Ġdam": 2109,
      "ĠCal": 2110,
      "ule": 2111,
      "ole": 2112,
      "Ġsimilar": 2113,
      "arget": 2114,
      "ĠDec": 2115,
      "arc": 2116,
      "Ġdue": 2117,
      "Ġfurther": 2118,
      "Ġgun": 2119,
      "Ġquickly": 2120,
      "15": 2121,
      "'ll": 2122,
      "Ġconn": 2123,
      "ĠGu": 2124,
      "ĠNational": 2125,
      "ring": 2126,
      "Ġfig": 2127,
      "asing": 2128,
      "Ġcharacter": 2129,
      "ĠSouth": 2130,
      "book": 2131,
      "ĠEd": 2132,
      "ana": 2133,
      "Ġconcern": 2134,
      "ĠCity": 2135,
      "Ġconsider": 2136,
      "rael": 2137,
      "Ġsuggest": 2138,
      "Ġcouldn": 2139,
      "oring": 2140,
      "Ġdest": 2141,
      "play": 2142,
      "Ġsoft": 2143,
      "Ġself": 2144,
      "Ġfinal": 2145,
      "Ġstri": 2146,
      "Ġstates": 2147,
      "ĠGerman": 2148,
      "ĠAmerica": 2149,
      "ĠSu": 2150,
      "itch": 2151,
      "arm": 2152,
      "iful": 2153,
      "Ġwhole": 2154,
      "sy": 2155,
      "Ġwrong": 2156,
      "iting": 2157,
      "Ġmeas": 2158,
      "dy": 2159,
      "Ġpoints": 2160,
      "Ġpolicy": 2161,
      "Ġsuper": 2162,
      "bo": 2163,
      "Ġmass": 2164,
      "Ġworked": 2165,
      "usp": 2166,
      "Ġste": 2167,
      "Ġbuilding": 2168,
      "Ġban": 2169,
      "anger": 2170,
      "aul": 2171,
      "Ġeat": 2172,
      "ĠDep": 2173,
      "Ġeither": 2174,
      "rict": 2175,
      "Ġsignific": 2176,
      "iod": 2177,
      "viron": 2178,
      "Ġsecurity": 2179,
      "Ġclean": 2180,
      "Ġrad": 2181,
      "lier": 2182,
      "Ġexist": 2183,
      "Ġmanag": 2184,
      "iding": 2185,
      "...": 2186,
      "Ġ2013": 2187,
      "irt": 2188,
      "Ġservice": 2189,
      "//": 2190,
      "ran": 2191,
      "nes": 2192,
      "ĠJust": 2193,
      "Ġbegin": 2194,
      "Ġtalk": 2195,
      "ĠDav": 2196,
      "Ġfell": 2197,
      "IN": 2198,
      "ecially": 2199,
      "Ġstep": 2200,
      "lish": 2201,
      "Ġrole": 2202,
      "Ġinfl": 2203,
      "Ġhours": 2204,
      "Ġinit": 2205,
      "Ġhappened": 2206,
      "Ġhope": 2207,
      "itted": 2208,
      "ply": 2209,
      "Ġmatter": 2210,
      "Ġwond": 2211,
      "Ġ25": 2212,
      "ift": 2213,
      "rel": 2214,
      "Ġdecision": 2215,
      "Ġcreate": 2216,
      "Ġresearch": 2217,
      "Ġposition": 2218,
      "Ġpull": 2219,
      "Ġprobably": 2220,
      "Ġesp": 2221,
      "reme": 2222,
      "Ġlab": 2223,
      "head": 2224,
      "sec": 2225,
      "Ġmoment": 2226,
      "Ġanimals": 2227,
      "Ġtrack": 2228,
      "Ġrelations": 2229,
      "Ġ100": 2230,
      "Ġener": 2231,
      "Ġarri": 2232,
      "ivil": 2233,
      "Ġcompl": 2234,
      "Ġtem": 2235,
      "Ġthats": 2236,
      "mb": 2237,
      "Ġdoc": 2238,
      "ounced": 2239,
      "ashington": 2240,
      "Ġcirc": 2241,
      "Ġkept": 2242,
      "over": 2243,
      "esc": 2244,
      "Ġinstead": 2245,
      "ĠWill": 2246,
      "key": 2247,
      "Ġrights": 2248,
      "Ġdevelopment": 2249,
      "ĠDon": 2250,
      "Ġfly": 2251,
      "ify": 2252,
      "Ġbenef": 2253,
      "isc": 2254,
      "ĠAnna": 2255,
      "Ġoffice": 2256,
      "Ġexec": 2257,
      "Ġdifficult": 2258,
      "ĠSept": 2259,
      "overed": 2260,
      "Ġspace": 2261,
      "Ġap": 2262,
      "Ġchallen": 2263,
      "Ġgen": 2264,
      "Ġversion": 2265,
      "eed": 2266,
      "ades": 2267,
      "Ġ2012": 2268,
      "ĠOct": 2269,
      "Ġrelease": 2270,
      ".)": 2271,
      "ham": 2272,
      "Ġ197": 2273,
      "Ġshows": 2274,
      "Ġsat": 2275,
      "Ġabove": 2276,
      "Ġtarget": 2277,
      "ĠMy": 2278,
      "uation": 2279,
      "Ġimm": 2280,
      "ser": 2281,
      "umb": 2282,
      "Ġrepresent": 2283,
      "Ġheav": 2284,
      "Ġcommon": 2285,
      "Ġthemselves": 2286,
      "Ġsold": 2287,
      "ww": 2288,
      "Ġitself": 2289,
      "ĠIsrael": 2290,
      "Ġlonger": 2291,
      "inton": 2292,
      "ON": 2293,
      "16": 2294,
      "Ġslow": 2295,
      "Ġopt": 2296,
      "ogn": 2297,
      "Ġbeautiful": 2298,
      "Ġshowed": 2299,
      "amer": 2300,
      "Ġhigher": 2301,
      "lement": 2302,
      "Ġissues": 2303,
      "Ġcop": 2304,
      "ĠGo": 2305,
      "Ġgroups": 2306,
      "ĠAug": 2307,
      "Ġdoesnt": 2308,
      "Ġleav": 2309,
      "Ġinclude": 2310,
      "ĠInst": 2311,
      "ressed": 2312,
      "Ġsusp": 2313,
      "Ġdou": 2314,
      "itting": 2315,
      "ival": 2316,
      "Ġdoor": 2317,
      "Ġtrue": 2318,
      "Ġwords": 2319,
      "Ġaction": 2320,
      "RE": 2321,
      "Ġstudents": 2322,
      "Ġprovide": 2323,
      "Ġsignificant": 2324,
      "uted": 2325,
      "yle": 2326,
      "ibility": 2327,
      "Ġleaders": 2328,
      "Tom": 2329,
      "ĠApp": 2330,
      "arents": 2331,
      "Ġreceived": 2332,
      "hern": 2333,
      "Ġgeneral": 2334,
      "vironment": 2335,
      "ĠAss": 2336,
      "14": 2337,
      "Ġdi": 2338,
      "Ġwoman": 2339,
      "ĠAb": 2340,
      "Ġperiod": 2341,
      "rought": 2342,
      "ĠWashington": 2343,
      "13": 2344,
      "Ġdom": 2345,
      "IS": 2346,
      "Ġneg": 2347,
      "ĠNow": 2348,
      "ĠMed": 2349,
      "Ġmot": 2350,
      "ĠPart": 2351,
      "Ġopened": 2352,
      "ĠJune": 2353,
      "ises": 2354,
      "ĠWest": 2355,
      "Ġprofess": 2356,
      "Ġcustom": 2357,
      "ĠIntern": 2358,
      "Ġmother": 2359,
      "Ġled": 2360,
      "Ġfederal": 2361,
      "Ġbuy": 2362,
      "Ġtit": 2363,
      "ray": 2364,
      "Ġseems": 2365,
      "eng": 2366,
      "Ġcompanies": 2367,
      "Ġleave": 2368,
      "://": 2369,
      "jects": 2370,
      "Ġdeter": 2371,
      "uary": 2372,
      "Ġweeks": 2373,
      "Ġbear": 2374,
      "arden": 2375,
      "ĠMarch": 2376,
      "No": 2377,
      "Ġdiv": 2378,
      "Ġevidence": 2379,
      "Ġcontinue": 2380,
      "itten": 2381,
      "BC": 2382,
      "Ġturned": 2383,
      "Ġhear": 2384,
      "Ġsuff": 2385,
      "Ġcry": 2386,
      "Ġliving": 2387,
      "Ġ50": 2388,
      "iday": 2389,
      "duct": 2390,
      "epend": 2391,
      "Ġofficials": 2392,
      "Ad": 2393,
      "Ġenergy": 2394,
      "Ġtown": 2395,
      "reg": 2396,
      "Ġeyes": 2397,
      "oor": 2398,
      "Ġinterview": 2399,
      "Ġespecially": 2400,
      "gle": 2401,
      "Ġdraw": 2402,
      "angu": 2403,
      "Ġhom": 2404,
      "Ġpack": 2405,
      "obal": 2406,
      "ili": 2407,
      "Ġcountries": 2408,
      "ask": 2409,
      "Ġlooks": 2410,
      "iced": 2411,
      "pril": 2412,
      "ault": 2413,
      "lim": 2414,
      "urch": 2415,
      "fect": 2416,
      "Ġforward": 2417,
      "Ġrock": 2418,
      "Ġport": 2419,
      "AN": 2420,
      "Ġrespons": 2421,
      "ĠHar": 2422,
      "Ġinj": 2423,
      "ccording": 2424,
      "Ġneeds": 2425,
      "val": 2426,
      "Ġlived": 2427,
      "Al": 2428,
      "Ġadminist": 2429,
      "Ġstatement": 2430,
      "like": 2431,
      "ĠMus": 2432,
      "Ġlat": 2433,
      "Ġyoure": 2434,
      "Ġroad": 2435,
      "arent": 2436,
      "ĠJuly": 2437,
      "hel": 2438,
      "Ch": 2439,
      "aug": 2440,
      "Ġsimply": 2441,
      "cle": 2442,
      "ournal": 2443,
      "ĠThese": 2444,
      "ese": 2445,
      "eter": 2446,
      "Ġ24": 2447,
      "ĠAustral": 2448,
      "Ġspecific": 2449,
      "Ġhot": 2450,
      "lam": 2451,
      "Ġreview": 2452,
      "Ġaccount": 2453,
      "medi": 2454,
      "uddenly": 2455,
      "Ġbelow": 2456,
      "Ġshoot": 2457,
      "ĠDr": 2458,
      "17": 2459,
      "Ġlots": 2460,
      "Ġfinanc": 2461,
      "\".": 2462,
      "ĠMich": 2463,
      "Ġoriginal": 2464,
      "Ġphys": 2465,
      "Ġjud": 2466,
      "Ġmov": 2467,
      "omm": 2468,
      "Ġabs": 2469,
      "ĠSer": 2470,
      "Ġpopular": 2471,
      "Ġsky": 2472,
      "Ġfair": 2473,
      "After": 2474,
      "ĠSm": 2475,
      "ought": 2476,
      "Ġworks": 2477,
      "Ġfeeling": 2478,
      "Ġparents": 2479,
      "ĠCo": 2480,
      "Ġaccept": 2481,
      "Ġquite": 2482,
      "inally": 2483,
      "Ġtotal": 2484,
      "Ġdecl": 2485,
      "istic": 2486,
      "ĠNot": 2487,
      "Ġdrug": 2488,
      "mber": 2489,
      "Ġsite": 2490,
      "ĠPar": 2491,
      "ude": 2492,
      "Ġattempt": 2493,
      "apan": 2494,
      "pro": 2495,
      "ĠClinton": 2496,
      "Ġcontinued": 2497,
      "Ġrace": 2498,
      "Ġhugged": 2499,
      "ique": 2500,
      "ĠApril": 2501,
      "Ġpaper": 2502,
      "Ġhost": 2503,
      "eg": 2504,
      "Ġelection": 2505,
      "Ġpick": 2506,
      "Ġgoal": 2507,
      "ĠEn": 2508,
      "Ġserious": 2509,
      "Ġindustry": 2510,
      "Ġ2017": 2511,
      "ches": 2512,
      "Ġreached": 2513,
      "Ġcant": 2514,
      "bor": 2515,
      "body": 2516,
      "illed": 2517,
      "Ġvalue": 2518,
      "hod": 2519,
      "Ġbrought": 2520,
      "Ġvol": 2521,
      "Ġhelped": 2522,
      "ĠSeptember": 2523,
      "leep": 2524,
      "ularly": 2525,
      "Ġchanges": 2526,
      "She": 2527,
      "Ġrelig": 2528,
      "idge": 2529,
      "Ġansw": 2530,
      "Ġanyone": 2531,
      "Ġlegal": 2532,
      "Ġminutes": 2533,
      "yr": 2534,
      "Ġcal": 2535,
      "ĠBritish": 2536,
      "Ġwants": 2537,
      "time": 2538,
      "____": 2539,
      "Ġdro": 2540,
      "Ġreve": 2541,
      "**": 2542,
      "Ġ196": 2543,
      "Ġrev": 2544,
      "Ġsense": 2545,
      "ovember": 2546,
      "ĠBar": 2547,
      "cy": 2548,
      "18": 2549,
      "Ġ|": 2550,
      "Ġexpect": 2551,
      "Ġcandid": 2552,
      "acebook": 2553,
      "Ġcred": 2554,
      "Ġcreated": 2555,
      "ĠGod": 2556,
      "Ġprim": 2557,
      "Ġage": 2558,
      "AS": 2559,
      "Yes": 2560,
      "fer": 2561,
      "ills": 2562,
      "Ġeduc": 2563,
      "Ġtakes": 2564,
      "lus": 2565,
      "ĠPe": 2566,
      "Ġbed": 2567,
      "Ġaud": 2568,
      "At": 2569,
      "ded": 2570,
      "ients": 2571,
      "Ġask": 2572,
      "Ġbillion": 2573,
      "ender": 2574,
      "iber": 2575,
      "str": 2576,
      "!!": 2577,
      "Ġmorning": 2578,
      "Ġready": 2579,
      "Ġsell": 2580,
      "ĠWhite": 2581,
      "arter": 2582,
      "Ġfix": 2583,
      "Ġwat": 2584,
      "Ġhurt": 2585,
      "Ġreach": 2586,
      "Ġeconomic": 2587,
      "Ġdead": 2588,
      "AR": 2589,
      "Ġpred": 2590,
      "ĠAugust": 2591,
      "Ġ2011": 2592,
      "Ġvoice": 2593,
      "iter": 2594,
      "Ġcannot": 2595,
      "Ġrecently": 2596,
      "ĠSome": 2597,
      "ĠCong": 2598,
      "ĠJanuary": 2599,
      "reet": 2600,
      "Ġkids": 2601,
      "Ġadm": 2602,
      "asons": 2603,
      "Ġvisit": 2604,
      "rave": 2605,
      "Ġestab": 2606,
      "more": 2607,
      "Ġopportun": 2608,
      "Ġanti": 2609,
      "Ġsil": 2610,
      "lt": 2611,
      "Ġvote": 2612,
      "kn": 2613,
      "uel": 2614,
      "Ġcomment": 2615,
      "idents": 2616,
      "Ġforce": 2617,
      "ĠChina": 2618,
      "ĠWhile": 2619,
      "Ġbrother": 2620,
      "Mom": 2621,
      "ips": 2622,
      "Ġround": 2623,
      "ĠNovember": 2624,
      "ĠGeor": 2625,
      "Ġfocus": 2626,
      "atur": 2627,
      "Ġord": 2628,
      "onse": 2629,
      "Ġcomput": 2630,
      "Ġearlier": 2631,
      "Ġannounced": 2632,
      "aterial": 2633,
      "Ġintro": 2634,
      "ires": 2635,
      "ĠJapan": 2636,
      "Ġclub": 2637,
      "Ġcast": 2638,
      "kay": 2639,
      "Ġcollect": 2640,
      "kes": 2641,
      "su": 2642,
      "Ġconsum": 2643,
      "ĠOctober": 2644,
      "Ġshot": 2645,
      "Ġ2010": 2646,
      "irm": 2647,
      "Ġmatch": 2648,
      "Ġwebs": 2649,
      "Ġneigh": 2650,
      "ateg": 2651,
      "Ġden": 2652,
      "Ġbuilt": 2653,
      "oid": 2654,
      "ilities": 2655,
      "Ġcapt": 2656,
      "Ġonline": 2657,
      "aur": 2658,
      "Ġhon": 2659,
      "Ġpersonal": 2660,
      "How": 2661,
      "Ġpotential": 2662,
      "Ġresults": 2663,
      "itution": 2664,
      "bum": 2665,
      "Ġwide": 2666,
      "ze": 2667,
      "Ġproblems": 2668,
      "ext": 2669,
      "Ġbase": 2670,
      "Ġways": 2671,
      "ĠSw": 2672,
      "Ġscient": 2673,
      "ĠRed": 2674,
      "Ġservices": 2675,
      ".@": 2676,
      "atives": 2677,
      "ias": 2678,
      "room": 2679,
      "ĠCount": 2680,
      "Ġgarden": 2681,
      "Ġkilled": 2682,
      "Ġcontrib": 2683,
      "Ġfunction": 2684,
      "ĠNews": 2685,
      "Ġpublished": 2686,
      "ĠRes": 2687,
      "Ġeasy": 2688,
      "hood": 2689,
      "eared": 2690,
      "Ġenvironment": 2691,
      "Ġfather": 2692,
      "Ġloud": 2693,
      "ij": 2694,
      "Ġincrease": 2695,
      "oogle": 2696,
      "Ġsometimes": 2697,
      "Ġepis": 2698,
      "Ġlangu": 2699,
      "Ġheart": 2700,
      "Ġdark": 2701,
      "Ġtouch": 2702,
      "Ġbroad": 2703,
      "Ġnod": 2704,
      "Ġswe": 2705,
      "Ġquestions": 2706,
      "ruction": 2707,
      "Ġapplic": 2708,
      "Ġinvolved": 2709,
      "Ġfollowed": 2710,
      "Ġcoll": 2711,
      "Ġexpected": 2712,
      "Ġeffect": 2713,
      "fully": 2714,
      "Ġincluded": 2715,
      "Ġperfect": 2716,
      "Ġbecom": 2717,
      "Ġtele": 2718,
      "Ġcell": 2719,
      "Ġinflu": 2720,
      "cil": 2721,
      "ĠDepartment": 2722,
      "Ġstaff": 2723,
      "Ġsecret": 2724,
      "Ġtable": 2725,
      "ĠFeb": 2726,
      "Ġrate": 2727,
      "Ġcivil": 2728,
      "isl": 2729,
      "ĠTwitter": 2730,
      "ĠPer": 2731,
      "load": 2732,
      "ĠBy": 2733,
      "ken": 2734,
      "unt": 2735,
      "Ġhuge": 2736,
      "Ġhes": 2737,
      "Ġteams": 2738,
      "Ġ@.@": 2739,
      "Ġcool": 2740,
      "ples": 2741,
      "ĠSyri": 2742,
      "Ġblue": 2743,
      "iles": 2744,
      "Ġnecess": 2745,
      "Ġcontent": 2746,
      "Ġfinally": 2747,
      "Ġrelationship": 2748,
      "Ġspot": 2749,
      "Ġspent": 2750,
      "Ġamount": 2751,
      "ĠMia": 2752,
      "Ġprotect": 2753,
      "Ġ40": 2754,
      "come": 2755,
      "Ġwalked": 2756,
      "ael": 2757,
      "ĠRepublican": 2758,
      "haps": 2759,
      "ĠCour": 2760,
      "Ġgoes": 2761,
      "Ġstopped": 2762,
      "Ġaverage": 2763,
      "ocks": 2764,
      "ky": 2765,
      "action": 2766,
      "Ġarticle": 2767,
      "ES": 2768,
      "ĠSte": 2769,
      "Ġimmedi": 2770,
      "Ġangry": 2771,
      "Ġpers": 2772,
      "Ġcode": 2773,
      "25": 2774,
      "Ġinternational": 2775,
      "ees": 2776,
      "iple": 2777,
      "Ġamaz": 2778,
      "ners": 2779,
      "Ġaddress": 2780,
      "set": 2781,
      "Ġtechnology": 2782,
      "Ġnearly": 2783,
      "Ġspeak": 2784,
      "Ġprivate": 2785,
      "atural": 2786,
      "Ġwalk": 2787,
      "ĠCongress": 2788,
      "ellig": 2789,
      "Ġmodel": 2790,
      "Ġcareer": 2791,
      "aught": 2792,
      "ites": 2793,
      "Ġnorm": 2794,
      "ĠBob": 2795,
      "ĠAct": 2796,
      "Ġproduct": 2797,
      "Ġlog": 2798,
      "Ġbooks": 2799,
      "mon": 2800,
      "ĠPal": 2801,
      "Ġhor": 2802,
      "iment": 2803,
      "Ġphone": 2804,
      "Ġrecogn": 2805,
      "Ġareas": 2806,
      "hem": 2807,
      "Ġtowards": 2808,
      "ĠDecember": 2809,
      "Ġsen": 2810,
      "iant": 2811,
      "ittee": 2812,
      "Ġcy": 2813,
      "ĠKing": 2814,
      "Ġgrand": 2815,
      "ops": 2816,
      "Ġexact": 2817,
      "agon": 2818,
      "Ġfem": 2819,
      "ression": 2820,
      "Ġweap": 2821,
      "utions": 2822,
      "Ġlack": 2823,
      "Ph": 2824,
      "Ġmaterial": 2825,
      "ript": 2826,
      "Ġprice": 2827,
      "Ġoppos": 2828,
      "ĠTV": 2829,
      "Ġbott": 2830,
      "ological": 2831,
      "ĠChar": 2832,
      "Ġresponse": 2833,
      "Ġet": 2834,
      "Ġur": 2835,
      "Ġ{": 2836,
      "Ġupd": 2837,
      "Ġadvent": 2838,
      "Ġmember": 2839,
      "ĠEl": 2840,
      "put": 2841,
      "Ġtool": 2842,
      "==": 2843,
      "apt": 2844,
      "Ġdig": 2845,
      "Ġlaug": 2846,
      "Ġlaughed": 2847,
      "Ġassoci": 2848,
      "Ġworth": 2849,
      "estern": 2850,
      "icro": 2851,
      "Ġcover": 2852,
      "Ġmoved": 2853,
      "zy": 2854,
      "Ġterror": 2855,
      "Ġtravel": 2856,
      "itiz": 2857,
      "ground": 2858,
      "ĠAfric": 2859,
      "Ġ21": 2860,
      "Ġexplore": 2861,
      "Ġdirector": 2862,
      "Ġalbum": 2863,
      "Ġarrest": 2864,
      "Ġemer": 2865,
      "Ġengine": 2866,
      "Ġfavorite": 2867,
      "Ġoil": 2868,
      ",@": 2869,
      "ume": 2870,
      "Ġgone": 2871,
      "Ġ@,@": 2872,
      "Ġdanger": 2873,
      "omb": 2874,
      "Ġfans": 2875,
      "ĠAng": 2876,
      "Ġusers": 2877,
      "pe": 2878,
      "Ġ22": 2879,
      "Ġcases": 2880,
      "ope": 2881,
      "Ġreports": 2882,
      "ĠCalif": 2883,
      "ishing": 2884,
      "Ġmeeting": 2885,
      "pper": 2886,
      "Ġperformance": 2887,
      "ety": 2888,
      "ĠAmericans": 2889,
      "Ġproduction": 2890,
      "Ġpicked": 2891,
      "Ġterms": 2892,
      "utive": 2893,
      "Ġ...": 2894,
      "ĠMond": 2895,
      "ino": 2896,
      "Ġconv": 2897,
      "Ġwall": 2898,
      "ructure": 2899,
      "izing": 2900,
      "Ġcross": 2901,
      "icated": 2902,
      "duced": 2903,
      "Ġcapital": 2904,
      "Ġallowed": 2905,
      "Ġsepar": 2906,
      "Ġthanked": 2907,
      "ĠSan": 2908,
      "Ġrespond": 2909,
      "Ġability": 2910,
      "Ġmach": 2911,
      "eth": 2912,
      "ceed": 2913,
      "Ġ+": 2914,
      "ĠOff": 2915,
      "lin": 2916,
      "Ġcontr": 2917,
      "Ġparticip": 2918,
      "ĠPaul": 2919,
      "Ġill": 2920,
      "Ġfinancial": 2921,
      "oto": 2922,
      "ĠTe": 2923,
      "Ġtype": 2924,
      "Ġalone": 2925,
      "Ġwhose": 2926,
      "Ġforces": 2927,
      "Ġregard": 2928,
      "Ġevents": 2929,
      "Ġmis": 2930,
      "Ġsett": 2931,
      "alt": 2932,
      "Ġglobal": 2933,
      "Ġsource": 2934,
      "ĠDavid": 2935,
      "ĠFacebook": 2936,
      "hic": 2937,
      "imate": 2938,
      "Ġfear": 2939,
      "ĠEuropean": 2940,
      "cer": 2941,
      "Ġgreen": 2942,
      "Ġlives": 2943,
      "iction": 2944,
      "ey": 2945,
      "Ġsend": 2946,
      "Ġconside": 2947,
      "Ġconsidered": 2948,
      "Ġdesp": 2949,
      "ĠHill": 2950,
      "Ġblock": 2951,
      "Ġdefin": 2952,
      "Ġgrab": 2953,
      "Ġnumbers": 2954,
      "Ġloss": 2955,
      "Ġband": 2956,
      "sequ": 2957,
      "Ġwalking": 2958,
      "roll": 2959,
      "Ġplans": 2960,
      "40": 2961,
      "Im": 2962,
      "cast": 2963,
      "Ġrisk": 2964,
      "Ġworkers": 2965,
      "ĠAg": 2966,
      "Ġforeign": 2967,
      "ĠFriday": 2968,
      "uments": 2969,
      "chie": 2970,
      "Ġcars": 2971,
      "Ġchance": 2972,
      "Ġstories": 2973,
      "ned": 2974,
      "Ġindepend": 2975,
      "Ġsituation": 2976,
      "Ġoffer": 2977,
      "Ġimag": 2978,
      "Ġ2009": 2979,
      "ĠWed": 2980,
      "Ġimprove": 2981,
      "Ġmethod": 2982,
      "Ġboard": 2983,
      "ĠTues": 2984,
      "ĠLuc": 2985,
      "ĠGl": 2986,
      "Ġfre": 2987,
      "Ġfish": 2988,
      "ruary": 2989,
      "rog": 2990,
      "Ġsearch": 2991,
      "Ġvarious": 2992,
      "Ġapproach": 2993,
      "rect": 2994,
      "Ġones": 2995,
      "Ġ23": 2996,
      "Ġreveal": 2997,
      "atory": 2998,
      "Ġgets": 2999,
      "ĠEurope": 3000,
      "Ġcarry": 3001,
      "ĠSund": 3002,
      "Ġlin": 3003,
      "ĠCor": 3004,
      "Ġsize": 3005,
      "Ġrequire": 3006,
      "ales": 3007,
      "Ġdescribed": 3008,
      "][": 3009,
      "ĠSch": 3010,
      "Ġyes": 3011,
      "Ġforest": 3012,
      "rench": 3013,
      "aby": 3014,
      "Ġbehav": 3015,
      "Ġexam": 3016,
      "Ġroll": 3017,
      "'d": 3018,
      "ession": 3019,
      "Ġpopulation": 3020,
      "Ġisnt": 3021,
      "Ġprevent": 3022,
      "Ġspok": 3023,
      "oes": 3024,
      "OR": 3025,
      "Ġtrade": 3026,
      "Ġdoct": 3027,
      "ett": 3028,
      "Ġimpact": 3029,
      "Ġ2008": 3030,
      "Ġpage": 3031,
      "vertis": 3032,
      "Ġsimple": 3033,
      "Ġlower": 3034,
      "ĠCaliforn": 3035,
      "Ġcurrently": 3036,
      "rugg": 3037,
      "Ġwritten": 3038,
      "rain": 3039,
      "Ġvia": 3040,
      "Ġcolor": 3041,
      "light": 3042,
      "Ġcard": 3043,
      "ĠPat": 3044,
      "order": 3045,
      "Ġdisapp": 3046,
      "ĠBlack": 3047,
      "ĠIslam": 3048,
      "fort": 3049,
      "Ġnoise": 3050,
      "ĠMonday": 3051,
      "Ġson": 3052,
      "ĠPark": 3053,
      "EN": 3054,
      "Ġtalking": 3055,
      "face": 3056,
      "Ġcouple": 3057,
      "Ġnation": 3058,
      "ondon": 3059,
      "ĠTuesday": 3060,
      "oph": 3061,
      "Ġcheck": 3062,
      "alk": 3063,
      "Ġcause": 3064,
      "Ġmix": 3065,
      "ĠGoogle": 3066,
      "ĠQu": 3067,
      "ĠFebruary": 3068,
      "Ġprep": 3069,
      "Ġwonder": 3070,
      "ĠStreet": 3071,
      "aily": 3072,
      "zz": 3073,
      "ĠCourt": 3074,
      "olly": 3075,
      "Ġcontract": 3076,
      "oose": 3077,
      "Ġcentury": 3078,
      "Ġpus": 3079,
      "Ġflew": 3080,
      "Ġobject": 3081,
      "ĠMark": 3082,
      "Ġmodern": 3083,
      "Ġcritic": 3084,
      "Ġlay": 3085,
      "Ġeight": 3086,
      "Ġrac": 3087,
      "uses": 3088,
      "Ġattention": 3089,
      "Ġspeed": 3090,
      "Ġpen": 3091,
      "iers": 3092,
      "Ġcloser": 3093,
      "Ġbur": 3094,
      "Ġlegisl": 3095,
      "Ġsleep": 3096,
      "anced": 3097,
      "omp": 3098,
      "Ġtheres": 3099,
      "ĠUK": 3100,
      "Ġinsp": 3101,
      "Ġpath": 3102,
      "arily": 3103,
      "Ġvictim": 3104,
      "het": 3105,
      "\",": 3106,
      "aker": 3107,
      "Ġaddition": 3108,
      "Ġeconomy": 3109,
      "Ġrain": 3110,
      "Ġfeatures": 3111,
      "Ġthous": 3112,
      "Ġrout": 3113,
      "imately": 3114,
      "vision": 3115,
      "Ġprogress": 3116,
      "Ġparticular": 3117,
      "aging": 3118,
      "ĠRo": 3119,
      "Ġbrave": 3120,
      "ĠBo": 3121,
      "Ġwebsite": 3122,
      "Ġinteresting": 3123,
      "To": 3124,
      "irth": 3125,
      "ĠIve": 3126,
      "Ġdemand": 3127,
      "Ġice": 3128,
      "Ġalthough": 3129,
      "anch": 3130,
      "ĠCont": 3131,
      "ĠRom": 3132,
      "Ġmention": 3133,
      "based": 3134,
      "hest": 3135,
      "Ġstrugg": 3136,
      "Ġrules": 3137,
      "arth": 3138,
      "force": 3139,
      "ĠWednes": 3140,
      "Ġpiece": 3141,
      "Ġpicture": 3142,
      "atter": 3143,
      "ĠKore": 3144,
      "Ġpoor": 3145,
      "Ġremember": 3146,
      "ĠII": 3147,
      "Ġreb": 3148,
      "Let": 3149,
      "Ġseven": 3150,
      "Ġsort": 3151,
      "Ġtraining": 3152,
      "ibly": 3153,
      "asc": 3154,
      "Ġlaugh": 3155,
      "ams": 3156,
      "ttp": 3157,
      "Ġemail": 3158,
      "alled": 3159,
      "ĠCounty": 3160,
      "uals": 3161,
      "Ġpoll": 3162,
      "istan": 3163,
      "ille": 3164,
      "lear": 3165,
      "Ġscreen": 3166,
      "Ġgrowth": 3167,
      "ĠThurs": 3168,
      "Ġachie": 3169,
      "Ġgas": 3170,
      "Ġwriting": 3171,
      "Ġmovement": 3172,
      "down": 3173,
      "ĠLondon": 3174,
      "Ġdoesn": 3175,
      "hold": 3176,
      "ospital": 3177,
      "Ġindividual": 3178,
      "Ġfloor": 3179,
      "Ġanswer": 3180,
      "ication": 3181,
      "ĠEast": 3182,
      "lex": 3183,
      "Ġyell": 3184,
      "Ġten": 3185,
      "Ġmiddle": 3186,
      "undred": 3187,
      "ened": 3188,
      "Ġagreed": 3189,
      "ĠCalifornia": 3190,
      "airs": 3191,
      "ek": 3192,
      "roy": 3193,
      "orters": 3194,
      "Ġruns": 3195,
      "Ġnetwork": 3196,
      "Ġextra": 3197,
      "Ġbud": 3198,
      "ĠGener": 3199,
      "Ġcele": 3200,
      "Sh": 3201,
      "ĠTimes": 3202,
      "Ġleader": 3203,
      "ements": 3204,
      "ĠWilliam": 3205,
      "Ġ27": 3206,
      "Ġinn": 3207,
      "Ġcatch": 3208,
      "Ġlanguage": 3209,
      "ĠWednesday": 3210,
      "Ġwrite": 3211,
      "Ben": 3212,
      "Ġeffective": 3213,
      "ĠRussia": 3214,
      "ecause": 3215,
      "With": 3216,
      "ĠSara": 3217,
      "Ġconduct": 3218,
      "pts": 3219,
      "Ġdemon": 3220,
      "ĠDan": 3221,
      "Ġhous": 3222,
      "aries": 3223,
      "Ġund": 3224,
      "ĠCanada": 3225,
      "Don": 3226,
      "ĠIS": 3227,
      "Ġtext": 3228,
      "Ġrange": 3229,
      "ĠPost": 3230,
      "ĠMor": 3231,
      "Ġess": 3232,
      ".'": 3233,
      "99": 3234,
      "While": 3235,
      "Ġmovie": 3236,
      "Ġparticularly": 3237,
      "ification": 3238,
      "Ġadministration": 3239,
      "Ġimage": 3240,
      "Ġliber": 3241,
      "ĠSunday": 3242,
      "Ġbi": 3243,
      "AL": 3244,
      "Ġnoticed": 3245,
      "Ġdied": 3246,
      "Ġsurv": 3247,
      "Ġchanged": 3248,
      "ĠThursday": 3249,
      "Ġ28": 3250,
      "Ġ26": 3251,
      "Ġens": 3252,
      "Ġeventually": 3253,
      "Ġforg": 3254,
      "--------": 3255,
      "ocked": 3256,
      "enced": 3257,
      "Ġdisp": 3258,
      "Ġgiving": 3259,
      "Ġhistor": 3260,
      "ends": 3261,
      "Ġmedical": 3262,
      "Ġpassed": 3263,
      "Ġrob": 3264,
      "Ġincreasing": 3265,
      "Ġleading": 3266,
      "board": 3267,
      "uk": 3268,
      "Ġcommand": 3269,
      "Ġpractice": 3270,
      "ĠEven": 3271,
      "raq": 3272,
      "Ġsmile": 3273,
      "Ġwatched": 3274,
      "Ġoccur": 3275,
      "Ġwarm": 3276,
      "Ġagre": 3277,
      "Ġdespite": 3278,
      "ĠLet": 3279,
      "AC": 3280,
      "ĠCenter": 3281,
      "Ġcoach": 3282,
      "Ġcitiz": 3283,
      "ford": 3284,
      "ledge": 3285,
      "Ġpan": 3286,
      "Ġsmart": 3287,
      "Ġsystems": 3288,
      "Ġarm": 3289,
      "Ġful": 3290,
      "Ġfinished": 3291,
      "Ġeffort": 3292,
      "Ġprior": 3293,
      "ĠJew": 3294,
      "ĠRussian": 3295,
      "Ġappeared": 3296,
      "imin": 3297,
      "abor": 3298,
      "Ġrequired": 3299,
      "Ġsubject": 3300,
      "Ġteac": 3301,
      "uf": 3302,
      "ĠBro": 3303,
      "ively": 3304,
      "ĠParty": 3305,
      "Ġofficers": 3306,
      "Ġextreme": 3307,
      "Ġesc": 3308,
      "ables": 3309,
      "Ġdin": 3310,
      "Ġlevels": 3311,
      "ĠJames": 3312,
      "Ġtruck": 3313,
      "Ġnatural": 3314,
      "Ġple": 3315,
      "Ġstuff": 3316,
      "Ġexcept": 3317,
      "icks": 3318,
      "astic": 3319,
      "Ġsens": 3320,
      "22": 3321,
      "yond": 3322,
      "Ġremain": 3323,
      "erc": 3324,
      "Ġscience": 3325,
      "Ġprison": 3326,
      "ĠCr": 3327,
      "Ġcompletely": 3328,
      "Ġprovided": 3329,
      "eff": 3330,
      "Ġstage": 3331,
      "ĠSand": 3332,
      "Ġdamage": 3333,
      "Ġthrow": 3334,
      "Ġdocument": 3335,
      "Ġletter": 3336,
      "Ġmajority": 3337,
      "Ġexperi": 3338,
      "Ġepisode": 3339,
      "Ġfootball": 3340,
      "elligence": 3341,
      "Ġbright": 3342,
      "Ġjournal": 3343,
      "Ġstick": 3344,
      "Ġpaid": 3345,
      "Ġsummer": 3346,
      "ha": 3347,
      "Ġalle": 3348,
      "200": 3349,
      "Ġsand": 3350,
      "ari": 3351,
      "ĠFrench": 3352,
      "ban": 3353,
      "Ġblood": 3354,
      "hib": 3355,
      "ED": 3356,
      "Ġdrive": 3357,
      "inese": 3358,
      "Ġcorn": 3359,
      "Ġbiggest": 3360,
      "Ġarrived": 3361,
      "aughter": 3362,
      "field": 3363,
      "Ġheavy": 3364,
      "Ġinvestigation": 3365,
      "ĠSoc": 3366,
      "Ġcharacters": 3367,
      "dom": 3368,
      "ysis": 3369,
      "60": 3370,
      "Its": 3371,
      "Ġmessage": 3372,
      "ĠTex": 3373,
      "mp": 3374,
      "ĠIraq": 3375,
      "inary": 3376,
      "Ġterm": 3377,
      "Ġthroughout": 3378,
      "Ġstarting": 3379,
      "ico": 3380,
      "Ġhair": 3381,
      "Ġplat": 3382,
      "IC": 3383,
      "Ġlatest": 3384,
      "Ġparts": 3385,
      "ampions": 3386,
      "Ġgrowing": 3387,
      ");": 3388,
      "arian": 3389,
      "Ġwav": 3390,
      "igr": 3391,
      "ummy": 3392,
      "Ġattacks": 3393,
      "iring": 3394,
      "nces": 3395,
      "Ġsurve": 3396,
      "amb": 3397,
      "ĠIndian": 3398,
      "isions": 3399,
      "ĠFirst": 3400,
      "ously": 3401,
      "ĠRec": 3402,
      "Ġassist": 3403,
      "Ġdev": 3404,
      "ĠLeague": 3405,
      "ĠSenate": 3406,
      "Ġworry": 3407,
      "ĠSuddenly": 3408,
      "illy": 3409,
      "Ġsexual": 3410,
      "Ġincreased": 3411,
      "Ġwife": 3412,
      "ux": 3413,
      "Ġmaintain": 3414,
      "ĠEnglish": 3415,
      "urd": 3416,
      "Ġbank": 3417,
      "Ġshiny": 3418,
      "ĠMore": 3419,
      "Ġfigure": 3420,
      "Ġign": 3421,
      "Ġmill": 3422,
      "Ġbag": 3423,
      "Ġhundred": 3424,
      "Ġdoub": 3425,
      "Ġcold": 3426,
      "Ġgives": 3427,
      "Ġcelebr": 3428,
      "ĠWell": 3429,
      "Ġrequest": 3430,
      "OS": 3431,
      "Ġregul": 3432,
      "uclear": 3433,
      "Ġsociety": 3434,
      "Ġult": 3435,
      "Ġaw": 3436,
      "Ġtast": 3437,
      "ĠSatur": 3438,
      "Ġpeace": 3439,
      "ĠRich": 3440,
      "sych": 3441,
      "Ġtrou": 3442,
      "ida": 3443,
      "Ġdream": 3444,
      "Ġtheyre": 3445,
      "Ġperm": 3446,
      "Ġplease": 3447,
      "Ġfeet": 3448,
      "Ġwood": 3449,
      "Ġconsist": 3450,
      "Ġopportunity": 3451,
      "ems": 3452,
      "Ġsees": 3453,
      "Ġusually": 3454,
      "Ġclaims": 3455,
      "ension": 3456,
      "ounts": 3457,
      "Ġbal": 3458,
      "Ġregion": 3459,
      "Ġthinking": 3460,
      "ĠIndia": 3461,
      "Ġquality": 3462,
      "Ġ}": 3463,
      "reedom": 3464,
      "ĠSim": 3465,
      "Ġremains": 3466,
      "Ġmoving": 3467,
      "Ġconserv": 3468,
      "ugh": 3469,
      "aming": 3470,
      "ĠNet": 3471,
      "anks": 3472,
      "Ġcontact": 3473,
      "Ġpurp": 3474,
      "ĠCoun": 3475,
      "Ġmist": 3476,
      "ĠMuslim": 3477,
      "ĠDad": 3478,
      "eated": 3479,
      "Ġmeant": 3480,
      "ĠMcC": 3481,
      "Ġjobs": 3482,
      "Ġ>": 3483,
      "Ġ194": 3484,
      "Ġproducts": 3485,
      "Ġbow": 3486,
      "Ġquarter": 3487,
      "Ġeducation": 3488,
      "ĠMichael": 3489,
      "Ġship": 3490,
      "Ġdesigned": 3491,
      "Ġpurch": 3492,
      "Ġnom": 3493,
      "80": 3494,
      "Tr": 3495,
      "ĠSar": 3496,
      "Ġexactly": 3497,
      "Ġdress": 3498,
      "Ġbattle": 3499,
      "Ġseemed": 3500,
      "imum": 3501,
      "Ġtitle": 3502,
      "Ġreading": 3503,
      "Ġscene": 3504,
      "iving": 3505,
      "IT": 3506,
      "oul": 3507,
      "akers": 3508,
      "Ġcamer": 3509,
      "Ġresour": 3510,
      "Ġimmediately": 3511,
      "24": 3512,
      "Ġviolence": 3513,
      "ĠMon": 3514,
      "Ġ60": 3515,
      "Ġtrain": 3516,
      "Ġplant": 3517,
      "Ġcalls": 3518,
      "Ġconvers": 3519,
      "Ġclimate": 3520,
      "ĠStar": 3521,
      "Ġscore": 3522,
      "ĠBill": 3523,
      "men": 3524,
      "ĠChinese": 3525,
      "Ġemb": 3526,
      "Ġspl": 3527,
      "orks": 3528,
      "ĠAir": 3529,
      "Ġstandard": 3530,
      "ĠRober": 3531,
      ".\"\"": 3532,
      "Ġdefense": 3533,
      "Ġcook": 3534,
      "Tim": 3535,
      "iation": 3536,
      "Ġsurprise": 3537,
      "Ġtrust": 3538,
      "Ġredu": 3539,
      "Ġchief": 3540,
      "Ġpowerful": 3541,
      "Ġdetails": 3542,
      "Ġeffects": 3543,
      "US": 3544,
      "Ġselect": 3545,
      "Ġcounter": 3546,
      "Ġcosts": 3547,
      "Ġanymore": 3548,
      "Ġbirth": 3549,
      "Ġdirectly": 3550,
      "using": 3551,
      "Ġpu": 3552,
      "Ġwasn": 3553,
      "ĠTur": 3554,
      "Ġefforts": 3555,
      "Ġnature": 3556,
      "Ġpet": 3557,
      "ago": 3558,
      "Ġadditional": 3559,
      "ĠJoe": 3560,
      "entially": 3561,
      "emy": 3562,
      "Ġobvious": 3563,
      "Ġcomplex": 3564,
      "Ġcenter": 3565,
      "Ġmaybe": 3566,
      "Ġunf": 3567,
      "ila": 3568,
      "Ġment": 3569,
      "Ġearn": 3570,
      "Ġrecomm": 3571,
      "osing": 3572,
      "Ġlif": 3573,
      "ĠInt": 3574,
      "Ġfeed": 3575,
      "Ġnorth": 3576,
      "ĠThats": 3577,
      "Ġokay": 3578,
      "Ġwasnt": 3579,
      "ĠDonald": 3580,
      "ĠPlay": 3581,
      "Ġahead": 3582,
      "AM": 3583,
      "Ġreplied": 3584,
      "Ġfit": 3585,
      "aph": 3586,
      "Ġculture": 3587,
      "Ġincludes": 3588,
      "Ġchoice": 3589,
      "Ġmultiple": 3590,
      "Ġshared": 3591,
      "icious": 3592,
      "Ġlaws": 3593,
      "Ġcomputer": 3594,
      "wood": 3595,
      "Ġrespect": 3596,
      "Ġpressure": 3597,
      "ĠGeorge": 3598,
      "ares": 3599,
      "ĠId": 3600,
      "Ġguy": 3601,
      "ĠSaturday": 3602,
      "Ġspread": 3603,
      "Can": 3604,
      "Ġcertainly": 3605,
      "ĠIran": 3606,
      "rec": 3607,
      "Ġpolic": 3608,
      "Ġ2007": 3609,
      "Ġencour": 3610,
      "Ġbeginning": 3611,
      "ĠJim": 3612,
      "Ġrealized": 3613,
      "Ġprec": 3614,
      "Ġtow": 3615,
      "ĠSchool": 3616,
      "Ġrelative": 3617,
      "eat": 3618,
      "Ġver": 3619,
      "Ġdeveloped": 3620,
      "ounce": 3621,
      "Ġnodded": 3622,
      "Ġlic": 3623,
      "erry": 3624,
      "ĠHigh": 3625,
      "Ġshout": 3626,
      "ĠSuper": 3627,
      "ĠDemocratic": 3628,
      "itation": 3629,
      "Ġplaces": 3630,
      "bl": 3631,
      "ĠEngland": 3632,
      "Ġbeyond": 3633,
      "FL": 3634,
      "Ġfighting": 3635,
      "Ġfailed": 3636,
      "vertisement": 3637,
      "Ġ*": 3638,
      "Ġvill": 3639,
      "ĠGreen": 3640,
      "acts": 3641,
      "Ġwel": 3642,
      "Ġherself": 3643,
      "Ġofficer": 3644,
      "iminal": 3645,
      "ĠCons": 3646,
      "Ġcomments": 3647,
      "Ġestim": 3648,
      "Ġbroken": 3649,
      "obile": 3650,
      "Ġgold": 3651,
      "itchen": 3652,
      "Ġwindow": 3653,
      "Ġpositive": 3654,
      "Ġperhaps": 3655,
      "ĠLucy": 3656,
      "ston": 3657,
      "Ġsafety": 3658,
      "ĠNe": 3659,
      "aly": 3660,
      "Ġstreng": 3661,
      "tr": 3662,
      "Ġopin": 3663,
      "Ġstreet": 3664,
      "ĠComp": 3665,
      "OP": 3666,
      "Ġbudget": 3667,
      "ĠMinister": 3668,
      "Ġarch": 3669,
      "ucky": 3670,
      "Ġcrow": 3671,
      "ĠAssoci": 3672,
      "Ġimplement": 3673,
      "Ġuser": 3674,
      "Thank": 3675,
      "Ġsuccessful": 3676,
      "Now": 3677,
      "Ġclosed": 3678,
      "Ġhy": 3679,
      "ications": 3680,
      "Ġtoward": 3681,
      "Ġreality": 3682,
      "Ġdistrib": 3683,
      "Jo": 3684,
      "Ġslide": 3685,
      "Ġ29": 3686,
      "Ġprin": 3687,
      "ĠTH": 3688,
      "Ġsubst": 3689,
      "Ġlargest": 3690,
      "rief": 3691,
      "itute": 3692,
      "icient": 3693,
      "Ġconditions": 3694,
      "ĠTexas": 3695,
      "Ġstudent": 3696,
      "Ġrefer": 3697,
      "Ġboat": 3698,
      "Ġnoted": 3699,
      "Ġreturned": 3700,
      "mar": 3701,
      "Ġdate": 3702,
      "Ġguys": 3703,
      "ilies": 3704,
      "Ġmount": 3705,
      "Ġexplained": 3706,
      "Ġsweet": 3707,
      "inn": 3708,
      "ĠVal": 3709,
      "Ġschools": 3710,
      "ears": 3711,
      "Ġresearc": 3712,
      "wise": 3713,
      "Ġunique": 3714,
      "23": 3715,
      "ĠMart": 3716,
      "Ġcorpor": 3717,
      "Ġdeg": 3718,
      "Ġflowers": 3719,
      "ĠBrown": 3720,
      "Ġreligious": 3721,
      "BI": 3722,
      "Ġspeech": 3723,
      "Ġplatform": 3724,
      "ĠRepublicans": 3725,
      "Ġamazing": 3726,
      "ading": 3727,
      "Ġyourself": 3728,
      "Ġreceive": 3729,
      "Ġtour": 3730,
      "Ġut": 3731,
      "berg": 3732,
      "isis": 3733,
      "ĠIll": 3734,
      "Ġdrop": 3735,
      "Ġforced": 3736,
      "Ġmeaning": 3737,
      "icate": 3738,
      "Ġrab": 3739,
      "Ġsoftware": 3740,
      "Ġvoters": 3741,
      "Ġfile": 3742,
      "Ġpromot": 3743,
      "Ġlimited": 3744,
      "ĠSmith": 3745,
      "ĠCap": 3746,
      "inated": 3747,
      "Ġdangerous": 3748,
      "Ġproperty": 3749,
      "aud": 3750,
      "right": 3751,
      "atever": 3752,
      "Ġstra": 3753,
      "box": 3754,
      "Ġstyle": 3755,
      "Ġappears": 3756,
      "enty": 3757,
      "orrow": 3758,
      "Ġfrequ": 3759,
      "iling": 3760,
      "Ġcentral": 3761,
      "Ġlaunch": 3762,
      "erve": 3763,
      "Ġsect": 3764,
      "bur": 3765,
      "Ġchair": 3766,
      "Ġstation": 3767,
      "Ġcompared": 3768,
      "Ġshown": 3769,
      "Ġspecies": 3770,
      "Ġbirds": 3771,
      "kend": 3772,
      "Ġsave": 3773,
      "aches": 3774,
      "Ġsigned": 3775,
      "Ġcaused": 3776,
      "Ġrare": 3777,
      "olf": 3778,
      "Ġil": 3779,
      "ĠDay": 3780,
      "ĠGeneral": 3781,
      "ube": 3782,
      "Ġdifference": 3783,
      "Ġsud": 3784,
      "Ġdebate": 3785,
      "venue": 3786,
      "ais": 3787,
      "ĠMex": 3788,
      "Ġsched": 3789,
      "rupt": 3790,
      "Ġnuclear": 3791,
      "che": 3792,
      "rol": 3793,
      "ĠTor": 3794,
      "Ġtight": 3795,
      "Ġwild": 3796,
      "oses": 3797,
      "ctions": 3798,
      "Ġgrad": 3799,
      "Ġspir": 3800,
      "Ġcalling": 3801,
      "Ġbrain": 3802,
      "Ġliter": 3803,
      "ĠAustralia": 3804,
      "encies": 3805,
      "Ġmeasure": 3806,
      "Ġaim": 3807,
      "Ġbaby": 3808,
      "Ġgrass": 3809,
      "lands": 3810,
      "Ġonto": 3811,
      "ivity": 3812,
      "rs": 3813,
      "ĠMary": 3814,
      "Ġthousands": 3815,
      "riage": 3816,
      "Ġregular": 3817,
      "Ġowner": 3818,
      "uing": 3819,
      "Ġended": 3820,
      "Ġmyself": 3821,
      "ĠMe": 3822,
      "oved": 3823,
      "Ġnormal": 3824,
      "Ġspending": 3825,
      "Ġdetermin": 3826,
      "Ġdisplay": 3827,
      "ĠMid": 3828,
      "Ġreasons": 3829,
      "Ġleaving": 3830,
      "ĠOf": 3831,
      "echan": 3832,
      "Ġprinc": 3833,
      "Ġdestroy": 3834,
      "Ġestabl": 3835,
      "Ġlines": 3836,
      "ĠAngel": 3837,
      "aint": 3838,
      "ager": 3839,
      "me": 3840,
      "Ġproduced": 3841,
      "ĠWhy": 3842,
      "Ġhospital": 3843,
      "Ġfeature": 3844,
      "egr": 3845,
      "ĠMac": 3846,
      "Ġideas": 3847,
      "Ġclot": 3848,
      "Ġpreviously": 3849,
      "By": 3850,
      "Ġrap": 3851,
      "olute": 3852,
      "pre": 3853,
      "Ġconfir": 3854,
      "Ġautom": 3855,
      "ĠAnt": 3856,
      "Ġblog": 3857,
      "Ġoverall": 3858,
      "Ġlear": 3859,
      "Ġconference": 3860,
      "Ġx": 3861,
      "ĠInternational": 3862,
      "Ġeasily": 3863,
      "Ġsnow": 3864,
      "Ġbug": 3865,
      "Ġbeg": 3866,
      "Ġsurprised": 3867,
      "Ġuses": 3868,
      "resh": 3869,
      "ĠChe": 3870,
      "lection": 3871,
      "Ġpush": 3872,
      "Ġfine": 3873,
      "Ġnecessary": 3874,
      "de": 3875,
      "ĠDemocrats": 3876,
      "Ġactions": 3877,
      "Ġleaves": 3878,
      "Ġtrees": 3879,
      "Ġfarm": 3880,
      "Ġtruth": 3881,
      "Ġ(@": 3882,
      "Ġleague": 3883,
      "Ġcharge": 3884,
      "OT": 3885,
      "My": 3886,
      "Ġasp": 3887,
      "Ġblocks": 3888,
      "ĠReg": 3889,
      "Ġexecutive": 3890,
      "Ġoffered": 3891,
      "bon": 3892,
      "Ġcoin": 3893,
      "iders": 3894,
      "Ġavoid": 3895,
      "Ġfamilies": 3896,
      "Ġalleged": 3897,
      "Ġattract": 3898,
      "Ġlarger": 3899,
      "iable": 3900,
      "Sp": 3901,
      "Ġnames": 3902,
      "Ġsouth": 3903,
      "26": 3904,
      "Ġaltern": 3905,
      "Ġcollege": 3906,
      "rif": 3907,
      "35": 3908,
      "Ġwont": 3909,
      "itor": 3910,
      "ipped": 3911,
      "Ġkitchen": 3912,
      "band": 3913,
      "ĠHam": 3914,
      "ening": 3915,
      "Ġcurious": 3916,
      "Ġstorm": 3917,
      "Ġindividuals": 3918,
      "Ġpow": 3919,
      "ĠEarth": 3920,
      "Ġanalysis": 3921,
      "net": 3922,
      "Ġcitizens": 3923,
      "ĠRob": 3924,
      "ica": 3925,
      "Ġthank": 3926,
      "ufact": 3927,
      "ĠUnion": 3928,
      "Ġcaught": 3929,
      "ĠChristian": 3930,
      "Ġcoo": 3931,
      "oom": 3932,
      "ĠGermany": 3933,
      "Ġlikes": 3934,
      "Ġorganization": 3935,
      "Ġfilled": 3936,
      "Ġnote": 3937,
      "Ġwa": 3938,
      "outhern": 3939,
      "Ġdetail": 3940,
      "Ġincome": 3941,
      "Ġconflic": 3942,
      "inger": 3943,
      "Ġminor": 3944,
      "Ġaware": 3945,
      "Ġprem": 3946,
      "aded": 3947,
      "Ġphysical": 3948,
      "ero": 3949,
      "ancy": 3950,
      "Ġpresidential": 3951,
      "Ġrule": 3952,
      "27": 3953,
      "Ġweapons": 3954,
      "ords": 3955,
      "Ġrelated": 3956,
      "ĠSpot": 3957,
      "ĠCouncil": 3958,
      "change": 3959,
      "Ġhat": 3960,
      "ki": 3961,
      "Ġgoals": 3962,
      "Ġhar": 3963,
      "ĠAccording": 3964,
      "Ġfunny": 3965,
      "oyal": 3966,
      "igration": 3967,
      "Ġtraff": 3968,
      "onents": 3969,
      "Ġallows": 3970,
      "EC": 3971,
      "Ġadventure": 3972,
      "Ġbutter": 3973,
      "Ġdaughter": 3974,
      "ĠMag": 3975,
      "itz": 3976,
      "Ġsenior": 3977,
      "aked": 3978,
      "Ġdevice": 3979,
      "Ġpun": 3980,
      "Ġdemonstr": 3981,
      "merc": 3982,
      "Ġcorrect": 3983,
      "Ġbroke": 3984,
      "ĠFranc": 3985,
      "ounds": 3986,
      "Ġpieces": 3987,
      "Ġpolitics": 3988,
      "Ġstraight": 3989,
      "ĠMet": 3990,
      "Ġprojects": 3991,
      "Ġtwe": 3992,
      "Ġobser": 3993,
      "ĠBel": 3994,
      "Ġbelieved": 3995,
      "Ġexpand": 3996,
      "All": 3997,
      "oday": 3998,
      "urance": 3999,
      "ĠArab": 4000,
      "Ġprimary": 4001,
      "Ġknows": 4002,
      "Ġfan": 4003,
      "uty": 4004,
      "Ġdise": 4005,
      "Ġbigger": 4006,
      "Ġraised": 4007,
      "ado": 4008,
      "Ġmiles": 4009,
      "ĠAlex": 4010,
      "ĠGold": 4011,
      "ĠGrand": 4012,
      "ength": 4013,
      "ĠLa": 4014,
      "Ġspend": 4015,
      "bye": 4016,
      "Ġfully": 4017,
      "Ġcrisis": 4018,
      "Ġcontinues": 4019,
      "yan": 4020,
      "Ġfirm": 4021,
      "ĠBer": 4022,
      "Ġtelevision": 4023,
      "ĠDis": 4024,
      "Ġsales": 4025,
      "iverse": 4026,
      "ĠSarah": 4027,
      "vention": 4028,
      "Ġcandidate": 4029,
      "ĠFlor": 4030,
      "Ġcredit": 4031,
      "Ġconnect": 4032,
      "ĠMad": 4033,
      "Ġagency": 4034,
      "Ġ195": 4035,
      "Ġhighly": 4036,
      "Ġreform": 4037,
      "ulated": 4038,
      "Ġfeels": 4039,
      "Ġhelping": 4040,
      "Ġmanager": 4041,
      "Ġtreatment": 4042,
      "rian": 4043,
      "Ġteach": 4044,
      "fl": 4045,
      "osh": 4046,
      "Ġdecades": 4047,
      "Ġlaun": 4048,
      "Ġilleg": 4049,
      "ĠWind": 4050,
      "Ġfemale": 4051,
      "Ġstatus": 4052,
      "ustr": 4053,
      "Ġcomfort": 4054,
      "Ġindependent": 4055,
      "Ġmachine": 4056,
      "orthern": 4057,
      "Ġneighbor": 4058,
      "Ġclaimed": 4059,
      "iance": 4060,
      "Ġgreater": 4061,
      "Ġholding": 4062,
      "Ġbul": 4063,
      "antly": 4064,
      "Ġhero": 4065,
      "ĠOh": 4066,
      "Ġchallenge": 4067,
      "ining": 4068,
      "Ġpropos": 4069,
      "Is": 4070,
      "igned": 4071,
      "lying": 4072,
      "According": 4073,
      "ville": 4074,
      "Ġshut": 4075,
      "21": 4076,
      "Ġapparent": 4077,
      "Sc": 4078,
      "Ġdropped": 4079,
      "Ġcustomers": 4080,
      "Ġcake": 4081,
      "Ġowners": 4082,
      "Ġtraffic": 4083,
      "Ġpulled": 4084,
      "ios": 4085,
      "Ġglad": 4086,
      "Ġfat": 4087,
      "Ġknowledge": 4088,
      "omen": 4089,
      "Ġfa": 4090,
      "while": 4091,
      "Ġwatching": 4092,
      "Ġadvant": 4093,
      "Ġeye": 4094,
      "orney": 4095
    },
    "merges": [
      [
        "Ġ",
        "t"
      ],
      [
        "h",
        "e"
      ],
      [
        "Ġ",
        "a"
      ],
      [
        "i",
        "n"
      ],
      [
        "Ġt",
        "he"
      ],
      [
        "r",
        "e"
      ],
      [
        "Ġ",
        "s"
      ],
      [
        "o",
        "n"
      ],
      [
        "Ġ",
        "w"
      ],
      [
        "e",
        "r"
      ],
      [
        "n",
        "d"
      ],
      [
        "a",
        "t"
      ],
      [
        "Ġ",
        "o"
      ],
      [
        "i",
        "t"
      ],
      [
        "e",
        "d"
      ],
      [
        "Ġ",
        "c"
      ],
      [
        "Ġ",
        "b"
      ],
      [
        "e",
        "n"
      ],
      [
        "Ġ",
        "f"
      ],
      [
        "i",
        "s"
      ],
      [
        "o",
        "r"
      ],
      [
        "Ġt",
        "o"
      ],
      [
        "Ġ",
        "p"
      ],
      [
        "in",
        "g"
      ],
      [
        "e",
        "s"
      ],
      [
        "o",
        "u"
      ],
      [
        "a",
        "n"
      ],
      [
        "a",
        "r"
      ],
      [
        "Ġa",
        "nd"
      ],
      [
        "Ġ",
        "m"
      ],
      [
        "a",
        "l"
      ],
      [
        "Ġ",
        "h"
      ],
      [
        "Ġ",
        "in"
      ],
      [
        "a",
        "s"
      ],
      [
        "Ġ",
        "d"
      ],
      [
        "Ġo",
        "f"
      ],
      [
        "l",
        "e"
      ],
      [
        "i",
        "c"
      ],
      [
        "Ġt",
        "h"
      ],
      [
        "o",
        "m"
      ],
      [
        "Ġ",
        "l"
      ],
      [
        "i",
        "on"
      ],
      [
        "i",
        "l"
      ],
      [
        "Ġ",
        "n"
      ],
      [
        "Ġ",
        "T"
      ],
      [
        "Ġ",
        "g"
      ],
      [
        "en",
        "t"
      ],
      [
        "i",
        "d"
      ],
      [
        "Ġ",
        "e"
      ],
      [
        "Ġ",
        "re"
      ],
      [
        "v",
        "e"
      ],
      [
        "s",
        "t"
      ],
      [
        "o",
        "t"
      ],
      [
        "a",
        "y"
      ],
      [
        "Ġb",
        "e"
      ],
      [
        "l",
        "y"
      ],
      [
        "u",
        "t"
      ],
      [
        "Ġ",
        "S"
      ],
      [
        "a",
        "c"
      ],
      [
        "i",
        "m"
      ],
      [
        "a",
        "d"
      ],
      [
        "Ġ",
        "he"
      ],
      [
        "r",
        "o"
      ],
      [
        "Ġ",
        "I"
      ],
      [
        "Ġ",
        "on"
      ],
      [
        "e",
        "t"
      ],
      [
        "a",
        "m"
      ],
      [
        "Ġth",
        "at"
      ],
      [
        "o",
        "w"
      ],
      [
        "i",
        "g"
      ],
      [
        "v",
        "er"
      ],
      [
        "Ġw",
        "as"
      ],
      [
        "Ġ",
        "is"
      ],
      [
        "Ġf",
        "or"
      ],
      [
        "Ġ",
        "it"
      ],
      [
        "s",
        "e"
      ],
      [
        "Ġ",
        "A"
      ],
      [
        "Ġ",
        "u"
      ],
      [
        "o",
        "l"
      ],
      [
        "Ġs",
        "t"
      ],
      [
        "i",
        "r"
      ],
      [
        "u",
        "r"
      ],
      [
        "Ġ",
        "y"
      ],
      [
        "e",
        "c"
      ],
      [
        "e",
        "l"
      ],
      [
        "Ġ",
        "C"
      ],
      [
        "it",
        "h"
      ],
      [
        "Ġ",
        "M"
      ],
      [
        "ĠT",
        "he"
      ],
      [
        "Ġw",
        "ith"
      ],
      [
        "Ġw",
        "h"
      ],
      [
        "Ġ",
        "B"
      ],
      [
        "t",
        "er"
      ],
      [
        "Ġ",
        "H"
      ],
      [
        "c",
        "e"
      ],
      [
        "at",
        "ion"
      ],
      [
        "Ġa",
        "s"
      ],
      [
        "l",
        "d"
      ],
      [
        "Ġa",
        "n"
      ],
      [
        "Ġa",
        "l"
      ],
      [
        "Ġh",
        "a"
      ],
      [
        "k",
        "e"
      ],
      [
        "Ġw",
        "e"
      ],
      [
        "Ġy",
        "ou"
      ],
      [
        "il",
        "l"
      ],
      [
        "u",
        "l"
      ],
      [
        "Ġ",
        "r"
      ],
      [
        "c",
        "h"
      ],
      [
        "p",
        "p"
      ],
      [
        "r",
        "i"
      ],
      [
        "he",
        "r"
      ],
      [
        "er",
        "s"
      ],
      [
        "Ġ",
        "P"
      ],
      [
        "Ġs",
        "a"
      ],
      [
        "t",
        "s"
      ],
      [
        "Ġa",
        "t"
      ],
      [
        "Ġ",
        "W"
      ],
      [
        "o",
        "o"
      ],
      [
        "Ġc",
        "on"
      ],
      [
        "u",
        "n"
      ],
      [
        "a",
        "g"
      ],
      [
        "o",
        "re"
      ],
      [
        "e",
        "m"
      ],
      [
        "i",
        "f"
      ],
      [
        "Ġ",
        "1"
      ],
      [
        "Ġ",
        "L"
      ],
      [
        "c",
        "t"
      ],
      [
        "Ġa",
        "re"
      ],
      [
        "a",
        "in"
      ],
      [
        "Ġ",
        "D"
      ],
      [
        "Ġ",
        "\""
      ],
      [
        "u",
        "m"
      ],
      [
        "u",
        "s"
      ],
      [
        "at",
        "e"
      ],
      [
        "r",
        "om"
      ],
      [
        "ig",
        "h"
      ],
      [
        "Ġc",
        "om"
      ],
      [
        "Ġn",
        "ot"
      ],
      [
        "ou",
        "ld"
      ],
      [
        "Ġn",
        "e"
      ],
      [
        "Ġ",
        "R"
      ],
      [
        "Ġh",
        "is"
      ],
      [
        "es",
        "t"
      ],
      [
        "o",
        "p"
      ],
      [
        "Ġ",
        "F"
      ],
      [
        "Ġ",
        "2"
      ],
      [
        "t",
        "h"
      ],
      [
        "Ġe",
        "x"
      ],
      [
        "re",
        "s"
      ],
      [
        "an",
        "t"
      ],
      [
        "Ġs",
        "h"
      ],
      [
        "Ġ",
        ","
      ],
      [
        "Ġ",
        "("
      ],
      [
        "a",
        "nd"
      ],
      [
        "Ġp",
        "l"
      ],
      [
        "n",
        "t"
      ],
      [
        "'",
        "s"
      ],
      [
        "Ġp",
        "ro"
      ],
      [
        "a",
        "b"
      ],
      [
        "Ġha",
        "ve"
      ],
      [
        "Ġ",
        "N"
      ],
      [
        "Ġs",
        "e"
      ],
      [
        "Ġ",
        "v"
      ],
      [
        "Ġb",
        "y"
      ],
      [
        "es",
        "s"
      ],
      [
        "Ġf",
        "rom"
      ],
      [
        "Ġ",
        "G"
      ],
      [
        "Ġsa",
        "id"
      ],
      [
        "o",
        "s"
      ],
      [
        "Ġo",
        "r"
      ],
      [
        "i",
        "ve"
      ],
      [
        "ac",
        "k"
      ],
      [
        "Ġ",
        "le"
      ],
      [
        "it",
        "y"
      ],
      [
        "re",
        "d"
      ],
      [
        "ar",
        "t"
      ],
      [
        "is",
        "t"
      ],
      [
        "Ġs",
        "u"
      ],
      [
        "al",
        "l"
      ],
      [
        "o",
        "c"
      ],
      [
        "q",
        "u"
      ],
      [
        "Ġthe",
        "y"
      ],
      [
        "Ġ",
        "J"
      ],
      [
        "T",
        "he"
      ],
      [
        "Ġ",
        "E"
      ],
      [
        "Ġd",
        "e"
      ],
      [
        "ar",
        "d"
      ],
      [
        "om",
        "e"
      ],
      [
        "Ġ",
        "."
      ],
      [
        "Ġhe",
        "r"
      ],
      [
        "m",
        "ent"
      ],
      [
        "u",
        "st"
      ],
      [
        "Ġ",
        "O"
      ],
      [
        "Ġc",
        "h"
      ],
      [
        "r",
        "ou"
      ],
      [
        "g",
        "h"
      ],
      [
        "or",
        "t"
      ],
      [
        "Ġth",
        "is"
      ],
      [
        "a",
        "p"
      ],
      [
        "i",
        "es"
      ],
      [
        "ou",
        "t"
      ],
      [
        "Ġb",
        "ut"
      ],
      [
        "Ġ",
        "k"
      ],
      [
        "Ġa",
        "b"
      ],
      [
        "igh",
        "t"
      ],
      [
        "Ġ",
        "j"
      ],
      [
        "al",
        "ly"
      ],
      [
        "ĠH",
        "e"
      ],
      [
        "Ġs",
        "p"
      ],
      [
        "Ġd",
        "o"
      ],
      [
        "Ġu",
        "p"
      ],
      [
        "0",
        "0"
      ],
      [
        "Ġl",
        "i"
      ],
      [
        "Ġh",
        "ad"
      ],
      [
        "id",
        "e"
      ],
      [
        "Ġt",
        "r"
      ],
      [
        "u",
        "d"
      ],
      [
        "a",
        "k"
      ],
      [
        "Ġs",
        "o"
      ],
      [
        "ver",
        "y"
      ],
      [
        "Ġw",
        "or"
      ],
      [
        "as",
        "t"
      ],
      [
        "Ġh",
        "as"
      ],
      [
        "e",
        "nd"
      ],
      [
        "e",
        "ar"
      ],
      [
        "č",
        "Ċ"
      ],
      [
        "Ġwe",
        "re"
      ],
      [
        "ec",
        "t"
      ],
      [
        ".",
        "\""
      ],
      [
        "el",
        "l"
      ],
      [
        "o",
        "st"
      ],
      [
        "Ġw",
        "he"
      ],
      [
        "am",
        "e"
      ],
      [
        "ou",
        "r"
      ],
      [
        "Ġthe",
        "ir"
      ],
      [
        "Ġal",
        "l"
      ],
      [
        "o",
        "d"
      ],
      [
        "Ġo",
        "ut"
      ],
      [
        "Ġc",
        "an"
      ],
      [
        "im",
        "e"
      ],
      [
        "Ġg",
        "o"
      ],
      [
        "i",
        "e"
      ],
      [
        "g",
        "e"
      ],
      [
        "on",
        "g"
      ],
      [
        "i",
        "v"
      ],
      [
        "Ġs",
        "he"
      ],
      [
        "k",
        "ed"
      ],
      [
        "ic",
        "h"
      ],
      [
        "Ġw",
        "ill"
      ],
      [
        "Ġwh",
        "o"
      ],
      [
        "Ġ",
        "U"
      ],
      [
        "Ġin",
        "t"
      ],
      [
        "ic",
        "e"
      ],
      [
        "a",
        "ke"
      ],
      [
        "on",
        "e"
      ],
      [
        "t",
        "her"
      ],
      [
        "i",
        "al"
      ],
      [
        "ĠS",
        "he"
      ],
      [
        "e",
        "p"
      ],
      [
        "il",
        "y"
      ],
      [
        "an",
        "s"
      ],
      [
        "f",
        "f"
      ],
      [
        "u",
        "re"
      ],
      [
        "ĠThe",
        "y"
      ],
      [
        "Ġpl",
        "ay"
      ],
      [
        "ou",
        "s"
      ],
      [
        "in",
        "d"
      ],
      [
        "Ġm",
        "e"
      ],
      [
        "p",
        "l"
      ],
      [
        "n",
        "e"
      ],
      [
        "a",
        "re"
      ],
      [
        "Ġc",
        "l"
      ],
      [
        "Ġm",
        "ore"
      ],
      [
        "r",
        "y"
      ],
      [
        "r",
        "a"
      ],
      [
        "in",
        "e"
      ],
      [
        "Ġw",
        "ould"
      ],
      [
        "Ġa",
        "d"
      ],
      [
        "b",
        "er"
      ],
      [
        "ay",
        "s"
      ],
      [
        "ion",
        "s"
      ],
      [
        "Ġon",
        "e"
      ],
      [
        "k",
        "s"
      ],
      [
        "Ġt",
        "ime"
      ],
      [
        "Ġa",
        "g"
      ],
      [
        "a",
        "u"
      ],
      [
        "Ġthe",
        "re"
      ],
      [
        "Ġab",
        "out"
      ],
      [
        "at",
        "ed"
      ],
      [
        "ag",
        "e"
      ],
      [
        "i",
        "a"
      ],
      [
        "Ġ",
        "K"
      ],
      [
        "u",
        "e"
      ],
      [
        "Ġu",
        "s"
      ],
      [
        "oo",
        "d"
      ],
      [
        "it",
        "t"
      ],
      [
        "Ġm",
        "an"
      ],
      [
        "ac",
        "t"
      ],
      [
        "Ġthe",
        "m"
      ],
      [
        "u",
        "b"
      ],
      [
        "p",
        "t"
      ],
      [
        "c",
        "c"
      ],
      [
        "Ġit",
        "s"
      ],
      [
        "Ġli",
        "ke"
      ],
      [
        "Ġwh",
        "ich"
      ],
      [
        "Ġ",
        "im"
      ],
      [
        "i",
        "z"
      ],
      [
        "i",
        "p"
      ],
      [
        "ĠI",
        "t"
      ],
      [
        "Ġ",
        "en"
      ],
      [
        "Ġcon",
        "t"
      ],
      [
        "Ġof",
        "f"
      ],
      [
        "ĠT",
        "h"
      ],
      [
        "ar",
        "y"
      ],
      [
        "ĠS",
        "t"
      ],
      [
        "Ġcom",
        "p"
      ],
      [
        "Ġs",
        "ome"
      ],
      [
        "Ġ2",
        "0"
      ],
      [
        "s",
        "o"
      ],
      [
        "ac",
        "e"
      ],
      [
        "Ġo",
        "ther"
      ],
      [
        "p",
        "er"
      ],
      [
        "o",
        "g"
      ],
      [
        "Ġs",
        "c"
      ],
      [
        "u",
        "c"
      ],
      [
        "Ġu",
        "n"
      ],
      [
        "Ġbe",
        "en"
      ],
      [
        "ig",
        "n"
      ],
      [
        "i",
        "le"
      ],
      [
        "Ġe",
        "v"
      ],
      [
        "it",
        "e"
      ],
      [
        "as",
        "s"
      ],
      [
        "Ġp",
        "e"
      ],
      [
        "Ġy",
        "ear"
      ],
      [
        "Ġ",
        "Y"
      ],
      [
        "ow",
        "n"
      ],
      [
        "Ġne",
        "w"
      ],
      [
        "ĠI",
        "n"
      ],
      [
        "Ġin",
        "c"
      ],
      [
        "a",
        "v"
      ],
      [
        "ou",
        "gh"
      ],
      [
        "Ġh",
        "im"
      ],
      [
        "Ġd",
        "ay"
      ],
      [
        "k",
        "ing"
      ],
      [
        "Ġbe",
        "c"
      ],
      [
        "Ġf",
        "e"
      ],
      [
        "e",
        "re"
      ],
      [
        "ab",
        "le"
      ],
      [
        "ou",
        "nd"
      ],
      [
        "Ġp",
        "er"
      ],
      [
        "i",
        "re"
      ],
      [
        "'",
        "t"
      ],
      [
        "or",
        "d"
      ],
      [
        "Ġwh",
        "at"
      ],
      [
        "Ġre",
        "s"
      ],
      [
        "Ġo",
        "ver"
      ],
      [
        "Ġw",
        "ant"
      ],
      [
        "he",
        "d"
      ],
      [
        "f",
        "ter"
      ],
      [
        "Ġth",
        "an"
      ],
      [
        "Ġwhe",
        "n"
      ],
      [
        "v",
        "ed"
      ],
      [
        "m",
        "er"
      ],
      [
        "ac",
        "h"
      ],
      [
        "re",
        "e"
      ],
      [
        "Ġa",
        "r"
      ],
      [
        "Ġp",
        "r"
      ],
      [
        "Ġc",
        "ould"
      ],
      [
        "Ġal",
        "so"
      ],
      [
        "on",
        "d"
      ],
      [
        "l",
        "l"
      ],
      [
        "o",
        "se"
      ],
      [
        "Ġd",
        "is"
      ],
      [
        "res",
        "s"
      ],
      [
        "ation",
        "s"
      ],
      [
        "Ġ",
        "very"
      ],
      [
        "ic",
        "al"
      ],
      [
        "en",
        "ce"
      ],
      [
        "Ġyou",
        "r"
      ],
      [
        "ing",
        "s"
      ],
      [
        "op",
        "le"
      ],
      [
        "Ġn",
        "o"
      ],
      [
        "Ġa",
        "pp"
      ],
      [
        "Ġ",
        "ro"
      ],
      [
        "an",
        "ce"
      ],
      [
        "Ġ",
        "qu"
      ],
      [
        "Ġt",
        "w"
      ],
      [
        "Ġ20",
        "1"
      ],
      [
        "ad",
        "e"
      ],
      [
        "a",
        "il"
      ],
      [
        "i",
        "b"
      ],
      [
        "Ġg",
        "et"
      ],
      [
        "or",
        "m"
      ],
      [
        "Ġan",
        "y"
      ],
      [
        "Ġ1",
        "9"
      ],
      [
        "Ġl",
        "oo"
      ],
      [
        "as",
        "e"
      ],
      [
        "ĠC",
        "h"
      ],
      [
        "Ġd",
        "id"
      ],
      [
        "Ġm",
        "y"
      ],
      [
        "h",
        "ing"
      ],
      [
        "re",
        "at"
      ],
      [
        "en",
        "s"
      ],
      [
        "Ġint",
        "o"
      ],
      [
        "o",
        "y"
      ],
      [
        "ar",
        "k"
      ],
      [
        "Ġj",
        "ust"
      ],
      [
        "o",
        "ve"
      ],
      [
        "ir",
        "st"
      ],
      [
        "rou",
        "nd"
      ],
      [
        "Ġk",
        "n"
      ],
      [
        "Ġpe",
        "ople"
      ],
      [
        "Ġs",
        "m"
      ],
      [
        "Ġha",
        "pp"
      ],
      [
        "Ġ",
        "3"
      ],
      [
        "i",
        "an"
      ],
      [
        "r",
        "u"
      ],
      [
        "o",
        "in"
      ],
      [
        "Ġb",
        "ack"
      ],
      [
        "Ġp",
        "art"
      ],
      [
        "Ġ",
        "if"
      ],
      [
        "ic",
        "k"
      ],
      [
        "ou",
        "nt"
      ],
      [
        "l",
        "ow"
      ],
      [
        "Ġp",
        "re"
      ],
      [
        "w",
        "n"
      ],
      [
        "Ġre",
        "c"
      ],
      [
        "Ġ",
        "V"
      ],
      [
        "an",
        "g"
      ],
      [
        "Ġto",
        "o"
      ],
      [
        "or",
        "y"
      ],
      [
        "or",
        "s"
      ],
      [
        "o",
        "b"
      ],
      [
        "ve",
        "l"
      ],
      [
        "on",
        "t"
      ],
      [
        "ul",
        "t"
      ],
      [
        "Ġd",
        "ec"
      ],
      [
        "ent",
        "s"
      ],
      [
        "ol",
        "d"
      ],
      [
        "au",
        "se"
      ],
      [
        "Ġre",
        "p"
      ],
      [
        "Ġt",
        "e"
      ],
      [
        "Ġp",
        "ol"
      ],
      [
        "Ġm",
        "om"
      ],
      [
        "is",
        "h"
      ],
      [
        "m",
        "y"
      ],
      [
        "it",
        "ion"
      ],
      [
        "Ġb",
        "ig"
      ],
      [
        "Ġ",
        "="
      ],
      [
        "on",
        "s"
      ],
      [
        "Ġf",
        "irst"
      ],
      [
        "i",
        "ous"
      ],
      [
        "Ġh",
        "ow"
      ],
      [
        "nd",
        "er"
      ],
      [
        "at",
        "er"
      ],
      [
        "itt",
        "le"
      ],
      [
        "ct",
        "ion"
      ],
      [
        "Ġim",
        "p"
      ],
      [
        "Ġa",
        "fter"
      ],
      [
        "il",
        "d"
      ],
      [
        "Ġag",
        "ain"
      ],
      [
        "l",
        "ic"
      ],
      [
        "Ġo",
        "ur"
      ],
      [
        "Ġtw",
        "o"
      ],
      [
        "Ġ",
        "'"
      ],
      [
        "f",
        "ul"
      ],
      [
        "at",
        "es"
      ],
      [
        "n",
        "ce"
      ],
      [
        "ĠL",
        "ily"
      ],
      [
        "am",
        "p"
      ],
      [
        "Ġb",
        "l"
      ],
      [
        "Ġl",
        "ittle"
      ],
      [
        "Ġse",
        "e"
      ],
      [
        "ver",
        "s"
      ],
      [
        "ur",
        "n"
      ],
      [
        "Ġ",
        "-"
      ],
      [
        "Ġbe",
        "t"
      ],
      [
        "u",
        "ch"
      ],
      [
        "ri",
        "end"
      ],
      [
        "Ġm",
        "ake"
      ],
      [
        "Ġ",
        "@"
      ],
      [
        "Ġa",
        "cc"
      ],
      [
        "Ġon",
        "ly"
      ],
      [
        "ic",
        "t"
      ],
      [
        "Ġat",
        "t"
      ],
      [
        "a",
        "w"
      ],
      [
        "f",
        "t"
      ],
      [
        ",",
        "\""
      ],
      [
        "Ġhe",
        "l"
      ],
      [
        "ĠB",
        "ut"
      ],
      [
        "id",
        "ent"
      ],
      [
        "it",
        "ed"
      ],
      [
        "Ġa",
        "m"
      ],
      [
        "Ġs",
        "er"
      ],
      [
        "Ġb",
        "r"
      ],
      [
        "e",
        "w"
      ],
      [
        "Ġcom",
        "m"
      ],
      [
        "rou",
        "gh"
      ],
      [
        "w",
        "e"
      ],
      [
        "Ġf",
        "riend"
      ],
      [
        "Ġe",
        "very"
      ],
      [
        "Ġthe",
        "n"
      ],
      [
        "in",
        "k"
      ],
      [
        "Ġu",
        "nder"
      ],
      [
        "Ġhel",
        "p"
      ],
      [
        "f",
        "orm"
      ],
      [
        "se",
        "l"
      ],
      [
        "om",
        "et"
      ],
      [
        "g",
        "et"
      ],
      [
        "Ġkn",
        "ow"
      ],
      [
        "Ġbec",
        "ause"
      ],
      [
        "r",
        "it"
      ],
      [
        "Ġm",
        "ost"
      ],
      [
        "an",
        "c"
      ],
      [
        "is",
        "s"
      ],
      [
        "Ġa",
        "ct"
      ],
      [
        "ot",
        "her"
      ],
      [
        "Ġ",
        "4"
      ],
      [
        "y",
        "s"
      ],
      [
        "Ġd",
        "es"
      ],
      [
        "n",
        "ing"
      ],
      [
        "al",
        "s"
      ],
      [
        "v",
        "ing"
      ],
      [
        "Ġm",
        "ade"
      ],
      [
        "is",
        "e"
      ],
      [
        "Ġne",
        "ed"
      ],
      [
        "if",
        "f"
      ],
      [
        "he",
        "n"
      ],
      [
        "Ġev",
        "en"
      ],
      [
        "Ġc",
        "o"
      ],
      [
        "l",
        "ud"
      ],
      [
        "f",
        "ore"
      ],
      [
        "Ġyear",
        "s"
      ],
      [
        "Ġn",
        "ow"
      ],
      [
        "ĠW",
        "e"
      ],
      [
        "l",
        "es"
      ],
      [
        "s",
        "ide"
      ],
      [
        "Ġst",
        "art"
      ],
      [
        "m",
        "an"
      ],
      [
        "Ġsa",
        "w"
      ],
      [
        "u",
        "g"
      ],
      [
        "w",
        "ay"
      ],
      [
        "Ġwor",
        "k"
      ],
      [
        "ter",
        "n"
      ],
      [
        "Ġd",
        "own"
      ],
      [
        "Ġ",
        "5"
      ],
      [
        "Ġa",
        "round"
      ],
      [
        "Ġs",
        "ec"
      ],
      [
        "Ġman",
        "y"
      ],
      [
        "Ġsh",
        "ow"
      ],
      [
        "Ġre",
        "m"
      ],
      [
        "Ġhapp",
        "y"
      ],
      [
        "Ġc",
        "ar"
      ],
      [
        "ĠA",
        "nd"
      ],
      [
        "Ġg",
        "r"
      ],
      [
        "Ġin",
        "d"
      ],
      [
        "Ġc",
        "all"
      ],
      [
        "Ġs",
        "ays"
      ],
      [
        "Ġex",
        "p"
      ],
      [
        "Ġin",
        "v"
      ],
      [
        "Ġwhe",
        "re"
      ],
      [
        "Ġg",
        "ood"
      ],
      [
        "um",
        "p"
      ],
      [
        "ot",
        "h"
      ],
      [
        "i",
        "ed"
      ],
      [
        "d",
        "ay"
      ],
      [
        "oo",
        "k"
      ],
      [
        "Ġm",
        "uch"
      ],
      [
        "t",
        "y"
      ],
      [
        "ĠU",
        "n"
      ],
      [
        "Ġc",
        "ol"
      ],
      [
        "h",
        "n"
      ],
      [
        "T",
        "h"
      ],
      [
        "ĠY",
        "ou"
      ],
      [
        "ub",
        "lic"
      ],
      [
        "Ġs",
        "omet"
      ],
      [
        "x",
        "t"
      ],
      [
        "Ġbe",
        "ing"
      ],
      [
        "Ġad",
        "d"
      ],
      [
        "Ġ",
        "ke"
      ],
      [
        "ro",
        "w"
      ],
      [
        "Ġ",
        "$"
      ],
      [
        "Ġw",
        "ay"
      ],
      [
        "Ġe",
        "m"
      ],
      [
        "Ġb",
        "u"
      ],
      [
        "en",
        "c"
      ],
      [
        "Ġe",
        "nd"
      ],
      [
        "Ġsu",
        "pp"
      ],
      [
        "ir",
        "l"
      ],
      [
        "n",
        "g"
      ],
      [
        "Ġd",
        "iff"
      ],
      [
        "ak",
        "ing"
      ],
      [
        "a",
        "x"
      ],
      [
        "Ġ2",
        "00"
      ],
      [
        "at",
        "h"
      ],
      [
        "Ġf",
        "l"
      ],
      [
        "Ġs",
        "ay"
      ],
      [
        "t",
        "ing"
      ],
      [
        "at",
        "ing"
      ],
      [
        "as",
        "ed"
      ],
      [
        "Ġl",
        "ong"
      ],
      [
        "Ġf",
        "ound"
      ],
      [
        "Ġre",
        "l"
      ],
      [
        "ur",
        "ing"
      ],
      [
        "u",
        "al"
      ],
      [
        "Ġthe",
        "se"
      ],
      [
        "Ġinc",
        "lud"
      ],
      [
        "Ġth",
        "rough"
      ],
      [
        "ĠW",
        "h"
      ],
      [
        "a",
        "ve"
      ],
      [
        "os",
        "s"
      ],
      [
        "ation",
        "al"
      ],
      [
        "Ġsh",
        "ould"
      ],
      [
        "ver",
        "n"
      ],
      [
        "I",
        "n"
      ],
      [
        "w",
        "ard"
      ],
      [
        "a",
        "red"
      ],
      [
        "ĠT",
        "im"
      ],
      [
        "Ġwant",
        "ed"
      ],
      [
        "Ġth",
        "ough"
      ],
      [
        "Ġf",
        "un"
      ],
      [
        "Ġcon",
        "s"
      ],
      [
        "v",
        "es"
      ],
      [
        "ĠTh",
        "is"
      ],
      [
        "Ġbe",
        "fore"
      ],
      [
        "ri",
        "b"
      ],
      [
        "s",
        "s"
      ],
      [
        "Ġf",
        "in"
      ],
      [
        "Ġm",
        "ay"
      ],
      [
        "le",
        "ct"
      ],
      [
        "ie",
        "w"
      ],
      [
        "Ġre",
        "g"
      ],
      [
        "as",
        "on"
      ],
      [
        "Ġo",
        "wn"
      ],
      [
        "Ġw",
        "ell"
      ],
      [
        "Ġde",
        "f"
      ],
      [
        "mer",
        "ic"
      ],
      [
        "Ġst",
        "r"
      ],
      [
        "ou",
        "se"
      ],
      [
        "Ġp",
        "res"
      ],
      [
        "Ġa",
        "c"
      ],
      [
        "i",
        "x"
      ],
      [
        "!",
        "\""
      ],
      [
        "-",
        "@"
      ],
      [
        "Ġ@",
        "-@"
      ],
      [
        "Ġu",
        "se"
      ],
      [
        "Ġt",
        "ake"
      ],
      [
        "Ġw",
        "ent"
      ],
      [
        "Ġs",
        "ur"
      ],
      [
        "Ġs",
        "y"
      ],
      [
        "ĠT",
        "r"
      ],
      [
        "ul",
        "l"
      ],
      [
        "Ġm",
        "on"
      ],
      [
        "Ġ",
        "["
      ],
      [
        "ar",
        "ly"
      ],
      [
        "ter",
        "s"
      ],
      [
        "t",
        "e"
      ],
      [
        "ic",
        "s"
      ],
      [
        "Ġsp",
        "ec"
      ],
      [
        "Ġo",
        "p"
      ],
      [
        "u",
        "p"
      ],
      [
        "Ġg",
        "irl"
      ],
      [
        "Ġdo",
        "es"
      ],
      [
        "ro",
        "p"
      ],
      [
        "an",
        "ge"
      ],
      [
        "oc",
        "k"
      ],
      [
        "ir",
        "d"
      ],
      [
        "it",
        "ies"
      ],
      [
        "Ġp",
        "ut"
      ],
      [
        "Ġsomet",
        "hing"
      ],
      [
        "Ġr",
        "un"
      ],
      [
        "d",
        "u"
      ],
      [
        "Ġl",
        "ast"
      ],
      [
        "g",
        "an"
      ],
      [
        "v",
        "en"
      ],
      [
        "Ġth",
        "ose"
      ],
      [
        "at",
        "ive"
      ],
      [
        "b",
        "le"
      ],
      [
        "Ġp",
        "h"
      ],
      [
        "Ġwh",
        "ile"
      ],
      [
        "ĠA",
        "meric"
      ],
      [
        "t",
        "on"
      ],
      [
        "Ġas",
        "s"
      ],
      [
        "at",
        "ch"
      ],
      [
        "Ġf",
        "ind"
      ],
      [
        "in",
        "ce"
      ],
      [
        "Ġup",
        "on"
      ],
      [
        "ou",
        "n"
      ],
      [
        "Ġc",
        "ount"
      ],
      [
        "Ġg",
        "ame"
      ],
      [
        "Ġst",
        "ill"
      ],
      [
        "ow",
        "er"
      ],
      [
        "Ġgo",
        "ing"
      ],
      [
        "ar",
        "n"
      ],
      [
        "sel",
        "f"
      ],
      [
        ".",
        "."
      ],
      [
        "u",
        "nd"
      ],
      [
        "O",
        "nce"
      ],
      [
        "if",
        "ic"
      ],
      [
        "Ġsu",
        "ch"
      ],
      [
        "o",
        "ol"
      ],
      [
        ")",
        "."
      ],
      [
        "u",
        "es"
      ],
      [
        "if",
        "e"
      ],
      [
        "he",
        "s"
      ],
      [
        "ĠN",
        "ew"
      ],
      [
        "am",
        "ed"
      ],
      [
        "Ġc",
        "r"
      ],
      [
        "m",
        "s"
      ],
      [
        "ib",
        "le"
      ],
      [
        "en",
        "er"
      ],
      [
        "Ġl",
        "o"
      ],
      [
        "g",
        "r"
      ],
      [
        "re",
        "n"
      ],
      [
        "ol",
        "low"
      ],
      [
        "Ġ",
        "6"
      ],
      [
        "Ġwor",
        "ld"
      ],
      [
        "vern",
        "ment"
      ],
      [
        "Ġw",
        "r"
      ],
      [
        "Ġh",
        "ome"
      ],
      [
        "Ġha",
        "nd"
      ],
      [
        "Ġs",
        "et"
      ],
      [
        "it",
        "s"
      ],
      [
        "a",
        "ir"
      ],
      [
        "oin",
        "t"
      ],
      [
        "Ġ",
        ")"
      ],
      [
        "u",
        "ally"
      ],
      [
        "l",
        "and"
      ],
      [
        "Ġth",
        "ink"
      ],
      [
        "e",
        "red"
      ],
      [
        "t",
        "ain"
      ],
      [
        "Ġte",
        "am"
      ],
      [
        "ol",
        "og"
      ],
      [
        "u",
        "res"
      ],
      [
        "Ġth",
        "ings"
      ],
      [
        "ĠO",
        "ne"
      ],
      [
        "l",
        "ed"
      ],
      [
        "an",
        "k"
      ],
      [
        "-",
        "-"
      ],
      [
        "l",
        "i"
      ],
      [
        "Ġh",
        "igh"
      ],
      [
        "Ġ",
        "ent"
      ],
      [
        "Ġsu",
        "b"
      ],
      [
        "j",
        "ect"
      ],
      [
        "a",
        "z"
      ],
      [
        "Ġst",
        "ud"
      ],
      [
        "Ġr",
        "ight"
      ],
      [
        "ar",
        "s"
      ],
      [
        "ers",
        "on"
      ],
      [
        "o",
        "x"
      ],
      [
        "Ġm",
        "in"
      ],
      [
        "is",
        "ts"
      ],
      [
        "Ġagain",
        "st"
      ],
      [
        "Ġfriend",
        "s"
      ],
      [
        "Ġl",
        "ot"
      ],
      [
        "Ġch",
        "ar"
      ],
      [
        "Ġg",
        "ot"
      ],
      [
        "we",
        "en"
      ],
      [
        "ĠB",
        "en"
      ],
      [
        "Ġg",
        "u"
      ],
      [
        "Ġth",
        "ree"
      ],
      [
        "Ġdiff",
        "ere"
      ],
      [
        "a",
        "h"
      ],
      [
        "ad",
        "y"
      ],
      [
        "Ġa",
        "way"
      ],
      [
        "em",
        "ent"
      ],
      [
        "Ġe",
        "ff"
      ],
      [
        "rou",
        "p"
      ],
      [
        "am",
        "es"
      ],
      [
        "il",
        "ity"
      ],
      [
        "p",
        "r"
      ],
      [
        "Ġb",
        "oth"
      ],
      [
        "Ġc",
        "are"
      ],
      [
        "pp",
        "ed"
      ],
      [
        "00",
        "0"
      ],
      [
        "Ġre",
        "al"
      ],
      [
        "Ġle",
        "ad"
      ],
      [
        "o",
        "v"
      ],
      [
        "Ġas",
        "ked"
      ],
      [
        "Ġf",
        "am"
      ],
      [
        "Ġo",
        "b"
      ],
      [
        "Ġwe",
        "e"
      ],
      [
        "ĠA",
        "n"
      ],
      [
        "Ġfe",
        "el"
      ],
      [
        "el",
        "t"
      ],
      [
        "Ġto",
        "ld"
      ],
      [
        "Ġin",
        "st"
      ],
      [
        "Ġn",
        "um"
      ],
      [
        "Ġbet",
        "ween"
      ],
      [
        "ot",
        "e"
      ],
      [
        "Ġin",
        "ter"
      ],
      [
        "Ġex",
        "pl"
      ],
      [
        "g",
        "ed"
      ],
      [
        ")",
        ","
      ],
      [
        "c",
        "om"
      ],
      [
        "Ġbe",
        "l"
      ],
      [
        "st",
        "em"
      ],
      [
        "Ġus",
        "ed"
      ],
      [
        "ar",
        "ch"
      ],
      [
        "h",
        "ip"
      ],
      [
        "ill",
        "ion"
      ],
      [
        "Ġs",
        "ame"
      ],
      [
        "Ġcon",
        "f"
      ],
      [
        "em",
        "ber"
      ],
      [
        "Ġres",
        "p"
      ],
      [
        "Ġgo",
        "vernment"
      ],
      [
        "Ġdis",
        "c"
      ],
      [
        "id",
        "ed"
      ],
      [
        "Ġex",
        "c"
      ],
      [
        "ĠR",
        "e"
      ],
      [
        "ri",
        "ed"
      ],
      [
        "is",
        "m"
      ],
      [
        "at",
        "her"
      ],
      [
        "Ġs",
        "ign"
      ],
      [
        "ment",
        "s"
      ],
      [
        "or",
        "k"
      ],
      [
        "Ġs",
        "im"
      ],
      [
        "e",
        "ver"
      ],
      [
        "at",
        "s"
      ],
      [
        "Ġe",
        "ach"
      ],
      [
        "or",
        "n"
      ],
      [
        "Ġ",
        "ed"
      ],
      [
        "Ġg",
        "reat"
      ],
      [
        "uc",
        "k"
      ],
      [
        "w",
        "ays"
      ],
      [
        "ĠA",
        "l"
      ],
      [
        "Ġoff",
        "ic"
      ],
      [
        "Ġre",
        "f"
      ],
      [
        "i",
        "o"
      ],
      [
        "ut",
        "ion"
      ],
      [
        "Ġc",
        "ur"
      ],
      [
        "Ġf",
        "ollow"
      ],
      [
        "Ġ",
        "7"
      ],
      [
        "?",
        "\""
      ],
      [
        "vel",
        "op"
      ],
      [
        "Ġne",
        "ver"
      ],
      [
        "ĠA",
        "s"
      ],
      [
        "Ġt",
        "er"
      ],
      [
        "ĠA",
        "r"
      ],
      [
        "Ġop",
        "en"
      ],
      [
        "ĠL",
        "e"
      ],
      [
        "an",
        "ts"
      ],
      [
        "Ġpro",
        "v"
      ],
      [
        "al",
        "e"
      ],
      [
        "Ġre",
        "t"
      ],
      [
        "i",
        "el"
      ],
      [
        ".",
        "["
      ],
      [
        "o",
        "ot"
      ],
      [
        "Ġf",
        "r"
      ],
      [
        "Ġc",
        "le"
      ],
      [
        "in",
        "s"
      ],
      [
        "il",
        "ed"
      ],
      [
        "us",
        "s"
      ],
      [
        "Ġl",
        "aw"
      ],
      [
        "im",
        "es"
      ],
      [
        "ĠS",
        "p"
      ],
      [
        "Ġc",
        "re"
      ],
      [
        "Ġtr",
        "ans"
      ],
      [
        "Ġre",
        "ally"
      ],
      [
        "v",
        "ent"
      ],
      [
        "Ġhe",
        "re"
      ],
      [
        "ĠT",
        "om"
      ],
      [
        "y",
        "ing"
      ],
      [
        "ĠJ",
        "o"
      ],
      [
        "d",
        "uc"
      ],
      [
        "ak",
        "es"
      ],
      [
        "Ġc",
        "our"
      ],
      [
        "Ġc",
        "he"
      ],
      [
        "Ġm",
        "od"
      ],
      [
        "Ġ1",
        "0"
      ],
      [
        "Ġc",
        "ame"
      ],
      [
        "et",
        "s"
      ],
      [
        "Ġm",
        "ed"
      ],
      [
        "Ġg",
        "roup"
      ],
      [
        "Ġn",
        "amed"
      ],
      [
        "Ġstart",
        "ed"
      ],
      [
        "an",
        "y"
      ],
      [
        "r",
        "ic"
      ],
      [
        "i",
        "ent"
      ],
      [
        "ĠC",
        "om"
      ],
      [
        "Ġb",
        "est"
      ],
      [
        "Ġd",
        "uring"
      ],
      [
        "er",
        "n"
      ],
      [
        "Ġex",
        "t"
      ],
      [
        "iz",
        "ed"
      ],
      [
        "c",
        "ent"
      ],
      [
        "Ġc",
        "ap"
      ],
      [
        "e",
        "f"
      ],
      [
        "Ġf",
        "elt"
      ],
      [
        "Ġ",
        "8"
      ],
      [
        "Ġrep",
        "ort"
      ],
      [
        "p",
        "h"
      ],
      [
        "Ġsy",
        "stem"
      ],
      [
        "Ġto",
        "get"
      ],
      [
        "Ġtoget",
        "her"
      ],
      [
        "Ġ",
        "<"
      ],
      [
        "ul",
        "ar"
      ],
      [
        "ĠS",
        "h"
      ],
      [
        "in",
        "es"
      ],
      [
        "I",
        "t"
      ],
      [
        "is",
        "hed"
      ],
      [
        "ĠI",
        "s"
      ],
      [
        "at",
        "t"
      ],
      [
        "Ġloo",
        "k"
      ],
      [
        "Ġc",
        "ent"
      ],
      [
        "Ġal",
        "ways"
      ],
      [
        "Ġp",
        "ublic"
      ],
      [
        "al",
        "th"
      ],
      [
        "Ġtoo",
        "k"
      ],
      [
        "is",
        "ion"
      ],
      [
        "ire",
        "ct"
      ],
      [
        "Ġcom",
        "e"
      ],
      [
        "d",
        "er"
      ],
      [
        "Ġf",
        "ar"
      ],
      [
        "Ġcont",
        "in"
      ],
      [
        "Ġl",
        "ar"
      ],
      [
        "un",
        "k"
      ],
      [
        "as",
        "h"
      ],
      [
        "ĠC",
        "l"
      ],
      [
        "ce",
        "pt"
      ],
      [
        "g",
        "g"
      ],
      [
        "Ġt",
        "urn"
      ],
      [
        "W",
        "h"
      ],
      [
        "Ġhe",
        "ad"
      ],
      [
        "Ġo",
        "ld"
      ],
      [
        "i",
        "et"
      ],
      [
        "Ġw",
        "om"
      ],
      [
        "Ġt",
        "al"
      ],
      [
        "m",
        "ed"
      ],
      [
        "Ġ",
        "9"
      ],
      [
        "e",
        "e"
      ],
      [
        "Ġex",
        "per"
      ],
      [
        "i",
        "ence"
      ],
      [
        "Ġdiffere",
        "nt"
      ],
      [
        "Ġd",
        "et"
      ],
      [
        "Ġl",
        "oc"
      ],
      [
        "or",
        "ts"
      ],
      [
        "Ġne",
        "xt"
      ],
      [
        "y",
        "p"
      ],
      [
        "c",
        "on"
      ],
      [
        "en",
        "se"
      ],
      [
        "Ġsupp",
        "ort"
      ],
      [
        "Ġde",
        "velop"
      ],
      [
        "Ġw",
        "ar"
      ],
      [
        "Ġsm",
        "all"
      ],
      [
        "ut",
        "h"
      ],
      [
        "Ġbet",
        "ter"
      ],
      [
        "th",
        "ing"
      ],
      [
        "ch",
        "ool"
      ],
      [
        "ic",
        "es"
      ],
      [
        "ro",
        "ss"
      ],
      [
        "Ġh",
        "ard"
      ],
      [
        "Ġfe",
        "w"
      ],
      [
        "a",
        "j"
      ],
      [
        "Ġan",
        "other"
      ],
      [
        "i",
        "vers"
      ],
      [
        "Ġloo",
        "ked"
      ],
      [
        "Ġb",
        "oy"
      ],
      [
        "Ġm",
        "et"
      ],
      [
        "i",
        "red"
      ],
      [
        "m",
        "in"
      ],
      [
        "Ġst",
        "ate"
      ],
      [
        "Ġpl",
        "an"
      ],
      [
        "is",
        "ed"
      ],
      [
        "c",
        "es"
      ],
      [
        "Ġcall",
        "ed"
      ],
      [
        "Ġr",
        "an"
      ],
      [
        "Ġle",
        "g"
      ],
      [
        "n",
        "er"
      ],
      [
        "Ġp",
        "erson"
      ],
      [
        "Ġu",
        "nt"
      ],
      [
        "Ġch",
        "ild"
      ],
      [
        "Ġs",
        "l"
      ],
      [
        "Ġbel",
        "ie"
      ],
      [
        "Ġmon",
        "th"
      ],
      [
        "Ġre",
        "le"
      ],
      [
        "Ġg",
        "ener"
      ],
      [
        "Ġs",
        "ince"
      ],
      [
        "t",
        "ed"
      ],
      [
        "Ġs",
        "k"
      ],
      [
        "ĠS",
        "o"
      ],
      [
        "ag",
        "es"
      ],
      [
        "ord",
        "ing"
      ],
      [
        "Ġde",
        "p"
      ],
      [
        "c",
        "ed"
      ],
      [
        "Ġd",
        "on"
      ],
      [
        "B",
        "ut"
      ],
      [
        "Ġp",
        "ass"
      ],
      [
        "Ġb",
        "us"
      ],
      [
        "b",
        "ers"
      ],
      [
        "Ġ",
        "ide"
      ],
      [
        "g",
        "er"
      ],
      [
        "n",
        "a"
      ],
      [
        "i",
        "ally"
      ],
      [
        "Ġis",
        "s"
      ],
      [
        "ut",
        "e"
      ],
      [
        "ic",
        "ally"
      ],
      [
        "Ġg",
        "l"
      ],
      [
        "Ġs",
        "w"
      ],
      [
        "Ġle",
        "t"
      ],
      [
        "Ġpol",
        "it"
      ],
      [
        "ĠI",
        "f"
      ],
      [
        "Ġin",
        "f"
      ],
      [
        "l",
        "ing"
      ],
      [
        "Ġsec",
        "ond"
      ],
      [
        "ĠF",
        "r"
      ],
      [
        "i",
        "er"
      ],
      [
        "ĠTr",
        "ump"
      ],
      [
        "Ġpr",
        "ot"
      ],
      [
        "W",
        "e"
      ],
      [
        "Ġf",
        "il"
      ],
      [
        "Ġg",
        "iv"
      ],
      [
        "Ġw",
        "al"
      ],
      [
        "Ġf",
        "act"
      ],
      [
        "Ġre",
        "qu"
      ],
      [
        "Ġl",
        "ist"
      ],
      [
        "iel",
        "d"
      ],
      [
        "re",
        "t"
      ],
      [
        "Ġlo",
        "ved"
      ],
      [
        "Ġl",
        "ife"
      ],
      [
        "Ġimp",
        "ort"
      ],
      [
        "Ġp",
        "ower"
      ],
      [
        "Ġpl",
        "ace"
      ],
      [
        "Ġm",
        "ight"
      ],
      [
        "Ġthough",
        "t"
      ],
      [
        "Ġunt",
        "il"
      ],
      [
        "s",
        "p"
      ],
      [
        "Ġar",
        "t"
      ],
      [
        "n",
        "y"
      ],
      [
        "Ġo",
        "pp"
      ],
      [
        "Ġd",
        "r"
      ],
      [
        "Ġp",
        "ar"
      ],
      [
        "Ġs",
        "oc"
      ],
      [
        "Ġke",
        "ep"
      ],
      [
        "n",
        "ess"
      ],
      [
        "au",
        "gh"
      ],
      [
        "os",
        "ed"
      ],
      [
        "od",
        "y"
      ],
      [
        "Ġd",
        "ist"
      ],
      [
        "Ġbu",
        "ild"
      ],
      [
        "he",
        "re"
      ],
      [
        "ere",
        "st"
      ],
      [
        "iz",
        "e"
      ],
      [
        "Ġ",
        "0"
      ],
      [
        "c",
        "k"
      ],
      [
        "Ġto",
        "p"
      ],
      [
        "Ġplay",
        "ing"
      ],
      [
        "v",
        "iew"
      ],
      [
        "Ġc",
        "amp"
      ],
      [
        "ĠF",
        "or"
      ],
      [
        "Ġm",
        "em"
      ],
      [
        "Ġre",
        "ad"
      ],
      [
        "Ġp",
        "oint"
      ],
      [
        "ĠI",
        "m"
      ],
      [
        "e",
        "x"
      ],
      [
        "Ġp",
        "oss"
      ],
      [
        "Ġ1",
        "8"
      ],
      [
        "Ġw",
        "ater"
      ],
      [
        "ec",
        "ts"
      ],
      [
        "igh",
        "ts"
      ],
      [
        "Ġbe",
        "h"
      ],
      [
        "Ġe",
        "l"
      ],
      [
        "Ġinv",
        "est"
      ],
      [
        "at",
        "a"
      ],
      [
        "Ġcomm",
        "un"
      ],
      [
        "Ġm",
        "ar"
      ],
      [
        "Ġd",
        "em"
      ],
      [
        "Ġre",
        "st"
      ],
      [
        "in",
        "ess"
      ],
      [
        "Ġcon",
        "c"
      ],
      [
        "p",
        "le"
      ],
      [
        "Ġl",
        "ess"
      ],
      [
        "r",
        "al"
      ],
      [
        "Ġall",
        "ow"
      ],
      [
        "b",
        "e"
      ],
      [
        "t",
        "en"
      ],
      [
        "Ġnum",
        "ber"
      ],
      [
        "it",
        "al"
      ],
      [
        "Ġf",
        "our"
      ],
      [
        "o",
        "k"
      ],
      [
        "Ġcomp",
        "le"
      ],
      [
        "one",
        "y"
      ],
      [
        "Ġb",
        "re"
      ],
      [
        "Ġinclud",
        "ing"
      ],
      [
        "ĠU",
        "S"
      ],
      [
        "Ġse",
        "em"
      ],
      [
        "Ġk",
        "ind"
      ],
      [
        "Ġsp",
        "e"
      ],
      [
        "Ġsm",
        "iled"
      ],
      [
        "Ġd",
        "irect"
      ],
      [
        "2",
        "0"
      ],
      [
        "d",
        "en"
      ],
      [
        "b",
        "y"
      ],
      [
        "l",
        "ess"
      ],
      [
        "Ġd",
        "ont"
      ],
      [
        "Ġqu",
        "est"
      ],
      [
        "Ġst",
        "at"
      ],
      [
        "Ġwith",
        "out"
      ],
      [
        "Ġle",
        "ft"
      ],
      [
        "c",
        "ess"
      ],
      [
        "ect",
        "ed"
      ],
      [
        "Ġb",
        "ro"
      ],
      [
        "Ġfam",
        "ily"
      ],
      [
        "Ġm",
        "il"
      ],
      [
        "Ġp",
        "ost"
      ],
      [
        "re",
        "nt"
      ],
      [
        "Ġinc",
        "re"
      ],
      [
        "Ġh",
        "um"
      ],
      [
        "Ġst",
        "and"
      ],
      [
        "Ġp",
        "ri"
      ],
      [
        "ĠB",
        "l"
      ],
      [
        "Ġb",
        "ird"
      ],
      [
        "H",
        "e"
      ],
      [
        "ate",
        "ly"
      ],
      [
        "Ġp",
        "op"
      ],
      [
        "v",
        "ice"
      ],
      [
        "ĠTim",
        "my"
      ],
      [
        "an",
        "e"
      ],
      [
        "Ġse",
        "ason"
      ],
      [
        "Ġa",
        "v"
      ],
      [
        "O",
        "ne"
      ],
      [
        "Ġcont",
        "ro"
      ],
      [
        "ĠR",
        "ep"
      ],
      [
        "Ġp",
        "rom"
      ],
      [
        "ne",
        "w"
      ],
      [
        "Th",
        "is"
      ],
      [
        "Ġm",
        "illion"
      ],
      [
        "ĠS",
        "c"
      ],
      [
        "Ġm",
        "ove"
      ],
      [
        "Ġl",
        "ater"
      ],
      [
        "gr",
        "am"
      ],
      [
        "Ġf",
        "ore"
      ],
      [
        "re",
        "en"
      ],
      [
        "a",
        "im"
      ],
      [
        "am",
        "a"
      ],
      [
        "Ġpro",
        "ble"
      ],
      [
        "Ġspec",
        "ial"
      ],
      [
        "g",
        "y"
      ],
      [
        "ou",
        "th"
      ],
      [
        "s",
        "on"
      ],
      [
        "ĠA",
        "t"
      ],
      [
        "b",
        "r"
      ],
      [
        "Ġper",
        "cent"
      ],
      [
        "e",
        "ad"
      ],
      [
        "Ġm",
        "ark"
      ],
      [
        "Ġw",
        "in"
      ],
      [
        "Ġ",
        "Z"
      ],
      [
        "Ġdec",
        "ided"
      ],
      [
        "Ġm",
        "ain"
      ],
      [
        "in",
        "al"
      ],
      [
        "od",
        "e"
      ],
      [
        "ol",
        "l"
      ],
      [
        "or",
        "th"
      ],
      [
        "Ġpart",
        "ic"
      ],
      [
        "Ġd",
        "el"
      ],
      [
        "Ġb",
        "all"
      ],
      [
        "Ġint",
        "erest"
      ],
      [
        "Ġout",
        "side"
      ],
      [
        "ĠI",
        "nd"
      ],
      [
        "ĠJo",
        "hn"
      ],
      [
        "ĠW",
        "hen"
      ],
      [
        "Ġle",
        "arn"
      ],
      [
        "Ġs",
        "chool"
      ],
      [
        "Ġd",
        "ri"
      ],
      [
        "con",
        "om"
      ],
      [
        "Ġhapp",
        "en"
      ],
      [
        "ain",
        "s"
      ],
      [
        "Ġcount",
        "ry"
      ],
      [
        "es",
        "p"
      ],
      [
        "Ġimport",
        "ant"
      ],
      [
        "c",
        "hed"
      ],
      [
        "Ġin",
        "form"
      ],
      [
        "ĠTh",
        "at"
      ],
      [
        "ĠThe",
        "re"
      ],
      [
        "aj",
        "or"
      ],
      [
        "Ġm",
        "o"
      ],
      [
        "Ġst",
        "ory"
      ],
      [
        "ec",
        "hn"
      ],
      [
        "Ġan",
        "n"
      ],
      [
        "Ġwee",
        "k"
      ],
      [
        "ĠC",
        "an"
      ],
      [
        "Ġatt",
        "ack"
      ],
      [
        "i",
        "ver"
      ],
      [
        "ri",
        "es"
      ],
      [
        "ab",
        "ly"
      ],
      [
        "ĠH",
        "ow"
      ],
      [
        "at",
        "ure"
      ],
      [
        "us",
        "ed"
      ],
      [
        "Ġh",
        "ouse"
      ],
      [
        "ĠAmeric",
        "an"
      ],
      [
        "id",
        "er"
      ],
      [
        "Ġe",
        "le"
      ],
      [
        "Ġh",
        "op"
      ],
      [
        "Ġfor",
        "m"
      ],
      [
        "'",
        "re"
      ],
      [
        "ain",
        "ed"
      ],
      [
        "Ġp",
        "ark"
      ],
      [
        "Ġp",
        "os"
      ],
      [
        "ent",
        "ly"
      ],
      [
        "Ġs",
        "ing"
      ],
      [
        "Ġs",
        "ad"
      ],
      [
        "Ġv",
        "al"
      ],
      [
        "Ġv",
        "is"
      ],
      [
        "Ġc",
        "ase"
      ],
      [
        "u",
        "ed"
      ],
      [
        "v",
        "ious"
      ],
      [
        "Ġt",
        "ell"
      ],
      [
        "Ġre",
        "ce"
      ],
      [
        "Ġth",
        "ing"
      ],
      [
        "Ġc",
        "or"
      ],
      [
        "in",
        "a"
      ],
      [
        "Ġl",
        "ove"
      ],
      [
        "Ġwh",
        "y"
      ],
      [
        "ĠUn",
        "ited"
      ],
      [
        "_",
        "_"
      ],
      [
        "Ġm",
        "aking"
      ],
      [
        "Ġus",
        "ing"
      ],
      [
        "l",
        "ine"
      ],
      [
        "ot",
        "t"
      ],
      [
        "r",
        "ap"
      ],
      [
        "Ġg",
        "ive"
      ],
      [
        "Ġab",
        "le"
      ],
      [
        "st",
        "and"
      ],
      [
        "ion",
        "al"
      ],
      [
        "enc",
        "y"
      ],
      [
        "Ġdid",
        "n"
      ],
      [
        "Ġdes",
        "ign"
      ],
      [
        "Ġcl",
        "ass"
      ],
      [
        "Ġp",
        "ur"
      ],
      [
        "Ġm",
        "at"
      ],
      [
        "re",
        "m"
      ],
      [
        "Ġe",
        "ver"
      ],
      [
        "Ġp",
        "ay"
      ],
      [
        "Ġhis",
        "t"
      ],
      [
        "i",
        "ans"
      ],
      [
        "Ġe",
        "as"
      ],
      [
        "ur",
        "y"
      ],
      [
        "Ġpol",
        "ice"
      ],
      [
        "Ġb",
        "o"
      ],
      [
        "Ġret",
        "urn"
      ],
      [
        "Ġpro",
        "du"
      ],
      [
        "Ġm",
        "oney"
      ],
      [
        "Ġpre",
        "t"
      ],
      [
        "Ġpro",
        "gram"
      ],
      [
        "Ġsa",
        "f"
      ],
      [
        "oc",
        "r"
      ],
      [
        "1",
        "0"
      ],
      [
        "er",
        "tain"
      ],
      [
        "ĠB",
        "r"
      ],
      [
        "Ġad",
        "v"
      ],
      [
        "in",
        "t"
      ],
      [
        "Ġme",
        "an"
      ],
      [
        "el",
        "s"
      ],
      [
        "ru",
        "ct"
      ],
      [
        "Ġrec",
        "ord"
      ],
      [
        "Ġro",
        "om"
      ],
      [
        "Ġdo",
        "g"
      ],
      [
        "Ġor",
        "gan"
      ],
      [
        "Ġplay",
        "ed"
      ],
      [
        "Ġe",
        "conom"
      ],
      [
        "a",
        "ff"
      ],
      [
        "Ġn",
        "ame"
      ],
      [
        "r",
        "ation"
      ],
      [
        "Ġf",
        "ree"
      ],
      [
        "r",
        "act"
      ],
      [
        "u",
        "red"
      ],
      [
        "Ġ",
        "Q"
      ],
      [
        "Ġ",
        "ve"
      ],
      [
        "ard",
        "s"
      ],
      [
        "Ġs",
        "ol"
      ],
      [
        "olog",
        "y"
      ],
      [
        "Ġp",
        "at"
      ],
      [
        "Ġle",
        "vel"
      ],
      [
        "Ġg",
        "row"
      ],
      [
        "Ġa",
        "ir"
      ],
      [
        "ĠM",
        "ay"
      ],
      [
        "The",
        "y"
      ],
      [
        "er",
        "v"
      ],
      [
        "Ġst",
        "re"
      ],
      [
        "ĠP",
        "ro"
      ],
      [
        "Ġo",
        "per"
      ],
      [
        "'",
        "m"
      ],
      [
        "ĠM",
        "ar"
      ],
      [
        "Ġch",
        "ange"
      ],
      [
        "re",
        "ady"
      ],
      [
        "iv",
        "es"
      ],
      [
        "A",
        "s"
      ],
      [
        "Ġp",
        "o"
      ],
      [
        "cc",
        "ess"
      ],
      [
        "Ġj",
        "ob"
      ],
      [
        "a",
        "pp"
      ],
      [
        "at",
        "ic"
      ],
      [
        "Ġ",
        "est"
      ],
      [
        "Ġm",
        "us"
      ],
      [
        "Ġ19",
        "9"
      ],
      [
        "Ġm",
        "ust"
      ],
      [
        "Ġm",
        "ajor"
      ],
      [
        "Ġpro",
        "cess"
      ],
      [
        "ivers",
        "ity"
      ],
      [
        "i",
        "ke"
      ],
      [
        "Ġlar",
        "ge"
      ],
      [
        "Ġb",
        "it"
      ],
      [
        "Ġb",
        "as"
      ],
      [
        "Ġapp",
        "ro"
      ],
      [
        "Ġc",
        "ity"
      ],
      [
        "ec",
        "h"
      ],
      [
        "ĠA",
        "d"
      ],
      [
        "at",
        "or"
      ],
      [
        "Ġha",
        "ving"
      ],
      [
        "i",
        "k"
      ],
      [
        "Ġd",
        "ays"
      ],
      [
        "Ġhe",
        "alth"
      ],
      [
        "Ġ",
        ":"
      ],
      [
        "ĠP",
        "h"
      ],
      [
        "Ġen",
        "ough"
      ],
      [
        "Ġf",
        "ac"
      ],
      [
        "Ġch",
        "ang"
      ],
      [
        "pl",
        "oy"
      ],
      [
        "ĠA",
        "ll"
      ],
      [
        "Ġs",
        "it"
      ],
      [
        "Ġ1",
        "2"
      ],
      [
        "ĠCh",
        "r"
      ],
      [
        "Ġal",
        "ready"
      ],
      [
        "ĠB",
        "e"
      ],
      [
        "Ġf",
        "ull"
      ],
      [
        "Ġm",
        "iss"
      ],
      [
        "s",
        "c"
      ],
      [
        "ne",
        "y"
      ],
      [
        "ur",
        "al"
      ],
      [
        "Ġd",
        "ata"
      ],
      [
        "ar",
        "ing"
      ],
      [
        "Ġ1",
        "5"
      ],
      [
        "Ġp",
        "ast"
      ],
      [
        "Ġpro",
        "f"
      ],
      [
        "Ġcon",
        "st"
      ],
      [
        "ent",
        "ion"
      ],
      [
        "ĠS",
        "am"
      ],
      [
        "Ġv",
        "ar"
      ],
      [
        "is",
        "ter"
      ],
      [
        "ĠI",
        "ts"
      ],
      [
        "Ġk",
        "ill"
      ],
      [
        "le",
        "y"
      ],
      [
        "Ġcur",
        "rent"
      ],
      [
        "Ġcl",
        "aim"
      ],
      [
        "Ġt",
        "echn"
      ],
      [
        "a",
        "ign"
      ],
      [
        "Ġstr",
        "ong"
      ],
      [
        "Ġbus",
        "iness"
      ],
      [
        "re",
        "w"
      ],
      [
        "Ġoffic",
        "ial"
      ],
      [
        "ĠO",
        "b"
      ],
      [
        "Ġb",
        "ad"
      ],
      [
        "i",
        "or"
      ],
      [
        "g",
        "in"
      ],
      [
        "t",
        "o"
      ],
      [
        "Ġsu",
        "re"
      ],
      [
        "Ġg",
        "ave"
      ],
      [
        "Ġse",
        "en"
      ],
      [
        "st",
        "er"
      ],
      [
        "Ġan",
        "im"
      ],
      [
        "Ġre",
        "se"
      ],
      [
        "Ġk",
        "new"
      ],
      [
        "Ġc",
        "ost"
      ],
      [
        "Ġcomp",
        "any"
      ],
      [
        "Ġg",
        "ames"
      ],
      [
        "us",
        "h"
      ],
      [
        "Ġn",
        "ight"
      ],
      [
        "Ġe",
        "lect"
      ],
      [
        "Ġl",
        "ine"
      ],
      [
        "Ġt",
        "yp"
      ],
      [
        "Ġwor",
        "d"
      ],
      [
        "Ġwom",
        "en"
      ],
      [
        "ĠO",
        "n"
      ],
      [
        "Ġl",
        "and"
      ],
      [
        "Ġide",
        "a"
      ],
      [
        "on",
        "y"
      ],
      [
        "Ġper",
        "form"
      ],
      [
        "ra",
        "w"
      ],
      [
        "Ġm",
        "en"
      ],
      [
        "Ġv",
        "iew"
      ],
      [
        "c",
        "o"
      ],
      [
        "Ġinform",
        "ation"
      ],
      [
        "Ġin",
        "side"
      ],
      [
        "Ġdo",
        "ing"
      ],
      [
        "Ġchar",
        "ac"
      ],
      [
        "Ġa",
        "ff"
      ],
      [
        "uth",
        "or"
      ],
      [
        "a",
        "it"
      ],
      [
        "er",
        "ing"
      ],
      [
        "al",
        "f"
      ],
      [
        "ĠH",
        "is"
      ],
      [
        "t",
        "he"
      ],
      [
        "Ġed",
        "it"
      ],
      [
        "Ġpres",
        "ident"
      ],
      [
        "Ġin",
        "s"
      ],
      [
        "Ġse",
        "ver"
      ],
      [
        "Ġt",
        "est"
      ],
      [
        "Ġv",
        "ide"
      ],
      [
        "ain",
        "ing"
      ],
      [
        "Ġne",
        "ar"
      ],
      [
        "as",
        "es"
      ],
      [
        "Ġpro",
        "p"
      ],
      [
        "S",
        "t"
      ],
      [
        "e",
        "an"
      ],
      [
        "Ġchild",
        "ren"
      ],
      [
        "Ġal",
        "ong"
      ],
      [
        "ac",
        "y"
      ],
      [
        "Ġ",
        "/"
      ],
      [
        "Ġexc",
        "ited"
      ],
      [
        "amp",
        "le"
      ],
      [
        "L",
        "ily"
      ],
      [
        "Ġd",
        "one"
      ],
      [
        "Ġcamp",
        "aign"
      ],
      [
        "e",
        "b"
      ],
      [
        "Ġpro",
        "duc"
      ],
      [
        "ĠCom",
        "m"
      ],
      [
        "ic",
        "y"
      ],
      [
        "r",
        "or"
      ],
      [
        "Ġbec",
        "ome"
      ],
      [
        "ĠP",
        "l"
      ],
      [
        "Ġle",
        "ast"
      ],
      [
        "Ġe",
        "arly"
      ],
      [
        "Ġli",
        "ked"
      ],
      [
        "Ġtr",
        "y"
      ],
      [
        "id",
        "es"
      ],
      [
        "Ġwor",
        "king"
      ],
      [
        "u",
        "ff"
      ],
      [
        "ĠH",
        "er"
      ],
      [
        "Ġof",
        "ten"
      ],
      [
        "r",
        "on"
      ],
      [
        "ot",
        "s"
      ],
      [
        "Ġt",
        "ax"
      ],
      [
        "t",
        "t"
      ],
      [
        "b",
        "s"
      ],
      [
        "ect",
        "ion"
      ],
      [
        "is",
        "on"
      ],
      [
        "is",
        "ing"
      ],
      [
        "Ġt",
        "ried"
      ],
      [
        "in",
        "ed"
      ],
      [
        "Ġh",
        "old"
      ],
      [
        "Ġsever",
        "al"
      ],
      [
        "Ġev",
        "ent"
      ],
      [
        "Ġ-",
        "-"
      ],
      [
        "Y",
        "ou"
      ],
      [
        "ĠE",
        "u"
      ],
      [
        "pt",
        "ion"
      ],
      [
        "Ġbec",
        "ame"
      ],
      [
        "Ġb",
        "ook"
      ],
      [
        "Ġh",
        "ug"
      ],
      [
        "Ġs",
        "ide"
      ],
      [
        "a",
        "ut"
      ],
      [
        "or",
        "ies"
      ],
      [
        "ap",
        "s"
      ],
      [
        "Ġpolit",
        "ical"
      ],
      [
        "in",
        "c"
      ],
      [
        "ar",
        "a"
      ],
      [
        "al",
        "ity"
      ],
      [
        "ur",
        "ity"
      ],
      [
        "g",
        "es"
      ],
      [
        "Ġsu",
        "ccess"
      ],
      [
        "Ġyou",
        "ng"
      ],
      [
        "un",
        "e"
      ],
      [
        "i",
        "um"
      ],
      [
        "Ġin",
        "tern"
      ],
      [
        "m",
        "ost"
      ],
      [
        "if",
        "ied"
      ],
      [
        "Ġhe",
        "ard"
      ],
      [
        "Ġfor",
        "mer"
      ],
      [
        "ĠO",
        "r"
      ],
      [
        "ĠP",
        "res"
      ],
      [
        "an",
        "n"
      ],
      [
        "Ġl",
        "a"
      ],
      [
        "Ġre",
        "pl"
      ],
      [
        "Ġor",
        "der"
      ],
      [
        "ĠC",
        "on"
      ],
      [
        "ak",
        "en"
      ],
      [
        "Ġc",
        "rit"
      ],
      [
        "Ġ1",
        "1"
      ],
      [
        "on",
        "es"
      ],
      [
        "o",
        "ice"
      ],
      [
        "ĠP",
        "r"
      ],
      [
        "Ġf",
        "ood"
      ],
      [
        "Ġt",
        "imes"
      ],
      [
        "ed",
        "er"
      ],
      [
        "Ġe",
        "ar"
      ],
      [
        "Ġapp",
        "ear"
      ],
      [
        "Ġf",
        "ive"
      ],
      [
        "Ġo",
        "cc"
      ],
      [
        "Ġloo",
        "king"
      ],
      [
        "Ġhum",
        "an"
      ],
      [
        "ou",
        "d"
      ],
      [
        "Ġre",
        "d"
      ],
      [
        "ĠSt",
        "ates"
      ],
      [
        "Ġor",
        "ig"
      ],
      [
        "end",
        "ed"
      ],
      [
        "Ġde",
        "b"
      ],
      [
        "b",
        "all"
      ],
      [
        "i",
        "ol"
      ],
      [
        "Ġunder",
        "stand"
      ],
      [
        "Ġde",
        "al"
      ],
      [
        "ore",
        "d"
      ],
      [
        "Ġme",
        "et"
      ],
      [
        "Ġqu",
        "ick"
      ],
      [
        "Ġother",
        "s"
      ],
      [
        "Ġkn",
        "own"
      ],
      [
        "it",
        "her"
      ],
      [
        "Ġf",
        "und"
      ],
      [
        "ĠM",
        "om"
      ],
      [
        "Ġf",
        "av"
      ],
      [
        "id",
        "s"
      ],
      [
        "ĠRep",
        "ublic"
      ],
      [
        "ĠM",
        "c"
      ],
      [
        "Ġp",
        "ot"
      ],
      [
        "ĠM",
        "r"
      ],
      [
        "5",
        "0"
      ],
      [
        "ĠN",
        "o"
      ],
      [
        "w",
        "are"
      ],
      [
        "Ġen",
        "g"
      ],
      [
        "ĠC",
        "ol"
      ],
      [
        "iv",
        "ed"
      ],
      [
        "Ġcl",
        "ose"
      ],
      [
        "Ġm",
        "or"
      ],
      [
        "Ġp",
        "ress"
      ],
      [
        "Ġg",
        "round"
      ],
      [
        "Ġact",
        "ually"
      ],
      [
        "Ġnew",
        "s"
      ],
      [
        "ward",
        "s"
      ],
      [
        "Ġw",
        "rit"
      ],
      [
        "Ġe",
        "y"
      ],
      [
        "ĠS",
        "y"
      ],
      [
        "Ġac",
        "ross"
      ],
      [
        "1",
        "9"
      ],
      [
        "o",
        "ber"
      ],
      [
        "Ġ",
        "]"
      ],
      [
        "le",
        "t"
      ],
      [
        "ect",
        "ive"
      ],
      [
        "Ġ",
        "vers"
      ],
      [
        "Ġbe",
        "gan"
      ],
      [
        "ĠEu",
        "rop"
      ],
      [
        "Ġf",
        "ace"
      ],
      [
        "Ġs",
        "ound"
      ],
      [
        "Ġh",
        "our"
      ],
      [
        "Ġmark",
        "et"
      ],
      [
        "Ġt",
        "re"
      ],
      [
        "re",
        "ed"
      ],
      [
        "Ġan",
        "t"
      ],
      [
        "Ġe",
        "qu"
      ],
      [
        "Ġacc",
        "ording"
      ],
      [
        "Ġt",
        "ri"
      ],
      [
        "Ġb",
        "en"
      ],
      [
        "Ġs",
        "n"
      ],
      [
        "Ġm",
        "akes"
      ],
      [
        "ĠY",
        "ork"
      ],
      [
        "un",
        "g"
      ],
      [
        "Ġmem",
        "bers"
      ],
      [
        "ub",
        "l"
      ],
      [
        "ra",
        "ft"
      ],
      [
        "iz",
        "ation"
      ],
      [
        "Ġmil",
        "it"
      ],
      [
        "Ġres",
        "ult"
      ],
      [
        "Ġb",
        "ox"
      ],
      [
        "ag",
        "ed"
      ],
      [
        "s",
        "h"
      ],
      [
        "as",
        "ter"
      ],
      [
        "Ġv",
        "ot"
      ],
      [
        "Ġsh",
        "ort"
      ],
      [
        "al",
        "d"
      ],
      [
        "Ġf",
        "ight"
      ],
      [
        "Ġcour",
        "se"
      ],
      [
        "id",
        "ence"
      ],
      [
        "Ġplay",
        "ers"
      ],
      [
        "Ġar",
        "g"
      ],
      [
        "Ġfil",
        "m"
      ],
      [
        "Ġc",
        "reat"
      ],
      [
        "ĠA",
        "fter"
      ],
      [
        "Ġc",
        "ut"
      ],
      [
        "Ġst",
        "ay"
      ],
      [
        "ĠD",
        "em"
      ],
      [
        "l",
        "o"
      ],
      [
        "Ġ",
        "z"
      ],
      [
        "f",
        "or"
      ],
      [
        "Ġget",
        "ting"
      ],
      [
        "Ġsoc",
        "ial"
      ],
      [
        "e",
        "v"
      ],
      [
        "Ġcontro",
        "l"
      ],
      [
        "ic",
        "le"
      ],
      [
        "Ġso",
        "on"
      ],
      [
        "Ġdes",
        "c"
      ],
      [
        "ut",
        "ure"
      ],
      [
        "Ġ1",
        "6"
      ],
      [
        "Ġser",
        "ies"
      ],
      [
        "Ġsc",
        "ared"
      ],
      [
        "Ġd",
        "ad"
      ],
      [
        "Ġt",
        "ree"
      ],
      [
        "or",
        "ld"
      ],
      [
        "ur",
        "s"
      ],
      [
        "y",
        "ear"
      ],
      [
        "Ġwith",
        "in"
      ],
      [
        "el",
        "f"
      ],
      [
        "re",
        "am"
      ],
      [
        "--",
        "--"
      ],
      [
        "Ġm",
        "id"
      ],
      [
        "ĠR",
        "uss"
      ],
      [
        "ro",
        "wn"
      ],
      [
        "Ġw",
        "ind"
      ],
      [
        "Ġbeh",
        "ind"
      ],
      [
        "Ġinv",
        "ol"
      ],
      [
        "ap",
        "e"
      ],
      [
        "Ġpret",
        "ty"
      ],
      [
        "Ġmonth",
        "s"
      ],
      [
        "Ġh",
        "ig"
      ],
      [
        "ĠT",
        "w"
      ],
      [
        "Ġon",
        "ce"
      ],
      [
        "ul",
        "ation"
      ],
      [
        "Ġto",
        "day"
      ],
      [
        "end",
        "ing"
      ],
      [
        "qu",
        "e"
      ],
      [
        "a",
        "f"
      ],
      [
        "Ġf",
        "ur"
      ],
      [
        "Ġsu",
        "gg"
      ],
      [
        "ĠWh",
        "at"
      ],
      [
        "ap",
        "er"
      ],
      [
        "p",
        "or"
      ],
      [
        "w",
        "ork"
      ],
      [
        "Ġquest",
        "ion"
      ],
      [
        "c",
        "l"
      ],
      [
        "Ġsh",
        "are"
      ],
      [
        "ĠC",
        "ar"
      ],
      [
        "Ġam",
        "ong"
      ],
      [
        "Ġf",
        "ire"
      ],
      [
        "1",
        "1"
      ],
      [
        "ep",
        "t"
      ],
      [
        "ag",
        "ue"
      ],
      [
        "Ġm",
        "ess"
      ],
      [
        "ĠJ",
        "ack"
      ],
      [
        "en",
        "n"
      ],
      [
        "it",
        "ive"
      ],
      [
        "er",
        "t"
      ],
      [
        "th",
        "ough"
      ],
      [
        "ĠE",
        "very"
      ],
      [
        "Ġbelie",
        "ve"
      ],
      [
        "w",
        "h"
      ],
      [
        "ĠPres",
        "ident"
      ],
      [
        "b",
        "ed"
      ],
      [
        "Ġloc",
        "al"
      ],
      [
        "Ġproble",
        "m"
      ],
      [
        "Ġwhe",
        "ther"
      ],
      [
        "Ġl",
        "ight"
      ],
      [
        "Ġc",
        "ertain"
      ],
      [
        "Ġw",
        "atch"
      ],
      [
        "ĠF",
        "l"
      ],
      [
        "Ġex",
        "ample"
      ],
      [
        "anc",
        "es"
      ],
      [
        "Ġany",
        "thing"
      ],
      [
        "Ġn",
        "on"
      ],
      [
        "um",
        "ent"
      ],
      [
        "Ġm",
        "ag"
      ],
      [
        "Ġtr",
        "ying"
      ],
      [
        "Ġlike",
        "ly"
      ],
      [
        "Ġact",
        "iv"
      ],
      [
        "ens",
        "ive"
      ],
      [
        "Ġf",
        "ail"
      ],
      [
        "Ġ",
        "&"
      ],
      [
        "ent",
        "ial"
      ],
      [
        "Ġmed",
        "ia"
      ],
      [
        "Ġposs",
        "ible"
      ],
      [
        "Ġav",
        "ail"
      ],
      [
        "oc",
        "i"
      ],
      [
        "Ġvide",
        "o"
      ],
      [
        "ĠG",
        "r"
      ],
      [
        "e",
        "al"
      ],
      [
        "Ġgiv",
        "en"
      ],
      [
        "Ġr",
        "a"
      ],
      [
        "iss",
        "ion"
      ],
      [
        "art",
        "ment"
      ],
      [
        "Ġ3",
        "0"
      ],
      [
        "Ġme",
        "ans"
      ],
      [
        "m",
        "a"
      ],
      [
        "Ġfollow",
        "ing"
      ],
      [
        "Ġs",
        "ent"
      ],
      [
        "it",
        "ions"
      ],
      [
        "W",
        "hen"
      ],
      [
        "ac",
        "hed"
      ],
      [
        "Ġa",
        "uthor"
      ],
      [
        "Ġcl",
        "im"
      ],
      [
        "Ġsur",
        "pr"
      ],
      [
        "I",
        "f"
      ],
      [
        "or",
        "ry"
      ],
      [
        "Ġinvest",
        "ig"
      ],
      [
        "Ġse",
        "x"
      ],
      [
        "ver",
        "t"
      ],
      [
        "E",
        "R"
      ],
      [
        "Ġv",
        "iol"
      ],
      [
        "Ġf",
        "all"
      ],
      [
        "ĠB",
        "rit"
      ],
      [
        "ĠG",
        "er"
      ],
      [
        "m",
        "ing"
      ],
      [
        "ĠE",
        "ng"
      ],
      [
        "g",
        "ress"
      ],
      [
        "ort",
        "un"
      ],
      [
        "ĠUn",
        "iversity"
      ],
      [
        "Wh",
        "at"
      ],
      [
        "Ġde",
        "ath"
      ],
      [
        "ĠChr",
        "ist"
      ],
      [
        "i",
        "ec"
      ],
      [
        "at",
        "ors"
      ],
      [
        "o",
        "on"
      ],
      [
        "Ġst",
        "op"
      ],
      [
        "Ġcom",
        "ing"
      ],
      [
        "u",
        "ly"
      ],
      [
        "ĠM",
        "ax"
      ],
      [
        "iet",
        "y"
      ],
      [
        "Ġp",
        "ic"
      ],
      [
        "and",
        "s"
      ],
      [
        "am",
        "ent"
      ],
      [
        "ĠS",
        "e"
      ],
      [
        "Ġ1",
        "7"
      ],
      [
        "Ġh",
        "ur"
      ],
      [
        "ir",
        "on"
      ],
      [
        "un",
        "ch"
      ],
      [
        "Ġf",
        "uture"
      ],
      [
        "Ġl",
        "ow"
      ],
      [
        "ir",
        "c"
      ],
      [
        "Ġhim",
        "self"
      ],
      [
        "Ġl",
        "im"
      ],
      [
        "Ġw",
        "on"
      ],
      [
        "Ġpri",
        "v"
      ],
      [
        "Ġy",
        "et"
      ],
      [
        "Ġn",
        "ice"
      ],
      [
        "Ġb",
        "ased"
      ],
      [
        "re",
        "st"
      ],
      [
        "ar",
        "r"
      ],
      [
        "Ġpart",
        "y"
      ],
      [
        "Ġreport",
        "ed"
      ],
      [
        "Ġpro",
        "ject"
      ],
      [
        "ver",
        "age"
      ],
      [
        "ĠM",
        "in"
      ],
      [
        "Ġn",
        "et"
      ],
      [
        "Ġp",
        "oin"
      ],
      [
        "Ġcommun",
        "ity"
      ],
      [
        "Ġbl",
        "ack"
      ],
      [
        "Ġmus",
        "ic"
      ],
      [
        "ĠA",
        "m"
      ],
      [
        "Ġs",
        "our"
      ],
      [
        "1",
        "2"
      ],
      [
        "iv",
        "id"
      ],
      [
        "Ġp",
        "ain"
      ],
      [
        "Ġto",
        "ys"
      ],
      [
        "es",
        "ts"
      ],
      [
        "Ġc",
        "a"
      ],
      [
        "p",
        "s"
      ],
      [
        "it",
        "ter"
      ],
      [
        "Ġpr",
        "act"
      ],
      [
        "u",
        "se"
      ],
      [
        "Ġal",
        "most"
      ],
      [
        "it",
        "c"
      ],
      [
        "Ġre",
        "ason"
      ],
      [
        "Ġs",
        "ong"
      ],
      [
        "in",
        "ation"
      ],
      [
        "Ġare",
        "a"
      ],
      [
        "Ġs",
        "ix"
      ],
      [
        "ie",
        "f"
      ],
      [
        "Ġ",
        "ident"
      ],
      [
        "A",
        "nd"
      ],
      [
        "are",
        "n"
      ],
      [
        "Ġs",
        "un"
      ],
      [
        "ut",
        "es"
      ],
      [
        "Ġ1",
        "3"
      ],
      [
        "ĠC",
        "ent"
      ],
      [
        "Ġcon",
        "d"
      ],
      [
        "en",
        "e"
      ],
      [
        "Ġcare",
        "ful"
      ],
      [
        "Ġcom",
        "es"
      ],
      [
        "Ġhist",
        "ory"
      ],
      [
        "as",
        "hing"
      ],
      [
        "ĠSt",
        "ate"
      ],
      [
        "Ġsaf",
        "e"
      ],
      [
        "Ġpres",
        "ent"
      ],
      [
        "Ġl",
        "ive"
      ],
      [
        "o",
        "ke"
      ],
      [
        "sel",
        "ves"
      ],
      [
        "il",
        "ar"
      ],
      [
        "Ġh",
        "alf"
      ],
      [
        "eder",
        "al"
      ],
      [
        "Ġavail",
        "able"
      ],
      [
        "Ġ",
        "X"
      ],
      [
        "Ġpro",
        "b"
      ],
      [
        "Ġevery",
        "one"
      ],
      [
        "Ġ201",
        "6"
      ],
      [
        "Ġsome",
        "one"
      ],
      [
        "re",
        "ad"
      ],
      [
        "Ġtr",
        "ad"
      ],
      [
        "b",
        "ack"
      ],
      [
        "A",
        "n"
      ],
      [
        "g",
        "est"
      ],
      [
        "i",
        "am"
      ],
      [
        "ul",
        "ts"
      ],
      [
        "Ġn",
        "ational"
      ],
      [
        "ĠH",
        "ouse"
      ],
      [
        "os",
        "p"
      ],
      [
        "Ġel",
        "se"
      ],
      [
        "den",
        "ly"
      ],
      [
        "ĠDem",
        "ocr"
      ],
      [
        "le",
        "g"
      ],
      [
        "Ġ1",
        "4"
      ],
      [
        "d",
        "le"
      ],
      [
        "p",
        "ort"
      ],
      [
        "Ġind",
        "ust"
      ],
      [
        "Ġcomp",
        "et"
      ],
      [
        "Ġf",
        "low"
      ],
      [
        "her",
        "s"
      ],
      [
        "p",
        "ar"
      ],
      [
        "Ġsing",
        "le"
      ],
      [
        "a",
        "i"
      ],
      [
        "ition",
        "al"
      ],
      [
        "Ġimp",
        "ro"
      ],
      [
        "Ġadd",
        "ed"
      ],
      [
        "Ġem",
        "ploy"
      ],
      [
        "Ġrep",
        "res"
      ],
      [
        "og",
        "rap"
      ],
      [
        "Ġth",
        "in"
      ],
      [
        "Ġ",
        ";"
      ],
      [
        "Ġt",
        "aken"
      ],
      [
        "Ġmom",
        "my"
      ],
      [
        "v",
        "ices"
      ],
      [
        "Ġr",
        "ul"
      ],
      [
        "Ġ201",
        "5"
      ],
      [
        "Ġcomple",
        "te"
      ],
      [
        "Ġb",
        "ar"
      ],
      [
        "er",
        "y"
      ],
      [
        "Ġf",
        "le"
      ],
      [
        "Ġl",
        "ost"
      ],
      [
        "Ġcol",
        "le"
      ],
      [
        "n",
        "ot"
      ],
      [
        "ĠA",
        "ust"
      ],
      [
        "ĠN",
        "orth"
      ],
      [
        "Ġcle",
        "ar"
      ],
      [
        "Ġbre",
        "ak"
      ],
      [
        "Ġ",
        "i"
      ],
      [
        "Ġc",
        "at"
      ],
      [
        "Ġc",
        "and"
      ],
      [
        "Ġf",
        "oc"
      ],
      [
        "ĠF",
        "rom"
      ],
      [
        "in",
        "y"
      ],
      [
        "Ġc",
        "oun"
      ],
      [
        "ĠE",
        "x"
      ],
      [
        "Ġf",
        "ield"
      ],
      [
        "j",
        "oy"
      ],
      [
        "Ġ19",
        "8"
      ],
      [
        "b",
        "it"
      ],
      [
        "Ġf",
        "oot"
      ],
      [
        "Ġiss",
        "ue"
      ],
      [
        "Ġdesc",
        "rib"
      ],
      [
        "ĠCan",
        "ad"
      ],
      [
        "rou",
        "d"
      ],
      [
        "ĠW",
        "orld"
      ],
      [
        "u",
        "ge"
      ],
      [
        "le",
        "ase"
      ],
      [
        "ere",
        "nce"
      ],
      [
        "Ġhe",
        "ld"
      ],
      [
        "Ġrun",
        "ning"
      ],
      [
        "Ġj",
        "oin"
      ],
      [
        "Ġbr",
        "ing"
      ],
      [
        "Ġp",
        "ubl"
      ],
      [
        "Ġb",
        "oo"
      ],
      [
        "Ġs",
        "al"
      ],
      [
        "Ġt",
        "aking"
      ],
      [
        "ĠThe",
        "n"
      ],
      [
        "ĠD",
        "o"
      ],
      [
        "Ġpre",
        "vious"
      ],
      [
        "Ġlearn",
        "ed"
      ],
      [
        "Ġd",
        "oll"
      ],
      [
        "ĠP",
        "ol"
      ],
      [
        "Ġto",
        "t"
      ],
      [
        "Ġrele",
        "ased"
      ],
      [
        "ail",
        "s"
      ],
      [
        "ab",
        "ility"
      ],
      [
        "Ġsay",
        "ing"
      ],
      [
        "Ġag",
        "o"
      ],
      [
        "ac",
        "es"
      ],
      [
        "Ġv",
        "ict"
      ],
      [
        "Ġexper",
        "ience"
      ],
      [
        "pp",
        "ing"
      ],
      [
        "ĠW",
        "ar"
      ],
      [
        "Ġneed",
        "ed"
      ],
      [
        "w",
        "here"
      ],
      [
        "Ġ",
        "er"
      ],
      [
        "Ġs",
        "orry"
      ],
      [
        "Ġwr",
        "ote"
      ],
      [
        "The",
        "re"
      ],
      [
        "'",
        "ve"
      ],
      [
        "Ġacc",
        "ess"
      ],
      [
        "ĠM",
        "an"
      ],
      [
        "ĠOb",
        "ama"
      ],
      [
        "ĠS",
        "en"
      ],
      [
        "Ġcomp",
        "an"
      ],
      [
        "Ġind",
        "ivid"
      ],
      [
        "Ġst",
        "ar"
      ],
      [
        "Ġmilit",
        "ary"
      ],
      [
        "Ġw",
        "ait"
      ],
      [
        "Ġdid",
        "nt"
      ],
      [
        "Ġcom",
        "b"
      ],
      [
        "em",
        "pt"
      ],
      [
        "l",
        "er"
      ],
      [
        "Ġp",
        "ict"
      ],
      [
        ".",
        ","
      ],
      [
        "Ġbe",
        "aut"
      ],
      [
        "e",
        "le"
      ],
      [
        "ac",
        "ed"
      ],
      [
        "S",
        "o"
      ],
      [
        "Ġwh",
        "ite"
      ],
      [
        "O",
        "n"
      ],
      [
        "ic",
        "ult"
      ],
      [
        "h",
        "y"
      ],
      [
        "ĠW",
        "ith"
      ],
      [
        "Ġ201",
        "4"
      ],
      [
        "Ġevery",
        "thing"
      ],
      [
        "Ġc",
        "ou"
      ],
      [
        "A",
        "T"
      ],
      [
        "3",
        "0"
      ],
      [
        "Ġp",
        "roud"
      ],
      [
        "Ġm",
        "ind"
      ],
      [
        "Ġf",
        "ast"
      ],
      [
        "g",
        "ing"
      ],
      [
        "Ġcl",
        "os"
      ],
      [
        "Ġfe",
        "at"
      ],
      [
        "Ġke",
        "y"
      ],
      [
        "Ġrec",
        "ent"
      ],
      [
        "ust",
        "om"
      ],
      [
        "Ġe",
        "p"
      ],
      [
        "il",
        "t"
      ],
      [
        "Ġs",
        "qu"
      ],
      [
        "a",
        "id"
      ],
      [
        "o",
        "pped"
      ],
      [
        "min",
        "ist"
      ],
      [
        "ĠA",
        "f"
      ],
      [
        "Ġnot",
        "hing"
      ],
      [
        "ĠJ",
        "an"
      ],
      [
        "Ġt",
        "reat"
      ],
      [
        "Ġan",
        "al"
      ],
      [
        "Ġent",
        "ire"
      ],
      [
        "Th",
        "at"
      ],
      [
        "Ġpro",
        "per"
      ],
      [
        "Ġa",
        "ut"
      ],
      [
        "Ġs",
        "um"
      ],
      [
        "ĠHow",
        "ever"
      ],
      [
        "Ġr",
        "ather"
      ],
      [
        "Ġp",
        "iec"
      ],
      [
        "ru",
        "g"
      ],
      [
        "all",
        "en"
      ],
      [
        "Ġfr",
        "ont"
      ],
      [
        "Ġth",
        "ird"
      ],
      [
        "Ġph",
        "ot"
      ],
      [
        "g",
        "o"
      ],
      [
        "Ġfav",
        "or"
      ],
      [
        "F",
        "or"
      ],
      [
        "o",
        "f"
      ],
      [
        "Ġcour",
        "t"
      ],
      [
        "Ġst",
        "ore"
      ],
      [
        "Ġl",
        "ate"
      ],
      [
        "Ġr",
        "is"
      ],
      [
        "Ġ",
        "#"
      ],
      [
        "Ġlist",
        "en"
      ],
      [
        "Ġde",
        "ep"
      ],
      [
        "o",
        "ff"
      ],
      [
        "Ġto",
        "y"
      ],
      [
        "Ġb",
        "ill"
      ],
      [
        "att",
        "le"
      ],
      [
        "Ġtr",
        "a"
      ],
      [
        "Ġplay",
        "er"
      ],
      [
        "y",
        "n"
      ],
      [
        "Ġdisc",
        "uss"
      ],
      [
        "Ġan",
        "g"
      ],
      [
        "ĠE",
        "m"
      ],
      [
        "ĠG",
        "e"
      ],
      [
        "Ġhow",
        "ever"
      ],
      [
        "Ġb",
        "ody"
      ],
      [
        "Ġm",
        "ult"
      ],
      [
        "Ġh",
        "it"
      ],
      [
        "ĠS",
        "ec"
      ],
      [
        "Ġstud",
        "y"
      ],
      [
        "ĠD",
        "e"
      ],
      [
        "Ġc",
        "ult"
      ],
      [
        "ol",
        "ution"
      ],
      [
        "our",
        "n"
      ],
      [
        "Ġn",
        "ec"
      ],
      [
        "Ġth",
        "reat"
      ],
      [
        "Ġen",
        "c"
      ],
      [
        "Ġj",
        "ump"
      ],
      [
        "enc",
        "es"
      ],
      [
        "ĠT",
        "o"
      ],
      [
        "s",
        "w"
      ],
      [
        "Ġen",
        "joy"
      ],
      [
        "ow",
        "s"
      ],
      [
        "Ġhand",
        "s"
      ],
      [
        "Ġd",
        "am"
      ],
      [
        "ĠC",
        "al"
      ],
      [
        "u",
        "le"
      ],
      [
        "o",
        "le"
      ],
      [
        "Ġsim",
        "ilar"
      ],
      [
        "ar",
        "get"
      ],
      [
        "ĠD",
        "ec"
      ],
      [
        "ar",
        "c"
      ],
      [
        "Ġd",
        "ue"
      ],
      [
        "Ġfur",
        "ther"
      ],
      [
        "Ġg",
        "un"
      ],
      [
        "Ġquick",
        "ly"
      ],
      [
        "1",
        "5"
      ],
      [
        "'",
        "ll"
      ],
      [
        "Ġcon",
        "n"
      ],
      [
        "ĠG",
        "u"
      ],
      [
        "ĠN",
        "ational"
      ],
      [
        "r",
        "ing"
      ],
      [
        "Ġf",
        "ig"
      ],
      [
        "as",
        "ing"
      ],
      [
        "Ġcharac",
        "ter"
      ],
      [
        "ĠS",
        "outh"
      ],
      [
        "b",
        "ook"
      ],
      [
        "ĠE",
        "d"
      ],
      [
        "an",
        "a"
      ],
      [
        "Ġconc",
        "ern"
      ],
      [
        "ĠC",
        "ity"
      ],
      [
        "Ġcons",
        "ider"
      ],
      [
        "ra",
        "el"
      ],
      [
        "Ġsugg",
        "est"
      ],
      [
        "Ġcould",
        "n"
      ],
      [
        "or",
        "ing"
      ],
      [
        "Ġd",
        "est"
      ],
      [
        "pl",
        "ay"
      ],
      [
        "Ġso",
        "ft"
      ],
      [
        "Ġs",
        "elf"
      ],
      [
        "Ġfin",
        "al"
      ],
      [
        "Ġst",
        "ri"
      ],
      [
        "Ġst",
        "ates"
      ],
      [
        "ĠGer",
        "man"
      ],
      [
        "ĠAmeric",
        "a"
      ],
      [
        "ĠS",
        "u"
      ],
      [
        "it",
        "ch"
      ],
      [
        "ar",
        "m"
      ],
      [
        "if",
        "ul"
      ],
      [
        "Ġwho",
        "le"
      ],
      [
        "s",
        "y"
      ],
      [
        "Ġwr",
        "ong"
      ],
      [
        "it",
        "ing"
      ],
      [
        "Ġme",
        "as"
      ],
      [
        "d",
        "y"
      ],
      [
        "Ġpoin",
        "ts"
      ],
      [
        "Ġpol",
        "icy"
      ],
      [
        "Ġsu",
        "per"
      ],
      [
        "b",
        "o"
      ],
      [
        "Ġm",
        "ass"
      ],
      [
        "Ġwor",
        "ked"
      ],
      [
        "us",
        "p"
      ],
      [
        "Ġst",
        "e"
      ],
      [
        "Ġbuild",
        "ing"
      ],
      [
        "Ġb",
        "an"
      ],
      [
        "ang",
        "er"
      ],
      [
        "a",
        "ul"
      ],
      [
        "Ġe",
        "at"
      ],
      [
        "ĠD",
        "ep"
      ],
      [
        "Ġe",
        "ither"
      ],
      [
        "r",
        "ict"
      ],
      [
        "Ġsign",
        "ific"
      ],
      [
        "i",
        "od"
      ],
      [
        "v",
        "iron"
      ],
      [
        "Ġsec",
        "urity"
      ],
      [
        "Ġcle",
        "an"
      ],
      [
        "Ġr",
        "ad"
      ],
      [
        "li",
        "er"
      ],
      [
        "Ġex",
        "ist"
      ],
      [
        "Ġman",
        "ag"
      ],
      [
        "id",
        "ing"
      ],
      [
        "..",
        "."
      ],
      [
        "Ġ201",
        "3"
      ],
      [
        "ir",
        "t"
      ],
      [
        "Ġser",
        "vice"
      ],
      [
        "/",
        "/"
      ],
      [
        "r",
        "an"
      ],
      [
        "n",
        "es"
      ],
      [
        "ĠJ",
        "ust"
      ],
      [
        "Ġbe",
        "gin"
      ],
      [
        "Ġtal",
        "k"
      ],
      [
        "ĠD",
        "av"
      ],
      [
        "Ġf",
        "ell"
      ],
      [
        "I",
        "N"
      ],
      [
        "ec",
        "ially"
      ],
      [
        "Ġst",
        "ep"
      ],
      [
        "l",
        "ish"
      ],
      [
        "Ġro",
        "le"
      ],
      [
        "Ġinf",
        "l"
      ],
      [
        "Ġhour",
        "s"
      ],
      [
        "Ġin",
        "it"
      ],
      [
        "Ġhappen",
        "ed"
      ],
      [
        "Ġhop",
        "e"
      ],
      [
        "itt",
        "ed"
      ],
      [
        "p",
        "ly"
      ],
      [
        "Ġmat",
        "ter"
      ],
      [
        "Ġw",
        "ond"
      ],
      [
        "Ġ2",
        "5"
      ],
      [
        "if",
        "t"
      ],
      [
        "re",
        "l"
      ],
      [
        "Ġdec",
        "ision"
      ],
      [
        "Ġcre",
        "ate"
      ],
      [
        "Ġrese",
        "arch"
      ],
      [
        "Ġpos",
        "ition"
      ],
      [
        "Ġp",
        "ull"
      ],
      [
        "Ġprob",
        "ably"
      ],
      [
        "Ġ",
        "esp"
      ],
      [
        "rem",
        "e"
      ],
      [
        "Ġl",
        "ab"
      ],
      [
        "he",
        "ad"
      ],
      [
        "se",
        "c"
      ],
      [
        "Ġmom",
        "ent"
      ],
      [
        "Ġanim",
        "als"
      ],
      [
        "Ġtr",
        "ack"
      ],
      [
        "Ġrel",
        "ations"
      ],
      [
        "Ġ1",
        "00"
      ],
      [
        "Ġen",
        "er"
      ],
      [
        "Ġar",
        "ri"
      ],
      [
        "iv",
        "il"
      ],
      [
        "Ġcom",
        "pl"
      ],
      [
        "Ġt",
        "em"
      ],
      [
        "Ġthat",
        "s"
      ],
      [
        "m",
        "b"
      ],
      [
        "Ġd",
        "oc"
      ],
      [
        "oun",
        "ced"
      ],
      [
        "ashing",
        "ton"
      ],
      [
        "Ġc",
        "irc"
      ],
      [
        "Ġke",
        "pt"
      ],
      [
        "o",
        "ver"
      ],
      [
        "es",
        "c"
      ],
      [
        "Ġinst",
        "ead"
      ],
      [
        "ĠW",
        "ill"
      ],
      [
        "ke",
        "y"
      ],
      [
        "Ġr",
        "ights"
      ],
      [
        "Ġdevelop",
        "ment"
      ],
      [
        "ĠD",
        "on"
      ],
      [
        "Ġf",
        "ly"
      ],
      [
        "if",
        "y"
      ],
      [
        "Ġben",
        "ef"
      ],
      [
        "is",
        "c"
      ],
      [
        "ĠAn",
        "na"
      ],
      [
        "Ġoff",
        "ice"
      ],
      [
        "Ġex",
        "ec"
      ],
      [
        "Ġdiff",
        "icult"
      ],
      [
        "ĠS",
        "ept"
      ],
      [
        "ove",
        "red"
      ],
      [
        "Ġsp",
        "ace"
      ],
      [
        "Ġa",
        "p"
      ],
      [
        "Ġch",
        "allen"
      ],
      [
        "Ġg",
        "en"
      ],
      [
        "Ġvers",
        "ion"
      ],
      [
        "e",
        "ed"
      ],
      [
        "ad",
        "es"
      ],
      [
        "Ġ201",
        "2"
      ],
      [
        "ĠO",
        "ct"
      ],
      [
        "Ġrele",
        "ase"
      ],
      [
        ".",
        ")"
      ],
      [
        "h",
        "am"
      ],
      [
        "Ġ19",
        "7"
      ],
      [
        "Ġshow",
        "s"
      ],
      [
        "Ġs",
        "at"
      ],
      [
        "Ġab",
        "ove"
      ],
      [
        "Ġt",
        "arget"
      ],
      [
        "ĠM",
        "y"
      ],
      [
        "u",
        "ation"
      ],
      [
        "Ġim",
        "m"
      ],
      [
        "s",
        "er"
      ],
      [
        "um",
        "b"
      ],
      [
        "Ġrepres",
        "ent"
      ],
      [
        "Ġhe",
        "av"
      ],
      [
        "Ġcomm",
        "on"
      ],
      [
        "Ġthem",
        "selves"
      ],
      [
        "Ġs",
        "old"
      ],
      [
        "w",
        "w"
      ],
      [
        "Ġit",
        "self"
      ],
      [
        "ĠIs",
        "rael"
      ],
      [
        "Ġlong",
        "er"
      ],
      [
        "in",
        "ton"
      ],
      [
        "O",
        "N"
      ],
      [
        "1",
        "6"
      ],
      [
        "Ġs",
        "low"
      ],
      [
        "Ġo",
        "pt"
      ],
      [
        "og",
        "n"
      ],
      [
        "Ġbeaut",
        "iful"
      ],
      [
        "Ġshow",
        "ed"
      ],
      [
        "am",
        "er"
      ],
      [
        "Ġhig",
        "her"
      ],
      [
        "le",
        "ment"
      ],
      [
        "Ġiss",
        "ues"
      ],
      [
        "Ġc",
        "op"
      ],
      [
        "ĠG",
        "o"
      ],
      [
        "Ġgroup",
        "s"
      ],
      [
        "ĠA",
        "ug"
      ],
      [
        "Ġdoes",
        "nt"
      ],
      [
        "Ġle",
        "av"
      ],
      [
        "Ġinclud",
        "e"
      ],
      [
        "ĠIn",
        "st"
      ],
      [
        "ress",
        "ed"
      ],
      [
        "Ġs",
        "usp"
      ],
      [
        "Ġd",
        "ou"
      ],
      [
        "itt",
        "ing"
      ],
      [
        "iv",
        "al"
      ],
      [
        "Ġdo",
        "or"
      ],
      [
        "Ġtr",
        "ue"
      ],
      [
        "Ġword",
        "s"
      ],
      [
        "Ġa",
        "ction"
      ],
      [
        "R",
        "E"
      ],
      [
        "Ġstud",
        "ents"
      ],
      [
        "Ġprov",
        "ide"
      ],
      [
        "Ġsignific",
        "ant"
      ],
      [
        "ut",
        "ed"
      ],
      [
        "y",
        "le"
      ],
      [
        "ib",
        "ility"
      ],
      [
        "Ġlead",
        "ers"
      ],
      [
        "T",
        "om"
      ],
      [
        "ĠA",
        "pp"
      ],
      [
        "aren",
        "ts"
      ],
      [
        "Ġrece",
        "ived"
      ],
      [
        "her",
        "n"
      ],
      [
        "Ġgener",
        "al"
      ],
      [
        "viron",
        "ment"
      ],
      [
        "ĠA",
        "ss"
      ],
      [
        "1",
        "4"
      ],
      [
        "Ġd",
        "i"
      ],
      [
        "Ġwom",
        "an"
      ],
      [
        "ĠA",
        "b"
      ],
      [
        "Ġper",
        "iod"
      ],
      [
        "rough",
        "t"
      ],
      [
        "ĠW",
        "ashington"
      ],
      [
        "1",
        "3"
      ],
      [
        "Ġd",
        "om"
      ],
      [
        "I",
        "S"
      ],
      [
        "Ġne",
        "g"
      ],
      [
        "ĠN",
        "ow"
      ],
      [
        "ĠM",
        "ed"
      ],
      [
        "Ġm",
        "ot"
      ],
      [
        "ĠP",
        "art"
      ],
      [
        "Ġopen",
        "ed"
      ],
      [
        "ĠJ",
        "une"
      ],
      [
        "is",
        "es"
      ],
      [
        "ĠW",
        "est"
      ],
      [
        "Ġprof",
        "ess"
      ],
      [
        "Ġc",
        "ustom"
      ],
      [
        "ĠIn",
        "tern"
      ],
      [
        "Ġm",
        "other"
      ],
      [
        "Ġl",
        "ed"
      ],
      [
        "Ġf",
        "ederal"
      ],
      [
        "Ġbu",
        "y"
      ],
      [
        "Ġt",
        "it"
      ],
      [
        "r",
        "ay"
      ],
      [
        "Ġseem",
        "s"
      ],
      [
        "en",
        "g"
      ],
      [
        "Ġcompan",
        "ies"
      ],
      [
        "Ġle",
        "ave"
      ],
      [
        ":",
        "//"
      ],
      [
        "j",
        "ects"
      ],
      [
        "Ġdet",
        "er"
      ],
      [
        "u",
        "ary"
      ],
      [
        "Ġwee",
        "ks"
      ],
      [
        "Ġbe",
        "ar"
      ],
      [
        "ard",
        "en"
      ],
      [
        "ĠM",
        "arch"
      ],
      [
        "N",
        "o"
      ],
      [
        "Ġd",
        "iv"
      ],
      [
        "Ġev",
        "idence"
      ],
      [
        "Ġcontin",
        "ue"
      ],
      [
        "itt",
        "en"
      ],
      [
        "B",
        "C"
      ],
      [
        "Ġturn",
        "ed"
      ],
      [
        "Ġhe",
        "ar"
      ],
      [
        "Ġsu",
        "ff"
      ],
      [
        "Ġc",
        "ry"
      ],
      [
        "Ġli",
        "ving"
      ],
      [
        "Ġ5",
        "0"
      ],
      [
        "id",
        "ay"
      ],
      [
        "du",
        "ct"
      ],
      [
        "ep",
        "end"
      ],
      [
        "Ġofficial",
        "s"
      ],
      [
        "A",
        "d"
      ],
      [
        "Ġener",
        "gy"
      ],
      [
        "Ġto",
        "wn"
      ],
      [
        "re",
        "g"
      ],
      [
        "Ġey",
        "es"
      ],
      [
        "o",
        "or"
      ],
      [
        "Ġinter",
        "view"
      ],
      [
        "Ġesp",
        "ecially"
      ],
      [
        "g",
        "le"
      ],
      [
        "Ġd",
        "raw"
      ],
      [
        "ang",
        "u"
      ],
      [
        "Ġh",
        "om"
      ],
      [
        "Ġp",
        "ack"
      ],
      [
        "ob",
        "al"
      ],
      [
        "il",
        "i"
      ],
      [
        "Ġcount",
        "ries"
      ],
      [
        "as",
        "k"
      ],
      [
        "Ġloo",
        "ks"
      ],
      [
        "ic",
        "ed"
      ],
      [
        "pr",
        "il"
      ],
      [
        "a",
        "ult"
      ],
      [
        "l",
        "im"
      ],
      [
        "ur",
        "ch"
      ],
      [
        "f",
        "ect"
      ],
      [
        "Ġfor",
        "ward"
      ],
      [
        "Ġro",
        "ck"
      ],
      [
        "Ġp",
        "ort"
      ],
      [
        "A",
        "N"
      ],
      [
        "Ġresp",
        "ons"
      ],
      [
        "ĠH",
        "ar"
      ],
      [
        "Ġin",
        "j"
      ],
      [
        "cc",
        "ording"
      ],
      [
        "Ġneed",
        "s"
      ],
      [
        "v",
        "al"
      ],
      [
        "Ġli",
        "ved"
      ],
      [
        "A",
        "l"
      ],
      [
        "Ġad",
        "minist"
      ],
      [
        "Ġstat",
        "ement"
      ],
      [
        "li",
        "ke"
      ],
      [
        "ĠM",
        "us"
      ],
      [
        "Ġl",
        "at"
      ],
      [
        "Ġyou",
        "re"
      ],
      [
        "Ġro",
        "ad"
      ],
      [
        "are",
        "nt"
      ],
      [
        "ĠJ",
        "uly"
      ],
      [
        "he",
        "l"
      ],
      [
        "C",
        "h"
      ],
      [
        "au",
        "g"
      ],
      [
        "Ġsim",
        "ply"
      ],
      [
        "c",
        "le"
      ],
      [
        "ourn",
        "al"
      ],
      [
        "ĠThe",
        "se"
      ],
      [
        "es",
        "e"
      ],
      [
        "et",
        "er"
      ],
      [
        "Ġ2",
        "4"
      ],
      [
        "ĠAust",
        "ral"
      ],
      [
        "Ġspec",
        "ific"
      ],
      [
        "Ġh",
        "ot"
      ],
      [
        "l",
        "am"
      ],
      [
        "Ġre",
        "view"
      ],
      [
        "Ġacc",
        "ount"
      ],
      [
        "med",
        "i"
      ],
      [
        "ud",
        "denly"
      ],
      [
        "Ġbe",
        "low"
      ],
      [
        "Ġsh",
        "oot"
      ],
      [
        "ĠD",
        "r"
      ],
      [
        "1",
        "7"
      ],
      [
        "Ġlot",
        "s"
      ],
      [
        "Ġfin",
        "anc"
      ],
      [
        "\"",
        "."
      ],
      [
        "ĠM",
        "ich"
      ],
      [
        "Ġorig",
        "inal"
      ],
      [
        "Ġph",
        "ys"
      ],
      [
        "Ġj",
        "ud"
      ],
      [
        "Ġm",
        "ov"
      ],
      [
        "om",
        "m"
      ],
      [
        "Ġab",
        "s"
      ],
      [
        "ĠS",
        "er"
      ],
      [
        "Ġpop",
        "ular"
      ],
      [
        "Ġsk",
        "y"
      ],
      [
        "Ġf",
        "air"
      ],
      [
        "A",
        "fter"
      ],
      [
        "ĠS",
        "m"
      ],
      [
        "ough",
        "t"
      ],
      [
        "Ġwor",
        "ks"
      ],
      [
        "Ġfeel",
        "ing"
      ],
      [
        "Ġp",
        "arents"
      ],
      [
        "ĠC",
        "o"
      ],
      [
        "Ġac",
        "cept"
      ],
      [
        "Ġqu",
        "ite"
      ],
      [
        "in",
        "ally"
      ],
      [
        "Ġtot",
        "al"
      ],
      [
        "Ġdec",
        "l"
      ],
      [
        "ist",
        "ic"
      ],
      [
        "ĠN",
        "ot"
      ],
      [
        "Ġd",
        "rug"
      ],
      [
        "m",
        "ber"
      ],
      [
        "Ġs",
        "ite"
      ],
      [
        "ĠP",
        "ar"
      ],
      [
        "ud",
        "e"
      ],
      [
        "Ġatt",
        "empt"
      ],
      [
        "ap",
        "an"
      ],
      [
        "p",
        "ro"
      ],
      [
        "ĠCl",
        "inton"
      ],
      [
        "Ġcontin",
        "ued"
      ],
      [
        "Ġr",
        "ace"
      ],
      [
        "Ġhug",
        "ged"
      ],
      [
        "i",
        "que"
      ],
      [
        "ĠA",
        "pril"
      ],
      [
        "Ġp",
        "aper"
      ],
      [
        "Ġh",
        "ost"
      ],
      [
        "e",
        "g"
      ],
      [
        "Ġele",
        "ction"
      ],
      [
        "Ġp",
        "ick"
      ],
      [
        "Ġgo",
        "al"
      ],
      [
        "ĠE",
        "n"
      ],
      [
        "Ġser",
        "ious"
      ],
      [
        "Ġindust",
        "ry"
      ],
      [
        "Ġ201",
        "7"
      ],
      [
        "c",
        "hes"
      ],
      [
        "Ġre",
        "ached"
      ],
      [
        "Ġc",
        "ant"
      ],
      [
        "b",
        "or"
      ],
      [
        "b",
        "ody"
      ],
      [
        "ill",
        "ed"
      ],
      [
        "Ġval",
        "ue"
      ],
      [
        "h",
        "od"
      ],
      [
        "Ġb",
        "rought"
      ],
      [
        "Ġv",
        "ol"
      ],
      [
        "Ġhelp",
        "ed"
      ],
      [
        "ĠSept",
        "ember"
      ],
      [
        "le",
        "ep"
      ],
      [
        "ul",
        "arly"
      ],
      [
        "Ġchang",
        "es"
      ],
      [
        "S",
        "he"
      ],
      [
        "Ġrel",
        "ig"
      ],
      [
        "id",
        "ge"
      ],
      [
        "Ġan",
        "sw"
      ],
      [
        "Ġany",
        "one"
      ],
      [
        "Ġleg",
        "al"
      ],
      [
        "Ġmin",
        "utes"
      ],
      [
        "y",
        "r"
      ],
      [
        "Ġc",
        "al"
      ],
      [
        "ĠBrit",
        "ish"
      ],
      [
        "Ġw",
        "ants"
      ],
      [
        "t",
        "ime"
      ],
      [
        "__",
        "__"
      ],
      [
        "Ġd",
        "ro"
      ],
      [
        "Ġre",
        "ve"
      ],
      [
        "*",
        "*"
      ],
      [
        "Ġ19",
        "6"
      ],
      [
        "Ġre",
        "v"
      ],
      [
        "Ġs",
        "ense"
      ],
      [
        "ove",
        "mber"
      ],
      [
        "ĠB",
        "ar"
      ],
      [
        "c",
        "y"
      ],
      [
        "1",
        "8"
      ],
      [
        "Ġ",
        "|"
      ],
      [
        "Ġexp",
        "ect"
      ],
      [
        "Ġcand",
        "id"
      ],
      [
        "ace",
        "book"
      ],
      [
        "Ġc",
        "red"
      ],
      [
        "Ġcre",
        "ated"
      ],
      [
        "ĠG",
        "od"
      ],
      [
        "Ġpr",
        "im"
      ],
      [
        "Ġa",
        "ge"
      ],
      [
        "A",
        "S"
      ],
      [
        "Y",
        "es"
      ],
      [
        "f",
        "er"
      ],
      [
        "ill",
        "s"
      ],
      [
        "Ġed",
        "uc"
      ],
      [
        "Ġt",
        "akes"
      ],
      [
        "l",
        "us"
      ],
      [
        "ĠP",
        "e"
      ],
      [
        "Ġb",
        "ed"
      ],
      [
        "Ġa",
        "ud"
      ],
      [
        "A",
        "t"
      ],
      [
        "d",
        "ed"
      ],
      [
        "i",
        "ents"
      ],
      [
        "Ġas",
        "k"
      ],
      [
        "Ġb",
        "illion"
      ],
      [
        "end",
        "er"
      ],
      [
        "i",
        "ber"
      ],
      [
        "st",
        "r"
      ],
      [
        "!",
        "!"
      ],
      [
        "Ġmor",
        "ning"
      ],
      [
        "Ġre",
        "ady"
      ],
      [
        "Ġs",
        "ell"
      ],
      [
        "ĠWh",
        "ite"
      ],
      [
        "ar",
        "ter"
      ],
      [
        "Ġf",
        "ix"
      ],
      [
        "Ġw",
        "at"
      ],
      [
        "Ġhur",
        "t"
      ],
      [
        "Ġre",
        "ach"
      ],
      [
        "Ġeconom",
        "ic"
      ],
      [
        "Ġde",
        "ad"
      ],
      [
        "A",
        "R"
      ],
      [
        "Ġp",
        "red"
      ],
      [
        "ĠAug",
        "ust"
      ],
      [
        "Ġ201",
        "1"
      ],
      [
        "Ġv",
        "oice"
      ],
      [
        "it",
        "er"
      ],
      [
        "Ġcan",
        "not"
      ],
      [
        "Ġrec",
        "ently"
      ],
      [
        "ĠS",
        "ome"
      ],
      [
        "ĠC",
        "ong"
      ],
      [
        "ĠJan",
        "uary"
      ],
      [
        "re",
        "et"
      ],
      [
        "Ġk",
        "ids"
      ],
      [
        "Ġad",
        "m"
      ],
      [
        "as",
        "ons"
      ],
      [
        "Ġvis",
        "it"
      ],
      [
        "ra",
        "ve"
      ],
      [
        "Ġest",
        "ab"
      ],
      [
        "m",
        "ore"
      ],
      [
        "Ġopp",
        "ortun"
      ],
      [
        "Ġant",
        "i"
      ],
      [
        "Ġs",
        "il"
      ],
      [
        "l",
        "t"
      ],
      [
        "Ġv",
        "ote"
      ],
      [
        "k",
        "n"
      ],
      [
        "u",
        "el"
      ],
      [
        "Ġcom",
        "ment"
      ],
      [
        "id",
        "ents"
      ],
      [
        "Ġfor",
        "ce"
      ],
      [
        "ĠCh",
        "ina"
      ],
      [
        "ĠWh",
        "ile"
      ],
      [
        "Ġbr",
        "other"
      ],
      [
        "M",
        "om"
      ],
      [
        "ip",
        "s"
      ],
      [
        "Ġr",
        "ound"
      ],
      [
        "ĠN",
        "ovember"
      ],
      [
        "ĠGe",
        "or"
      ],
      [
        "Ġfoc",
        "us"
      ],
      [
        "at",
        "ur"
      ],
      [
        "Ġor",
        "d"
      ],
      [
        "on",
        "se"
      ],
      [
        "Ġcomp",
        "ut"
      ],
      [
        "Ġear",
        "lier"
      ],
      [
[...]
